<pad>	0
<unk>	0
<s>	0
</s>	0
▁t	-0
▁a	-1
in	-2
he	-3
er	-4
on	-5
▁s	-6
re	-7
▁the	-8
ed	-9
en	-10
or	-11
▁w	-12
an	-13
at	-14
▁c	-15
es	-16
▁o	-17
ar	-18
▁f	-19
it	-20
▁in	-21
ing	-22
is	-23
al	-24
▁p	-25
▁b	-26
▁of	-27
nd	-28
▁to	-29
ic	-30
ou	-31
as	-32
▁h	-33
▁m	-34
▁d	-35
il	-36
▁.	-37
▁and	-38
id	-39
ion	-40
ro	-41
ent	-42
le	-43
ay	-44
▁S	-45
▁th	-46
▁A	-47
▁C	-48
▁re	-49
st	-50
ol	-51
om	-52
▁n	-53
▁T	-54
el	-55
ra	-56
▁M	-57
ur	-58
ter	-59
▁g	-60
▁l	-61
ad	-62
am	-63
▁for	-64
ig	-65
ec	-66
ve	-67
▁"	-68
us	-69
▁on	-70
▁B	-71
ut	-72
ir	-73
▁e	-74
ac	-75
▁I	-76
ot	-77
▁he	-78
et	-79
▁P	-80
▁st	-81
im	-82
ation	-83
ver	-84
ill	-85
▁D	-86
▁be	-87
ly	-88
ith	-89
ow	-90
▁that	-91
▁N	-92
ce	-93
▁at	-94
▁F	-95
▁with	-96
▁wh	-97
▁L	-98
▁sa	-99
▁R	-100
ts	-101
▁-	-102
ers	-103
▁--	-104
ri	-105
▁is	-106
ear	-107
▁as	-108
▁was	-109
un	-110
em	-111
os	-112
and	-113
▁1	-114
▁said	-115
▁H	-116
▁an	-117
▁W	-118
00	-119
ul	-120
res	-121
op	-122
▁con	-123
ort	-124
est	-125
ak	-126
ld	-127
her	-128
▁2	-129
igh	-130
▁The	-131
▁al	-132
ch	-133
rom	-134
ct	-135
ate	-136
ist	-137
▁G	-138
ain	-139
ment	-140
if	-141
▁U	-142
▁say	-143
th	-144
▁pro	-145
▁v	-146
▁from	-147
pp	-148
▁J	-149
ity	-150
▁E	-151
ag	-152
day	-153
▁ch	-154
▁it	-155
▁his	-156
ore	-157
ice	-158
▁k	-159
ew	-160
▁O	-161
▁ha	-162
▁de	-163
ian	-164
▁by	-165
▁le	-166
▁su	-167
▁y	-168
ia	-169
▁sh	-170
all	-171
ess	-172
ial	-173
ud	-174
art	-175
ard	-176
▁(	-177
▁r	-178
oc	-179
ast	-180
ies	-181
▁com	-182
our	-183
end	-184
ee	-185
ff	-186
oun	-187
▁off	-188
▁are	-189
▁ag	-190
od	-191
ack	-192
NN	-193
ap	-194
ous	-195
▁sp	-196
ident	-197
▁has	-198
ord	-199
fter	-200
▁says	-201
▁ex	-202
ab	-203
ary	-204
und	-205
ust	-206
cc	-207
▁K	-208
▁have	-209
ect	-210
ive	-211
out	-212
ight	-213
qu	-214
um	-215
ire	-216
▁after	-217
up	-218
iv	-219
gh	-220
▁who	-221
▁pl	-222
,"	-223
ie	-224
ere	-225
▁go	-226
ine	-227
ok	-228
▁V	-229
▁j	-230
ber	-231
▁were	-232
ep	-233
▁ab	-234
rou	-235
mer	-236
ry	-237
ost	-238
▁Ch	-239
ant	-240
▁St	-241
ich	-242
ide	-243
are	-244
ru	-245
▁se	-246
▁pol	-247
▁pe	-248
ould	-249
ome	-250
raq	-251
▁acc	-252
▁whe	-253
▁Iraq	-254
▁In	-255
ge	-256
ey	-257
per	-258
ople	-259
▁not	-260
enc	-261
ure	-262
ran	-263
▁her	-264
CNN	-265
▁rep	-266
▁res	-267
▁people	-268
▁ar	-269
ong	-270
▁att	-271
▁year	-272
ip	-273
ions	-274
to	-275
ub	-276
▁wor	-277
ign	-278
ount	-279
ild	-280
ass	-281
old	-282
▁or	-283
ated	-284
▁tw	-285
ict	-286
man	-287
▁3	-288
▁cl	-289
ates	-290
▁their	-291
se	-292
amp	-293
▁200	-294
▁kill	-295
resident	-296
ick	-297
orn	-298
▁un	-299
ence	-300
▁she	-301
▁dis	-302
iz	-303
ell	-304
▁ad	-305
ress	-306
ther	-307
uc	-308
ren	-309
▁inc	-310
▁out	-311
▁will	-312
esday	-313
▁over	-314
▁Un	-315
▁up	-316
ters	-317
▁this	-318
og	-319
ound	-320
▁offic	-321
wn	-322
ree	-323
arg	-324
rit	-325
use	-326
av	-327
pl	-328
ib	-329
▁two	-330
▁Th	-331
▁ro	-332
▁Al	-333
ally	-334
▁about	-335
ue	-336
irst	-337
▁had	-338
▁been	-339
▁tra	-340
▁they	-341
ik	-342
int	-343
ors	-344
▁man	-345
ime	-346
▁mil	-347
ite	-348
▁sec	-349
▁which	-350
eek	-351
▁but	-352
▁new	-353
▁first	-354
▁cont	-355
ations	-356
so	-357
ake	-358
own	-359
ond	-360
tern	-361
▁inv	-362
ational	-363
▁mon	-364
aw	-365
ile	-366
▁rec	-367
ish	-368
ult	-369
age	-370
▁NE	-371
oy	-372
▁ne	-373
ican	-374
vern	-375
▁NEW	-376
▁fac	-377
▁official	-378
ase	-379
▁ra	-380
▁all	-381
ens	-382
hed	-383
ush	-384
ited	-385
▁one	-386
▁per	-387
▁call	-388
▁comp	-389
▁again	-390
ail	-391
ind	-392
▁we	-393
ck	-394
▁im	-395
▁when	-396
ved	-397
▁more	-398
ical	-399
▁police	-400
ose	-401
▁do	-402
▁also	-403
▁into	-404
▁govern	-405
ons	-406
urn	-407
▁19	-408
year	-409
▁its	-410
▁child	-411
▁ev	-412
▁te	-413
ition	-414
▁lead	-415
,00	-416
ame	-417
ark	-418
ied	-419
red	-420
,000	-421
▁can	-422
▁than	-423
▁other	-424
▁fl	-425
▁app	-426
ath	-427
▁me	-428
ording	-429
▁years	-430
ach	-431
ely	-432
ency	-433
land	-434
ted	-435
irl	-436
▁sc	-437
▁hel	-438
▁count	-439
pect	-440
ities	-441
▁part	-442
▁against	-443
oh	-444
ang	-445
reat	-446
▁car	-447
▁und	-448
▁killed	-449
iss	-450
ents	-451
▁week	-452
▁Y	-453
▁qu	-454
other	-455
▁last	-456
ama	-457
one	-458
ood	-459
▁An	-460
▁Le	-461
▁cr	-462
▁pr	-463
▁report	-464
▁government	-465
ft	-466
ater	-467
ouse	-468
▁New	-469
▁min	-470
▁ser	-471
ade	-472
ans	-473
▁en	-474
▁would	-475
pe	-476
rid	-477
iver	-478
▁milit	-479
▁three	-480
ob	-481
ubl	-482
istan	-483
▁help	-484
▁under	-485
▁United	-486
▁according	-487
▁5	-488
ince	-489
▁him	-490
▁4	-491
ife	-492
ough	-493
illion	-494
▁attack	-495
ah	-496
ash	-497
ina	-498
ink	-499
lud	-500
able	-501
used	-502
▁CNN	-503
▁dec	-504
▁ear	-505
leg	-506
med	-507
▁co	-508
▁president	-509
oll	-510
omb	-511
ory	-512
urs	-513
▁Ar	-514
▁He	-515
amil	-516
ting	-517
▁ter	-518
rest	-519
▁Wed	-520
▁bec	-521
▁day	-522
▁comm	-523
▁work	-524
ix	-525
▁am	-526
▁supp	-527
▁them	-528
ss	-529
port	-530
uring	-531
▁camp	-532
▁found	-533
au	-534
led	-535
▁bl	-536
▁sus	-537
▁Wedn	-538
▁grou	-539
artment	-540
▁includ	-541
▁Wednesday	-542
rat	-543
▁Af	-544
▁lo	-545
▁act	-546
▁fire	-547
▁play	-548
ave	-549
▁Cl	-550
ered	-551
▁Mar	-552
▁charg	-553
▁world	-554
ets	-555
▁month	-556
ex	-557
ug	-558
ike	-559
ror	-560
atur	-561
ings	-562
orts	-563
▁ass	-564
▁pre	-565
als	-566
▁inj	-567
▁rel	-568
▁war	-569
▁conf	-570
▁near	-571
▁President	-572
for	-573
ier	-574
urity	-575
vel	-576
▁Tu	-577
ased	-578
ines	-579
▁fin	-580
▁spok	-581
▁told	-582
▁could	-583
ces	-584
ool	-585
ork	-586
▁At	-587
lect	-588
▁win	-589
▁home	-590
▁Tuesday	-591
ON	-592
der	-593
oot	-594
uth	-595
outh	-596
ving	-597
▁ind	-598
▁Bush	-599
▁Sund	-600
▁military	-601
alk	-602
che	-603
oss	-604
uss	-605
alif	-606
ause	-607
▁Dep	-608
▁Pol	-609
▁famil	-610
▁Sunday	-611
gan	-612
rug	-613
▁Sh	-614
cent	-615
ious	-616
ists	-617
▁rem	-618
ement	-619
inton	-620
▁state	-621
pt	-622
▁$	-623
▁Q	-624
son	-625
▁It	-626
▁Ob	-627
▁Re	-628
▁Mon	-629
ember	-630
estig	-631
ister	-632
▁Amer	-633
▁cons	-634
▁arrest	-635
▁officials	-636
ief	-637
ven	-638
emoc	-639
ward	-640
aking	-641
ution	-642
▁down	-643
▁most	-644
▁time	-645
ursday	-646
▁Obama	-647
▁during	-648
▁Thursday	-649
ms	-650
iel	-651
ock	-652
▁em	-653
▁vi	-654
eral	-655
rough	-656
ace	-657
aim	-658
ank	-659
ual	-660
ance	-661
oman	-662
▁des	-663
▁ins	-664
▁sur	-665
uthor	-666
▁back	-667
▁former	-668
▁country	-669
ternational	-670
any	-671
ton	-672
▁so	-673
ened	-674
fore	-675
ourt	-676
▁Car	-677
chool	-678
▁while	-679
▁spokes	-680
▁Is	-681
▁bet	-682
▁med	-683
▁Brit	-684
▁made	-685
▁Clinton	-686
▁children	-687
▁Department	-688
▁6	-689
▁gu	-690
▁no	-691
ness	-692
▁She	-693
▁just	-694
▁some	-695
▁group	-696
ty	-697
we	-698
les	-699
▁On	-700
▁Wh	-701
ower	-702
rist	-703
very	-704
▁bel	-705
ility	-706
irect	-707
▁high	-708
▁like	-709
▁prot	-710
▁sent	-711
▁Satur	-712
▁States	-713
▁before	-714
▁million	-715
▁Saturday	-716
fe	-717
row	-718
ury	-719
ves	-720
way	-721
lear	-722
ning	-723
▁add	-724
▁air	-725
▁you	-726
ating	-727
▁South	-728
emocrat	-729
▁percent	-730
ll	-731
ced	-732
gra	-733
ica	-734
▁En	-735
▁set	-736
▁tri	-737
ision	-738
▁stud	-739
▁since	-740
eb	-741
ger	-742
▁20	-743
▁any	-744
▁ref	-745
riday	-746
▁plan	-747
▁claim	-748
▁death	-749
▁Friday	-750
▁Democrat	-751
az	-752
▁7	-753
air	-754
uro	-755
▁10	-756
▁bu	-757
ands	-758
▁reg	-759
▁six	-760
enter	-761
ivers	-762
order	-763
▁bomb	-764
▁make	-765
▁prob	-766
▁stat	-767
▁being	-768
▁Police	-769
▁terror	-770
af	-771
du	-772
te	-773
ise	-774
▁Sc	-775
▁po	-776
ital	-777
ross	-778
▁Min	-779
▁bus	-780
gency	-781
▁girl	-782
▁what	-783
▁including	-784
▁bo	-785
amed	-786
orth	-787
▁cap	-788
▁rele	-789
▁direct	-790
▁second	-791
▁charges	-792
ops	-793
ron	-794
▁kn	-795
atch	-796
▁did	-797
▁get	-798
▁law	-799
▁own	-800
▁show	-801
▁vict	-802
▁inter	-803
▁family	-804
▁investig	-805
▁security	-806
ern	-807
ful	-808
min	-809
▁if	-810
ared	-811
ments	-812
ublic	-813
▁disc	-814
▁four	-815
▁Iraqi	-816
▁Monday	-817
▁American	-818
▁reported	-819
io	-820
ph	-821
tle	-822
alth	-823
isit	-824
▁Air	-825
▁For	-826
▁iss	-827
erson	-828
▁need	-829
▁news	-830
▁where	-831
▁mother	-832
▁because	-833
ech	-834
hen	-835
lor	-836
ral	-837
ames	-838
olog	-839
omen	-840
rans	-841
rown	-842
▁Com	-843
▁how	-844
ather	-845
ornia	-846
alifornia	-847
ized	-848
utes	-849
▁num	-850
round	-851
▁Euro	-852
▁five	-853
▁prov	-854
▁House	-855
▁belie	-856
▁author	-857
▁school	-858
▁through	-859
ai	-860
ove	-861
▁15	-862
▁18	-863
▁ac	-864
▁gl	-865
ular	-866
▁Eng	-867
▁Joh	-868
▁way	-869
ights	-870
▁Iran	-871
▁court	-872
▁night	-873
▁think	-874
▁California	-875
act	-876
ret	-877
rib	-878
ues	-879
▁12	-880
▁ph	-881
hern	-882
ures	-883
▁Afr	-884
▁Pak	-885
▁Sen	-886
▁det	-887
▁dri	-888
▁end	-889
▁ret	-890
▁sex	-891
▁tro	-892
▁Russ	-893
▁sign	-894
▁polit	-895
▁Pakistan	-896
raw	-897
▁Mc	-898
▁op	-899
▁sy	-900
▁Col	-901
▁eff	-902
▁head	-903
▁left	-904
▁shot	-905
▁such	-906
▁exper	-907
▁invol	-908
▁spokesman	-909
aj	-910
ban	-911
rew	-912
▁fe	-913
▁sm	-914
▁ve	-915
aign	-916
bers	-917
ured	-918
▁Man	-919
▁imp	-920
▁mem	-921
▁run	-922
▁vot	-923
owing	-924
▁John	-925
▁fore	-926
▁life	-927
▁look	-928
ef	-929
The	-930
ins	-931
ism	-932
ner	-933
ody	-934
duct	-935
tain	-936
vice	-937
▁Har	-938
▁Rep	-939
▁San	-940
▁ann	-941
▁dep	-942
▁our	-943
▁pop	-944
▁spe	-945
▁Fran	-946
▁drug	-947
▁only	-948
▁oper	-949
▁elect	-950
▁visit	-951
iversity	-952
▁campaign	-953
ti	-954
ior	-955
ney	-956
udi	-957
▁Pr	-958
▁Sp	-959
▁us	-960
ards	-961
augh	-962
ense	-963
ible	-964
orld	-965
ring	-966
▁col	-967
▁now	-968
▁tak	-969
▁care	-970
▁foll	-971
▁rest	-972
▁susp	-973
▁start	-974
ination	-975
▁number	-976
▁killing	-977
),	-978
iam	-979
ida	-980
iff	-981
ird	-982
oth	-983
urg	-984
▁Bl	-985
ians	-986
ient	-987
▁Sec	-988
▁ask	-989
▁mark	-990
▁resp	-991
▁turn	-992
▁viol	-993
▁Count	-994
▁early	-995
▁trans	-996
▁public	-997
▁support	-998
▁arrested	-999
cy	-1000
vi	-1001
duc	-1002
ept	-1003
ese	-1004
inc	-1005
ned	-1006
▁my	-1007
ason	-1008
ecut	-1009
ison	-1010
over	-1011
ract	-1012
ween	-1013
▁Bar	-1014
iness	-1015
riend	-1016
▁York	-1017
▁days	-1018
▁hand	-1019
▁happ	-1020
▁pass	-1021
▁World	-1022
▁alleg	-1023
▁women	-1024
▁Europe	-1025
▁between	-1026
▁statement	-1027
AS	-1028
hip	-1029
oci	-1030
rik	-1031
riv	-1032
▁ob	-1033
rand	-1034
▁hom	-1035
▁mur	-1036
▁opp	-1037
▁sub	-1038
olina	-1039
▁died	-1040
▁long	-1041
▁take	-1042
▁took	-1043
▁miles	-1044
▁called	-1045
▁contin	-1046
▁person	-1047
▁threat	-1048
▁troops	-1049
▁British	-1050
▁company	-1051
▁suspect	-1052
▁Carolina	-1053
eg	-1054
app	-1055
gel	-1056
lam	-1057
osp	-1058
tic	-1059
ague	-1060
ants	-1061
ator	-1062
ives	-1063
ober	-1064
onom	-1065
osed	-1066
stit	-1067
▁And	-1068
▁boy	-1069
▁leg	-1070
ening	-1071
rying	-1072
▁Ital	-1073
▁Mich	-1074
▁area	-1075
▁hour	-1076
▁water	-1077
ighting	-1078
osition	-1079
▁Christ	-1080
▁County	-1081
▁England	-1082
▁leaders	-1083
▁authorities	-1084
▁8	-1085
alf	-1086
▁Sa	-1087
▁Se	-1088
aren	-1089
ches	-1090
ests	-1091
ruck	-1092
ruct	-1093
▁Mil	-1094
▁def	-1095
▁dem	-1096
▁int	-1097
ative	-1098
▁Aust	-1099
▁case	-1100
▁conc	-1101
▁face	-1102
▁vide	-1103
▁White	-1104
▁chief	-1105
▁Be	-1106
▁sl	-1107
ajor	-1108
▁Bra	-1109
▁But	-1110
▁Tex	-1111
▁loc	-1112
▁mar	-1113
andid	-1114
ately	-1115
orney	-1116
▁Cong	-1117
▁fund	-1118
▁team	-1119
▁your	-1120
▁there	-1121
▁Democratic	-1122
-0	-1123
NG	-1124
ale	-1125
eep	-1126
ety	-1127
ino	-1128
mit	-1129
anta	-1130
ored	-1131
side	-1132
uman	-1133
vent	-1134
▁McC	-1135
▁aff	-1136
▁che	-1137
▁exp	-1138
▁gen	-1139
▁jud	-1140
▁may	-1141
▁par	-1142
▁top	-1143
ering	-1144
ought	-1145
▁Just	-1146
▁Vick	-1147
▁Texas	-1148
▁attem	-1149
▁house	-1150
▁named	-1151
▁power	-1152
mergency	-1153
▁alleged	-1154
▁minutes	-1155
▁reports	-1156
▁without	-1157
-1	-1158
my	-1159
ov	-1160
eda	-1161
els	-1162
rol	-1163
uck	-1164
▁As	-1165
▁Em	-1166
▁Ph	-1167
▁ec	-1168
aced	-1169
ages	-1170
iana	-1171
lier	-1172
stem	-1173
▁Ara	-1174
▁Ind	-1175
▁Off	-1176
▁Pro	-1177
▁fed	-1178
▁use	-1179
ators	-1180
iting	-1181
▁city	-1182
▁decl	-1183
▁many	-1184
▁miss	-1185
▁want	-1186
▁Leban	-1187
▁ident	-1188
▁third	-1189
▁agency	-1190
▁health	-1191
▁months	-1192
▁murder	-1193
▁progra	-1194
▁accused	-1195
▁members	-1196
▁international	-1197
▁9	-1198
aul	-1199
eng	-1200
sel	-1201
ute	-1202
▁Qa	-1203
▁ca	-1204
▁es	-1205
ains	-1206
ices	-1207
ling	-1208
oint	-1209
ourn	-1210
pped	-1211
ries	-1212
rong	-1213
▁Ger	-1214
▁fil	-1215
▁kid	-1216
earch	-1217
ually	-1218
▁Afgh	-1219
▁dead	-1220
▁diff	-1221
▁talk	-1222
idence	-1223
▁Angel	-1224
▁Islam	-1225
▁Qaeda	-1226
▁build	-1227
▁candid	-1228
▁National	-1229
ev	-1230
▁'	-1231
ony	-1232
▁Ex	-1233
ject	-1234
read	-1235
ster	-1236
uard	-1237
▁ago	-1238
▁cor	-1239
▁let	-1240
▁nuc	-1241
ained	-1242
icted	-1243
▁Arab	-1244
▁dest	-1245
▁expl	-1246
▁held	-1247
ending	-1248
ration	-1249
▁Inter	-1250
▁Saudi	-1251
▁among	-1252
▁sever	-1253
▁taken	-1254
▁whose	-1255
olution	-1256
▁Afghan	-1257
▁German	-1258
▁should	-1259
▁system	-1260
▁nuclear	-1261
▁released	-1262
▁political	-1263
go	-1264
ada	-1265
ado	-1266
avy	-1267
bor	-1268
ged	-1269
gin	-1270
the	-1271
uel	-1272
urk	-1273
uty	-1274
▁25	-1275
ades	-1276
aine	-1277
ects	-1278
form	-1279
ided	-1280
ield	-1281
imin	-1282
▁Atl	-1283
▁hit	-1284
0,000	-1285
ganiz	-1286
iving	-1287
▁good	-1288
▁road	-1289
▁test	-1290
ection	-1291
▁still	-1292
▁strik	-1293
▁those	-1294
▁around	-1295
▁commun	-1296
▁econom	-1297
▁leader	-1298
▁record	-1299
▁Austral	-1300
▁University	-1301
▁International	-1302
cl	-1303
aff	-1304
ape	-1305
run	-1306
til	-1307
ull	-1308
ball	-1309
bass	-1310
cial	-1311
riff	-1312
vers	-1313
▁199	-1314
▁Dav	-1315
▁Los	-1316
▁bro	-1317
▁men	-1318
▁put	-1319
▁rul	-1320
ended	-1321
icide	-1322
rench	-1323
▁2004	-1324
▁Flor	-1325
▁Scot	-1326
▁Sept	-1327
▁bank	-1328
▁crit	-1329
▁does	-1330
▁lost	-1331
▁meet	-1332
▁youn	-1333
erence	-1334
ournal	-1335
▁calls	-1336
▁crash	-1337
▁homes	-1338
▁media	-1339
▁money	-1340
▁right	-1341
ampions	-1342
▁French	-1343
▁Marine	-1344
▁comple	-1345
▁Angeles	-1346
▁Florida	-1347
▁federal	-1348
▁foreign	-1349
▁September	-1350
BI	-1351
ax	-1352
ael	-1353
agh	-1354
eor	-1355
mar	-1356
ped	-1357
ten	-1358
uch	-1359
ired	-1360
ivil	-1361
oard	-1362
view	-1363
▁Jan	-1364
▁Ken	-1365
▁del	-1366
▁nom	-1367
ology	-1368
▁Paul	-1369
▁char	-1370
▁conv	-1371
▁half	-1372
▁late	-1373
▁past	-1374
▁tour	-1375
orters	-1376
▁Brown	-1377
▁State	-1378
▁asked	-1379
▁quest	-1380
▁super	-1381
▁train	-1382
▁Africa	-1383
▁center	-1384
▁forces	-1385
▁prison	-1386
▁proble	-1387
▁return	-1388
▁program	-1389
▁whether	-1390
▁Minister	-1391
▁resident	-1392
▁students	-1393
▁countries	-1394
▁emergency	-1395
1,	-1396
HI	-1397
cu	-1398
ps	-1399
com	-1400
ics	-1401
ona	-1402
rem	-1403
ung	-1404
zil	-1405
▁14	-1406
▁Co	-1407
onst	-1408
ploy	-1409
raft	-1410
▁Ser	-1411
▁ban	-1412
▁est	-1413
▁ext	-1414
▁got	-1415
▁gun	-1416
▁sen	-1417
▁sit	-1418
▁squ	-1419
ecial	-1420
gress	-1421
ified	-1422
ondon	-1423
▁Geor	-1424
▁beat	-1425
▁deal	-1426
▁host	-1427
▁poss	-1428
▁rece	-1429
▁very	-1430
▁well	-1431
▁writ	-1432
▁daugh	-1433
▁major	-1434
ospital	-1435
ublican	-1436
▁Brazil	-1437
▁victim	-1438
▁Atlanta	-1439
▁earlier	-1440
▁director	-1441
▁minister	-1442
▁Republican	-1443
▁presidential	-1444
7,	-1445
We	-1446
sh	-1447
xt	-1448
ask	-1449
att	-1450
eth	-1451
imp	-1452
ley	-1453
yan	-1454
▁13	-1455
▁Or	-1456
▁av	-1457
ases	-1458
▁Aug	-1459
▁Ben	-1460
▁FBI	-1461
▁Mex	-1462
▁don	-1463
▁job	-1464
▁mid	-1465
▁see	-1466
enced	-1467
▁Fire	-1468
▁appe	-1469
▁body	-1470
▁fact	-1471
▁find	-1472
▁food	-1473
▁main	-1474
▁post	-1475
▁pros	-1476
▁site	-1477
▁suff	-1478
▁then	-1479
▁vote	-1480
▁weap	-1481
▁wife	-1482
ighbor	-1483
placed	-1484
ressed	-1485
undred	-1486
▁Milan	-1487
▁allow	-1488
▁began	-1489
▁going	-1490
▁August	-1491
▁France	-1492
▁London	-1493
▁across	-1494
▁announ	-1495
▁flight	-1496
▁recent	-1497
▁another	-1498
▁attacks	-1499
▁attorney	-1500
▁following	-1501
▁Afghanistan	-1502
by	-1503
TON	-1504
ems	-1505
ico	-1506
rop	-1507
▁Ab	-1508
▁el	-1509
▁vo	-1510
ange	-1511
ault	-1512
iers	-1513
less	-1514
▁Par	-1515
▁dog	-1516
▁ent	-1517
▁reb	-1518
ished	-1519
▁anti	-1520
▁both	-1521
▁foot	-1522
▁larg	-1523
▁stay	-1524
▁tell	-1525
▁used	-1526
▁view	-1527
▁Force	-1528
▁clear	-1529
▁shoot	-1530
▁video	-1531
▁weeks	-1532
▁Islamic	-1533
▁Justice	-1534
▁charged	-1535
▁injured	-1536
▁victory	-1537
▁Congress	-1538
▁business	-1539
▁daughter	-1540
▁incident	-1541
fl	-1542
ta	-1543
ene	-1544
get	-1545
hes	-1546
hic	-1547
oon	-1548
▁11	-1549
▁23	-1550
▁30	-1551
▁Je	-1552
▁Ju	-1553
▁UK	-1554
▁sk	-1555
ASHI	-1556
imes	-1557
ived	-1558
ming	-1559
racy	-1560
▁May	-1561
▁Val	-1562
▁lit	-1563
▁mat	-1564
▁ord	-1565
▁ris	-1566
NGTON	-1567
wards	-1568
▁Comm	-1569
▁Hill	-1570
▁best	-1571
▁goal	-1572
▁hold	-1573
▁prom	-1574
▁ship	-1575
▁targ	-1576
▁wind	-1577
▁North	-1578
▁WASHI	-1579
▁judge	-1580
▁least	-1581
▁manag	-1582
▁north	-1583
▁place	-1584
▁relig	-1585
▁truck	-1586
▁woman	-1587
▁young	-1588
ousands	-1589
outhern	-1590
▁border	-1591
▁making	-1592
▁office	-1593
▁organiz	-1594
▁suicide	-1595
▁national	-1596
▁neighbor	-1597
▁WASHINGTON	-1598
50	-1599
ns	-1600
cer	-1601
dle	-1602
isc	-1603
ize	-1604
ope	-1605
ued	-1606
une	-1607
vis	-1608
▁16	-1609
▁Ad	-1610
▁Ed	-1611
▁Kh	-1612
▁No	-1613
▁We	-1614
▁ce	-1615
aper	-1616
ched	-1617
ears	-1618
echn	-1619
▁Ass	-1620
▁art	-1621
▁beh	-1622
▁cut	-1623
▁net	-1624
▁pat	-1625
bassy	-1626
ional	-1627
vices	-1628
▁Bagh	-1629
▁East	-1630
▁Sing	-1631
▁away	-1632
▁defe	-1633
▁fell	-1634
▁grow	-1635
▁next	-1636
▁nort	-1637
▁sold	-1638
▁town	-1639
ashing	-1640
ention	-1641
ission	-1642
▁Black	-1643
▁China	-1644
▁David	-1645
▁Italy	-1646
▁civil	-1647
▁party	-1648
▁polic	-1649
▁vehic	-1650
▁withd	-1651
▁wound	-1652
▁League	-1653
▁Russia	-1654
▁confir	-1655
▁expect	-1656
▁nearly	-1657
▁others	-1658
▁rights	-1659
▁season	-1660
▁billion	-1661
▁hundred	-1662
▁service	-1663
▁striker	-1664
▁weekend	-1665
formation	-1666
stitution	-1667
▁believed	-1668
AR	-1669
gg	-1670
gy	-1671
za	-1672
acu	-1673
eds	-1674
lin	-1675
uge	-1676
usb	-1677
▁50	-1678
▁Bh	-1679
▁De	-1680
▁Pe	-1681
ales	-1682
arra	-1683
crib	-1684
gent	-1685
head	-1686
ific	-1687
iles	-1688
ints	-1689
mber	-1690
medi	-1691
oham	-1692
reed	-1693
rict	-1694
uary	-1695
work	-1696
ying	-1697
▁Per	-1698
▁cre	-1699
▁esc	-1700
▁ple	-1701
▁saf	-1702
▁won	-1703
icial	-1704
inese	-1705
▁2005	-1706
▁2008	-1707
▁King	-1708
▁Turk	-1709
▁came	-1710
▁cent	-1711
▁club	-1712
▁cond	-1713
▁coun	-1714
▁even	-1715
▁game	-1716
▁hear	-1717
▁keep	-1718
▁pick	-1719
▁rape	-1720
▁star	-1721
▁went	-1722
retary	-1723
▁Baghd	-1724
▁event	-1725
▁every	-1726
▁hours	-1727
▁human	-1728
▁local	-1729
▁match	-1730
▁press	-1731
▁techn	-1732
▁Center	-1733
▁Colomb	-1734
▁Mexico	-1735
▁commit	-1736
▁father	-1737
▁market	-1738
▁partic	-1739
▁player	-1740
▁region	-1741
▁sexual	-1742
▁travel	-1743
▁January	-1744
▁Lebanon	-1745
▁Michael	-1746
▁several	-1747
▁fighting	-1748
▁hospital	-1749
▁involved	-1750
▁announced	-1751
▁investigation	-1752
AT	-1753
de	-1754
oo	-1755
amb	-1756
era	-1757
ler	-1758
mig	-1759
oes	-1760
▁El	-1761
obal	-1762
rent	-1763
udan	-1764
▁Dan	-1765
▁Mid	-1766
▁Oct	-1767
▁One	-1768
▁Ron	-1769
▁Som	-1770
▁Tay	-1771
▁Web	-1772
▁occ	-1773
▁son	-1774
aving	-1775
ccess	-1776
craft	-1777
uters	-1778
▁Bhut	-1779
▁Jeff	-1780
▁coll	-1781
▁disp	-1782
▁draw	-1783
▁each	-1784
▁guil	-1785
▁husb	-1786
▁know	-1787
▁pres	-1788
▁prim	-1789
▁priv	-1790
▁race	-1791
▁requ	-1792
▁role	-1793
▁same	-1794
▁seek	-1795
▁step	-1796
▁surv	-1797
▁tele	-1798
arents	-1799
friend	-1800
▁final	-1801
▁incre	-1802
▁level	-1803
▁small	-1804
▁stand	-1805
ibility	-1806
ohammed	-1807
▁attemp	-1808
▁claims	-1809
▁consid	-1810
▁destro	-1811
▁experi	-1812
▁having	-1813
▁immedi	-1814
▁voters	-1815
▁Russian	-1816
▁calling	-1817
▁capital	-1818
▁claimed	-1819
▁conduct	-1820
▁respons	-1821
▁success	-1822
ashington	-1823
▁European	-1824
▁happened	-1825
▁thousands	-1826
FA	-1827
be	-1828
uk	-1829
ats	-1830
gia	-1831
ily	-1832
iqu	-1833
its	-1834
ocu	-1835
ont	-1836
ric	-1837
ris	-1838
umb	-1839
yri	-1840
▁Me	-1841
▁mo	-1842
apan	-1843
cher	-1844
iego	-1845
rain	-1846
ront	-1847
▁Cel	-1848
▁Inv	-1849
▁Pal	-1850
▁Rom	-1851
▁Vir	-1852
▁bre	-1853
▁gra	-1854
▁non	-1855
▁rob	-1856
▁sum	-1857
anger	-1858
useum	-1859
using	-1860
velop	-1861
▁High	-1862
▁Nove	-1863
▁come	-1864
▁crew	-1865
▁dist	-1866
▁must	-1867
▁phot	-1868
▁prof	-1869
▁read	-1870
▁seen	-1871
▁walk	-1872
iminal	-1873
itness	-1874
orning	-1875
vision	-1876
▁After	-1877
▁Diana	-1878
▁Diego	-1879
▁Guard	-1880
▁Japan	-1881
▁Rober	-1882
▁Sudan	-1883
▁activ	-1884
▁appro	-1885
▁eight	-1886
▁evacu	-1887
▁force	-1888
▁later	-1889
▁order	-1890
▁plans	-1891
▁point	-1892
▁spent	-1893
▁treat	-1894
▁tried	-1895
▁Bhutto	-1896
▁Celtic	-1897
▁Taylor	-1898
▁Virgin	-1899
▁driver	-1900
▁ground	-1901
▁groups	-1902
▁injury	-1903
▁issues	-1904
▁little	-1905
▁saying	-1906
▁search	-1907
▁trying	-1908
▁Baghdad	-1909
▁describ	-1910
▁outside	-1911
▁release	-1912
▁November	-1913
▁addition	-1914
▁evidence	-1915
▁received	-1916
▁Champions	-1917
▁Democrats	-1918
▁Washington	-1919
▁information	-1920
ne	-1921
ald	-1922
aps	-1923
cel	-1924
erv	-1925
ium	-1926
pro	-1927
rel	-1928
▁24	-1929
▁La	-1930
▁la	-1931
▁ri	-1932
ides	-1933
ogra	-1934
pite	-1935
rate	-1936
reen	-1937
urch	-1938
uses	-1939
▁Cor	-1940
▁Dec	-1941
▁Gen	-1942
▁Med	-1943
▁Pat	-1944
▁Res	-1945
▁Sch	-1946
▁eas	-1947
▁eng	-1948
▁hot	-1949
▁led	-1950
▁mod	-1951
▁pay	-1952
▁tit	-1953
▁too	-1954
acher	-1955
duced	-1956
istry	-1957
water	-1958
▁2006	-1959
▁Army	-1960
▁Comp	-1961
▁Some	-1962
▁conn	-1963
▁gave	-1964
▁hous	-1965
▁jail	-1966
▁jury	-1967
▁less	-1968
▁move	-1969
▁shel	-1970
▁teen	-1971
ornado	-1972
overed	-1973
though	-1974
▁Somal	-1975
▁abuse	-1976
▁ahead	-1977
▁faces	-1978
▁great	-1979
▁issue	-1980
▁known	-1981
▁until	-1982
▁Argent	-1983
▁employ	-1984
▁friend	-1985
▁guilty	-1986
▁import	-1987
▁needed	-1988
▁points	-1989
▁policy	-1990
▁states	-1991
▁target	-1992
▁turned	-1993
▁African	-1994
▁Georgia	-1995
▁October	-1996
▁assault	-1997
▁believe	-1998
▁concern	-1999
▁husband	-2000
▁largest	-2001
▁officer	-2002
▁Scotland	-2003
▁Security	-2004
▁aircraft	-2005
▁carrying	-2006
▁election	-2007
▁expected	-2008
▁hundreds	-2009
▁Brazilian	-2010
▁interview	-2011
▁relations	-2012
▁terrorist	-2013
▁Australian	-2014
▁conference	-2015
▁opposition	-2016
ID	-2017
ij	-2018
oe	-2019
pi	-2020
pr	-2021
ys	-2022
DON	-2023
nel	-2024
ots	-2025
ray	-2026
▁$1	-2027
▁6-	-2028
▁Gl	-2029
▁TV	-2030
▁Tw	-2031
▁sw	-2032
ador	-2033
arty	-2034
ayed	-2035
ends	-2036
essi	-2037
hood	-2038
ined	-2039
line	-2040
rack	-2041
rugg	-2042
sein	-2043
utch	-2044
yers	-2045
▁198	-2046
▁Bus	-2047
▁Che	-2048
▁Fed	-2049
▁His	-2050
▁Hus	-2051
▁LON	-2052
▁Lou	-2053
▁Nev	-2054
▁Red	-2055
▁Ter	-2056
▁cou	-2057
▁dam	-2058
▁enc	-2059
▁equ	-2060
▁tem	-2061
arraf	-2062
attle	-2063
illeg	-2064
uries	-2065
▁City	-2066
▁Grou	-2067
▁Mush	-2068
▁Phil	-2069
▁Will	-2070
▁docu	-2071
▁form	-2072
▁give	-2073
▁safe	-2074
▁stre	-2075
▁wild	-2076
engers	-2077
estern	-2078
itions	-2079
▁Alger	-2080
▁Messi	-2081
▁Prime	-2082
▁areas	-2083
▁based	-2084
▁class	-2085
▁grand	-2086
▁plane	-2087
▁seven	-2088
ecutors	-2089
ulation	-2090
▁Iraqis	-2091
▁LONDON	-2092
▁Middle	-2093
▁Stiles	-2094
▁Turkey	-2095
▁assass	-2096
▁better	-2097
▁critic	-2098
▁result	-2099
▁safety	-2100
▁strong	-2101
▁strugg	-2102
▁wanted	-2103
▁Chinese	-2104
▁Hussein	-2105
▁Sheriff	-2106
▁airport	-2107
▁collect	-2108
▁destroy	-2109
▁develop	-2110
▁discuss	-2111
▁medical	-2112
▁morning	-2113
▁parents	-2114
▁product	-2115
▁workers	-2116
▁accident	-2117
▁building	-2118
▁injuries	-2119
▁position	-2120
▁sentence	-2121
▁training	-2122
▁withdraw	-2123
▁Musharraf	-2124
▁community	-2125
▁residents	-2126
▁sentenced	-2127
▁television	-2128
▁organization	-2129
8,	-2130
na	-2131
sc	-2132
aid	-2133
ars	-2134
ays	-2135
eck	-2136
eld	-2137
let	-2138
ole	-2139
onn	-2140
orm	-2141
▁1,	-2142
▁17	-2143
▁22	-2144
▁Pl	-2145
▁Sw	-2146
▁ed	-2147
▁tr	-2148
akes	-2149
atic	-2150
cept	-2151
cing	-2152
fiel	-2153
iest	-2154
igan	-2155
ires	-2156
iven	-2157
lish	-2158
▁100	-2159
▁197	-2160
▁All	-2161
▁Can	-2162
▁Hol	-2163
▁Sup	-2164
▁cur	-2165
▁deb	-2166
▁far	-2167
▁mag	-2168
▁met	-2169
▁ste	-2170
▁tax	-2171
▁try	-2172
▁val	-2173
ances	-2174
ashed	-2175
aster	-2176
ences	-2177
ental	-2178
ready	-2179
ridge	-2180
vious	-2181
▁Chad	-2182
▁Four	-2183
▁More	-2184
▁didn	-2185
▁fail	-2186
▁fall	-2187
▁feel	-2188
▁free	-2189
▁kids	-2190
▁loss	-2191
▁mass	-2192
▁much	-2193
▁nine	-2194
▁orig	-2195
▁reve	-2196
▁rock	-2197
▁side	-2198
▁situ	-2199
▁sour	-2200
▁stop	-2201
ential	-2202
mitted	-2203
selves	-2204
▁Group	-2205
▁India	-2206
▁Paris	-2207
▁Press	-2208
▁given	-2209
▁immig	-2210
▁never	-2211
▁reach	-2212
▁shows	-2213
▁squad	-2214
▁staff	-2215
▁surve	-2216
▁these	-2217
fielder	-2218
related	-2219
▁Nevada	-2220
▁Palest	-2221
▁Ronald	-2222
▁Senate	-2223
▁affect	-2224
▁appear	-2225
▁danger	-2226
▁follow	-2227
▁forced	-2228
▁global	-2229
▁qualif	-2230
▁really	-2231
▁signed	-2232
▁surviv	-2233
▁America	-2234
▁Britain	-2235
▁Germany	-2236
▁demonst	-2237
▁flights	-2238
▁journal	-2239
▁leaving	-2240
▁looking	-2241
▁matches	-2242
▁missing	-2243
▁protect	-2244
▁remains	-2245
▁started	-2246
▁tornado	-2247
▁working	-2248
▁Official	-2249
▁Virginia	-2250
▁continue	-2251
▁criminal	-2252
▁decision	-2253
▁facility	-2254
▁violence	-2255
▁suspected	-2256
▁Blackwater	-2257
▁operations	-2258
▁resolution	-2259
▁themselves	-2260
▁neighborhood	-2261
▁assassination	-2262
It	-2263
wa	-2264
aks	-2265
ala	-2266
ibb	-2267
ien	-2268
leb	-2269
ogn	-2270
owa	-2271
phy	-2272
por	-2273
ram	-2274
tar	-2275
ump	-2276
▁26	-2277
▁Am	-2278
▁Go	-2279
▁To	-2280
▁US	-2281
▁sn	-2282
aces	-2283
alib	-2284
arge	-2285
avez	-2286
ding	-2287
ebru	-2288
ewis	-2289
ille	-2290
ised	-2291
liam	-2292
ners	-2293
rant	-2294
time	-2295
▁Def	-2296
▁Dub	-2297
▁How	-2298
▁Laf	-2299
▁Sam	-2300
▁Shi	-2301
▁Ten	-2302
▁Tre	-2303
▁aut	-2304
▁big	-2305
▁cer	-2306
▁cle	-2307
▁den	-2308
▁due	-2309
▁ill	-2310
▁lif	-2311
▁riv	-2312
▁sim	-2313
ander	-2314
ender	-2315
itive	-2316
oming	-2317
paper	-2318
thing	-2319
woman	-2320
▁Iowa	-2321
▁Most	-2322
▁Rich	-2323
▁They	-2324
▁Vill	-2325
▁West	-2326
▁amid	-2327
▁ball	-2328
▁bear	-2329
▁cost	-2330
▁cult	-2331
▁cust	-2332
▁hard	-2333
▁infl	-2334
▁inst	-2335
▁name	-2336
▁onto	-2337
▁prep	-2338
▁real	-2339
▁room	-2340
asters	-2341
earing	-2342
irates	-2343
minist	-2344
piracy	-2345
▁Chief	-2346
▁Court	-2347
▁Febru	-2348
▁celeb	-2349
▁check	-2350
▁coast	-2351
▁cross	-2352
▁finan	-2353
▁illeg	-2354
▁share	-2355
▁short	-2356
▁title	-2357
▁twice	-2358
ability	-2359
liament	-2360
▁Associ	-2361
▁Author	-2362
▁McCain	-2363
▁School	-2364
▁Scient	-2365
▁execut	-2366
▁indust	-2367
▁league	-2368
▁proper	-2369
▁ruling	-2370
▁scored	-2371
▁speech	-2372
▁taking	-2373
▁Richard	-2374
▁control	-2375
▁economy	-2376
▁general	-2377
▁primary	-2378
▁private	-2379
▁provide	-2380
▁student	-2381
▁thought	-2382
▁weapons	-2383
▁February	-2384
▁Investig	-2385
▁Michigan	-2386
▁appeared	-2387
▁contract	-2388
▁families	-2389
▁football	-2390
▁northern	-2391
▁problems	-2392
▁shooting	-2393
▁suffered	-2394
▁Christian	-2395
▁Secretary	-2396
▁allegedly	-2397
▁destroyed	-2398
▁displaced	-2399
▁operation	-2400
▁candidates	-2401
▁identified	-2402
▁spokeswoman	-2403
AD	-2404
EL	-2405
ES	-2406
FL	-2407
OS	-2408
Wh	-2409
co	-2410
yl	-2411
aby	-2412
alv	-2413
ari	-2414
ham	-2415
ikh	-2416
itz	-2417
oid	-2418
ple	-2419
rup	-2420
tee	-2421
yer	-2422
▁40	-2423
▁AT	-2424
▁Su	-2425
▁dr	-2426
aska	-2427
avor	-2428
cess	-2429
egas	-2430
ream	-2431
rick	-2432
self	-2433
tion	-2434
▁Acc	-2435
▁Bol	-2436
▁Cup	-2437
▁Del	-2438
▁Don	-2439
▁Haw	-2440
▁Jud	-2441
▁Las	-2442
▁Mun	-2443
▁age	-2444
▁cir	-2445
▁env	-2446
▁few	-2447
▁pos	-2448
▁pri	-2449
▁why	-2450
force	-2451
imate	-2452
ugees	-2453
▁2002	-2454
▁Airl	-2455
▁Gibb	-2456
▁Hamp	-2457
▁July	-2458
▁Lion	-2459
▁agre	-2460
▁base	-2461
▁bill	-2462
▁book	-2463
▁doct	-2464
▁hist	-2465
▁open	-2466
▁poll	-2467
▁rout	-2468
▁sect	-2469
▁seed	-2470
▁send	-2471
▁wing	-2472
atural	-2473
celona	-2474
rought	-2475
▁Dutch	-2476
▁Heath	-2477
▁Laure	-2478
▁Lewis	-2479
▁Party	-2480
▁Union	-2481
▁Vegas	-2482
▁board	-2483
▁bring	-2484
▁chang	-2485
▁deleg	-2486
▁fight	-2487
▁fired	-2488
▁gener	-2489
▁heavy	-2490
▁large	-2491
▁lower	-2492
▁nomin	-2493
▁phone	-2494
▁shoes	-2495
▁talks	-2496
▁tells	-2497
▁using	-2498
ilities	-2499
imately	-2500
▁Arabia	-2501
▁Former	-2502
▁Romney	-2503
▁access	-2504
▁become	-2505
▁behind	-2506
▁campus	-2507
▁caused	-2508
▁design	-2509
▁guards	-2510
▁helped	-2511
▁living	-2512
▁nation	-2513
▁origin	-2514
▁photos	-2515
▁rebels	-2516
▁recogn	-2517
▁series	-2518
▁Italian	-2519
▁allowed	-2520
▁already	-2521
▁attempt	-2522
▁deliver	-2523
▁efforts	-2524
▁experts	-2525
▁include	-2526
▁players	-2527
▁popular	-2528
▁shelter	-2529
▁special	-2530
▁teacher	-2531
▁victims	-2532
▁December	-2533
▁Mohammed	-2534
▁economic	-2535
▁southern	-2536
▁Pakistani	-2537
▁attempted	-2538
▁convicted	-2539
▁newspaper	-2540
▁situation	-2541
▁terrorism	-2542
▁treatment	-2543
▁conspiracy	-2544
▁midfielder	-2545
▁parliament	-2546
▁particular	-2547
▁passengers	-2548
▁population	-2549
▁supporters	-2550
ministration	-2551
AN	-2552
EO	-2553
Re	-2554
gn	-2555
ks	-2556
ma	-2557
oz	-2558
ya	-2559
▁z	-2560
aka	-2561
ble	-2562
cil	-2563
cts	-2564
dam	-2565
elf	-2566
fer	-2567
hio	-2568
ify	-2569
ipl	-2570
ips	-2571
iri	-2572
men	-2573
nes	-2574
not	-2575
oor	-2576
ote	-2577
que	-2578
uff	-2579
▁$2	-2580
▁(2	-2581
▁21	-2582
▁35	-2583
▁AC	-2584
▁Du	-2585
▁If	-2586
▁Ug	-2587
▁Ut	-2588
▁ap	-2589
▁ur	-2590
▁wa	-2591
ably	-2592
iami	-2593
iano	-2594
iant	-2595
iron	-2596
noon	-2597
oned	-2598
ores	-2599
prof	-2600
rove	-2601
rowd	-2602
turn	-2603
ugee	-2604
uter	-2605
▁1-0	-2606
▁196	-2607
▁Ber	-2608
▁Con	-2609
▁Ecu	-2610
▁Gra	-2611
▁Kur	-2612
▁Mad	-2613
▁Mit	-2614
▁NAT	-2615
▁NFL	-2616
▁Tra	-2617
▁Two	-2618
▁arm	-2619
▁bod	-2620
▁die	-2621
▁div	-2622
▁fre	-2623
▁gas	-2624
▁hol	-2625
▁hop	-2626
▁key	-2627
▁pen	-2628
▁pil	-2629
▁rad	-2630
▁ran	-2631
▁tre	-2632
▁wat	-2633
anies	-2634
atter	-2635
based	-2636
iding	-2637
iring	-2638
izing	-2639
yrian	-2640
▁2007	-2641
▁Base	-2642
▁Bill	-2643
▁Mary	-2644
▁Myan	-2645
▁Ohio	-2646
▁Simp	-2647
▁arri	-2648
▁brok	-2649
▁comb	-2650
▁cour	-2651
▁east	-2652
▁feet	-2653
▁film	-2654
▁inqu	-2655
▁land	-2656
▁pain	-2657
▁plot	-2658
▁repl	-2659
▁stor	-2660
▁toll	-2661
airman	-2662
aliban	-2663
ashion	-2664
encies	-2665
gether	-2666
utions	-2667
▁Color	-2668
▁Crist	-2669
▁Louis	-2670
▁March	-2671
▁Miami	-2672
▁Roman	-2673
▁Ugand	-2674
▁arson	-2675
▁avail	-2676
▁bombs	-2677
▁cause	-2678
▁chall	-2679
▁cover	-2680
▁crowd	-2681
▁deter	-2682
▁doing	-2683
▁favor	-2684
▁front	-2685
▁hotel	-2686
▁insur	-2687
▁makes	-2688
▁mount	-2689
▁offer	-2690
▁story	-2691
▁track	-2692
▁traff	-2693
▁wants	-2694
alition	-2695
istance	-2696
▁Alaska	-2697
▁Barack	-2698
▁Lionel	-2699
▁Madrid	-2700
▁Robert	-2701
▁couple	-2702
▁defeat	-2703
▁explos	-2704
▁fellow	-2705
▁issued	-2706
▁member	-2707
▁overse	-2708
▁remain	-2709
▁reveal	-2710
▁robber	-2711
▁senior	-2712
▁struct	-2713
▁summer	-2714
▁things	-2715
fighting	-2716
ironment	-2717
▁Defense	-2718
▁Gibbons	-2719
▁Hillary	-2720
▁Journal	-2721
▁Myanmar	-2722
▁Taliban	-2723
▁address	-2724
▁despite	-2725
▁hearing	-2726
▁meeting	-2727
▁network	-2728
▁ordered	-2729
▁problem	-2730
▁process	-2731
▁refugee	-2732
▁station	-2733
▁witness	-2734
▁Airlines	-2735
▁industry	-2736
▁maintain	-2737
▁protests	-2738
▁question	-2739
▁services	-2740
▁suspects	-2741
▁Barcelona	-2742
▁afternoon	-2743
▁agreement	-2744
▁involving	-2745
▁questions	-2746
▁suspended	-2747
▁discovered	-2748
▁nomination	-2749
▁immediately	-2750
▁investigating	-2751
IA	-2752
OP	-2753
dd	-2754
gu	-2755
ho	-2756
me	-2757
mp	-2758
ye	-2759
acy	-2760
adr	-2761
ana	-2762
ane	-2763
aur	-2764
coh	-2765
ibr	-2766
iet	-2767
irt	-2768
off	-2769
ook	-2770
rag	-2771
unn	-2772
unt	-2773
whe	-2774
▁($	-2775
▁27	-2776
▁60	-2777
▁Sm	-2778
▁br	-2779
▁er	-2780
aded	-2781
aged	-2782
ancy	-2783
aped	-2784
asey	-2785
ergy	-2786
iner	-2787
mail	-2788
most	-2789
nedy	-2790
omin	-2791
ones	-2792
rael	-2793
uted	-2794
▁Boy	-2795
▁Day	-2796
▁Ear	-2797
▁GOP	-2798
▁Her	-2799
▁Jul	-2800
▁Mus	-2801
▁bur	-2802
▁fle	-2803
▁hon	-2804
▁lik	-2805
▁pot	-2806
▁pul	-2807
▁sat	-2808
▁tot	-2809
▁vol	-2810
ached	-2811
acked	-2812
arked	-2813
cohol	-2814
eeper	-2815
ented	-2816
guard	-2817
heast	-2818
icult	-2819
iplom	-2820
ively	-2821
oking	-2822
ortun	-2823
range	-2824
ville	-2825
▁2003	-2826
▁Camp	-2827
▁Coun	-2828
▁Fore	-2829
▁June	-2830
▁Lead	-2831
▁NATO	-2832
▁Navy	-2833
▁Port	-2834
▁Star	-2835
▁When	-2836
▁With	-2837
▁arms	-2838
▁capt	-2839
▁cell	-2840
▁circ	-2841
▁duty	-2842
▁fuel	-2843
▁here	-2844
▁kidn	-2845
▁king	-2846
▁lear	-2847
▁list	-2848
▁live	-2849
▁mult	-2850
▁prop	-2851
▁shut	-2852
▁sugg	-2853
▁suit	-2854
ession	-2855
iction	-2856
incess	-2857
jected	-2858
nessee	-2859
terans	-2860
ventus	-2861
▁Feder	-2862
▁Three	-2863
▁agent	-2864
▁along	-2865
▁avoid	-2866
▁camps	-2867
▁cases	-2868
▁doesn	-2869
▁drink	-2870
▁influ	-2871
▁items	-2872
▁lives	-2873
▁magaz	-2874
▁names	-2875
▁often	-2876
▁parts	-2877
▁quick	-2878
▁thing	-2879
▁tight	-2880
▁works	-2881
ighters	-2882
ography	-2883
▁Agency	-2884
▁Chavez	-2885
▁Intern	-2886
▁Lafave	-2887
▁Office	-2888
▁Peters	-2889
▁Prince	-2890
▁Sheikh	-2891
▁Shiite	-2892
▁aboard	-2893
▁action	-2894
▁agents	-2895
▁became	-2896
▁bodies	-2897
▁charge	-2898
▁differ	-2899
▁diplom	-2900
▁effect	-2901
▁effort	-2902
▁letter	-2903
▁opened	-2904
▁perfor	-2905
▁reason	-2906
▁though	-2907
▁Ecuador	-2908
▁Embassy	-2909
▁General	-2910
▁Iranian	-2911
▁Nations	-2912
▁Simpson	-2913
▁William	-2914
▁confirm	-2915
▁counter	-2916
▁crashed	-2917
▁decades	-2918
▁illegal	-2919
▁natural	-2920
▁opening	-2921
▁reduced	-2922
▁running	-2923
▁serious	-2924
▁vehicle	-2925
▁Colorado	-2926
▁Emirates	-2927
▁Lebanese	-2928
▁Palestin	-2929
▁declared	-2930
▁province	-2931
▁religion	-2932
▁together	-2933
▁According	-2934
▁Australia	-2935
▁Tennessee	-2936
▁candidate	-2937
▁difficult	-2938
▁financial	-2939
▁personnel	-2940
▁religious	-2941
▁additional	-2942
▁department	-2943
▁experience	-2944
▁production	-2945
▁university	-2946
▁constitution	-2947
▁relationship	-2948
▁responsibility	-2949
30	-2950
AC	-2951
IS	-2952
dy	-2953
of	-2954
tt	-2955
yn	-2956
EFA	-2957
ago	-2958
alt	-2959
aly	-2960
ece	-2961
erb	-2962
ert	-2963
gen	-2964
lim	-2965
ode	-2966
oms	-2967
osc	-2968
ota	-2969
ras	-2970
ulf	-2971
van	-2972
yle	-2973
▁28	-2974
▁36	-2975
▁37	-2976
▁Fl	-2977
▁Lu	-2978
▁So	-2979
▁ty	-2980
abor	-2981
agon	-2982
airs	-2983
angu	-2984
enez	-2985
ever	-2986
gage	-2987
itiz	-2988
itor	-2989
lege	-2990
oner	-2991
reet	-2992
reme	-2993
ults	-2994
unch	-2995
ural	-2996
▁18-	-2997
▁Abd	-2998
▁Ale	-2999
▁Att	-3000
▁Bak	-3001
▁Dod	-3002
▁Inc	-3003
▁Lau	-3004
▁Mac	-3005
▁Mur	-3006
▁Spe	-3007
▁War	-3008
▁aid	-3009
▁bad	-3010
▁bag	-3011
▁bin	-3012
▁cro	-3013
▁dou	-3014
▁esp	-3015
▁fat	-3016
▁fel	-3017
▁fem	-3018
▁fly	-3019
▁old	-3020
▁pan	-3021
▁ren	-3022
▁saw	-3023
▁sol	-3024
▁urg	-3025
abama	-3026
adium	-3027
arian	-3028
aught	-3029
enger	-3030
hered	-3031
itial	-3032
ocial	-3033
ounds	-3034
urred	-3035
usion	-3036
▁Bang	-3037
▁Char	-3038
▁Dida	-3039
▁Fort	-3040
▁Kaka	-3041
▁News	-3042
▁Park	-3043
▁Rang	-3044
▁Shar	-3045
▁This	-3046
▁UEFA	-3047
▁What	-3048
▁cars	-3049
▁cave	-3050
▁cred	-3051
▁cris	-3052
▁dogs	-3053
▁doll	-3054
▁fear	-3055
▁full	-3056
▁kind	-3057
▁plea	-3058
▁poor	-3059
▁porn	-3060
▁publ	-3061
▁purs	-3062
▁shop	-3063
▁sing	-3064
▁trad	-3065
▁trip	-3066
▁unit	-3067
ainees	-3068
ctions	-3069
ements	-3070
esters	-3071
esting	-3072
ground	-3073
ibrary	-3074
ically	-3075
ocaine	-3076
ociety	-3077
orture	-3078
perate	-3079
▁Child	-3080
▁Coast	-3081
▁Cross	-3082
▁Jeffs	-3083
▁Scott	-3084
▁There	-3085
▁Venez	-3086
▁adult	-3087
▁advis	-3088
▁award	-3089
▁begin	-3090
▁blood	-3091
▁comes	-3092
▁compl	-3093
▁confl	-3094
▁crime	-3095
▁estim	-3096
▁field	-3097
▁giant	-3098
▁indic	-3099
▁means	-3100
▁moved	-3101
▁pregn	-3102
▁range	-3103
▁sched	-3104
▁suppl	-3105
▁table	-3106
▁takes	-3107
▁times	-3108
▁trial	-3109
▁views	-3110
▁watch	-3111
▁wrong	-3112
itizens	-3113
▁Island	-3114
▁Israel	-3115
▁Mother	-3116
▁Muslim	-3117
▁Somali	-3118
▁associ	-3119
▁bridge	-3120
▁debate	-3121
▁demand	-3122
▁disapp	-3123
▁enough	-3124
▁expert	-3125
▁intern	-3126
▁museum	-3127
▁places	-3128
▁produc	-3129
▁repres	-3130
▁resign	-3131
▁rocket	-3132
▁secure	-3133
▁served	-3134
▁sought	-3135
▁struck	-3136
▁toward	-3137
▁weapon	-3138
vernment	-3139
▁Airport	-3140
▁Alabama	-3141
▁Kennedy	-3142
▁Masters	-3143
▁Rangers	-3144
▁appoint	-3145
▁brought	-3146
▁contact	-3147
▁created	-3148
▁driving	-3149
▁embassy	-3150
▁history	-3151
▁holding	-3152
▁kidnapp	-3153
▁massive	-3154
▁nominee	-3155
▁playing	-3156
▁prevent	-3157
▁respond	-3158
▁restaur	-3159
▁robbery	-3160
▁sheriff	-3161
▁sparked	-3162
▁streets	-3163
▁tourist	-3164
▁wearing	-3165
▁winning	-3166
forcement	-3167
▁Colombia	-3168
▁Heathrow	-3169
▁Interior	-3170
▁Ministry	-3171
▁Venezuel	-3172
▁agencies	-3173
▁challeng	-3174
▁comments	-3175
▁indicted	-3176
▁magazine	-3177
▁overturn	-3178
▁personal	-3179
▁possible	-3180
▁property	-3181
▁sexually	-3182
▁struggle	-3183
▁vehicles	-3184
▁Colombian	-3185
▁Cristiano	-3186
▁Louisiana	-3187
▁attention	-3188
▁available	-3189
▁boyfriend	-3190
▁companies	-3191
▁evacuated	-3192
▁performan	-3193
▁Commission	-3194
▁conditions	-3195
▁supporting	-3196
▁technology	-3197
▁Scientology	-3198
▁environment	-3199
▁prosecutors	-3200
▁Investigators	-3201
,'	-3202
-3	-3203
AG	-3204
CE	-3205
sp	-3206
sw	-3207
500	-3208
alo	-3209
arc	-3210
ati	-3211
aut	-3212
awn	-3213
bed	-3214
cue	-3215
ees	-3216
enn	-3217
ery	-3218
ici	-3219
ift	-3220
ipp	-3221
ita	-3222
lyw	-3223
mas	-3224
now	-3225
orf	-3226
ows	-3227
set	-3228
▁80	-3229
▁Az	-3230
▁Mo	-3231
Amer	-3232
aden	-3233
aily	-3234
alls	-3235
alty	-3236
apse	-3237
cons	-3238
epar	-3239
erve	-3240
foot	-3241
ging	-3242
haps	-3243
here	-3244
iber	-3245
onse	-3246
oted	-3247
rawn	-3248
rell	-3249
rote	-3250
vert	-3251
▁2-0	-3252
▁300	-3253
▁Act	-3254
▁Alg	-3255
▁Ann	-3256
▁Ari	-3257
▁Ark	-3258
▁Bay	-3259
▁Bur	-3260
▁Cru	-3261
▁Des	-3262
▁Jam	-3263
▁Mor	-3264
▁Muk	-3265
▁Nap	-3266
▁Pen	-3267
▁Pet	-3268
▁Qat	-3269
▁Rev	-3270
▁Sad	-3271
▁Tom	-3272
▁bas	-3273
▁beg	-3274
▁box	-3275
▁bra	-3276
▁bul	-3277
▁buy	-3278
▁fan	-3279
▁fur	-3280
▁fut	-3281
▁lat	-3282
▁lic	-3283
▁lim	-3284
▁lot	-3285
▁oil	-3286
▁opt	-3287
▁pun	-3288
▁som	-3289
▁tie	-3290
amous	-3291
arent	-3292
asure	-3293
ature	-3294
ested	-3295
ising	-3296
itary	-3297
ither	-3298
ordan	-3299
osing	-3300
▁Bank	-3301
▁Beck	-3302
▁Bern	-3303
▁Dodi	-3304
▁Kore	-3305
▁Mass	-3306
▁Miss	-3307
▁Pent	-3308
▁Real	-3309
▁Serb	-3310
▁Sunn	-3311
▁Town	-3312
▁Vict	-3313
▁Year	-3314
▁able	-3315
▁anim	-3316
▁baby	-3317
▁burn	-3318
▁cast	-3319
▁date	-3320
▁fled	-3321
▁gets	-3322
▁gren	-3323
▁lack	-3324
▁once	-3325
▁paid	-3326
▁park	-3327
▁port	-3328
▁rise	-3329
▁risk	-3330
▁tens	-3331
▁wins	-3332
ensive	-3333
lywood	-3334
▁2004,	-3335
▁Boliv	-3336
▁Fayed	-3337
▁Human	-3338
▁Judge	-3339
▁black	-3340
▁blast	-3341
▁creat	-3342
▁estab	-3343
▁filed	-3344
▁haven	-3345
▁heart	-3346
▁leads	-3347
▁marri	-3348
▁might	-3349
▁peace	-3350
▁pract	-3351
▁prime	-3352
▁refer	-3353
▁separ	-3354
▁serve	-3355
▁south	-3356
▁subur	-3357
▁today	-3358
▁total	-3359
▁wrote	-3360
ictment	-3361
illance	-3362
rations	-3363
ruction	-3364
▁Health	-3365
▁Jordan	-3366
▁Street	-3367
▁appeal	-3368
▁cancer	-3369
▁caught	-3370
▁contro	-3371
▁crisis	-3372
▁declar	-3373
▁deputy	-3374
▁energy	-3375
▁female	-3376
▁future	-3377
▁invest	-3378
▁minute	-3379
▁pickup	-3380
▁played	-3381
▁pulled	-3382
▁review	-3383
▁scient	-3384
▁showed	-3385
▁sports	-3386
▁winner	-3387
American	-3388
fighters	-3389
▁Algeria	-3390
▁Algiers	-3391
▁Company	-3392
▁Council	-3393
▁Edwards	-3394
▁Foreign	-3395
▁Marines	-3396
▁Mukasey	-3397
▁alcohol	-3398
▁bombers	-3399
▁bombing	-3400
▁certain	-3401
▁changed	-3402
▁cocaine	-3403
▁conserv	-3404
▁current	-3405
▁custody	-3406
▁factors	-3407
▁growing	-3408
▁housing	-3409
▁initial	-3410
▁inspect	-3411
▁manager	-3412
▁perhaps	-3413
▁respect	-3414
▁schedul	-3415
portation	-3416
▁Attorney	-3417
▁Children	-3418
▁Internet	-3419
▁Japanese	-3420
▁Pentagon	-3421
▁admitted	-3422
▁although	-3423
▁citizens	-3424
▁determin	-3425
▁grenades	-3426
▁increase	-3427
▁opportun	-3428
▁previous	-3429
▁probably	-3430
▁progress	-3431
▁refugees	-3432
▁spending	-3433
▁transfer	-3434
▁Christmas	-3435
▁champions	-3436
▁civilians	-3437
▁coalition	-3438
▁dangerous	-3439
▁delegates	-3440
▁detainees	-3441
▁different	-3442
▁elections	-3443
▁executive	-3444
▁important	-3445
▁reporters	-3446
▁suffering	-3447
▁challenges	-3448
▁connection	-3449
▁terrorists	-3450
▁threatened	-3451
▁Authorities	-3452
▁journalists	-3453
▁performance	-3454
▁pornography	-3455
▁surveillance	-3456
10	-3457
HD	-3458
OW	-3459
Th	-3460
ae	-3461
ca	-3462
ds	-3463
iy	-3464
ze	-3465
IDS	-3466
akh	-3467
dom	-3468
erc	-3469
het	-3470
iul	-3471
jam	-3472
lit	-3473
los	-3474
mun	-3475
oca	-3476
oli	-3477
omm	-3478
oph	-3479
oud	-3480
ozy	-3481
pan	-3482
rip	-3483
ule	-3484
zen	-3485
▁3,	-3486
▁38	-3487
▁7,	-3488
▁Cr	-3489
▁Te	-3490
AGHD	-3491
afia	-3492
ayer	-3493
back	-3494
bled	-3495
born	-3496
burg	-3497
down	-3498
iani	-3499
iger	-3500
ilar	-3501
iley	-3502
irth	-3503
ises	-3504
lers	-3505
miss	-3506
ords	-3507
osta	-3508
ovie	-3509
rief	-3510
rill	-3511
thal	-3512
uing	-3513
utin	-3514
wait	-3515
▁ATP	-3516
▁Bah	-3517
▁Bel	-3518
▁Boe	-3519
▁Deb	-3520
▁Det	-3521
▁Gad	-3522
▁God	-3523
▁Jos	-3524
▁Kar	-3525
▁Lee	-3526
▁Luc	-3527
▁PAR	-3528
▁Pac	-3529
▁Raf	-3530
▁Rod	-3531
▁Roy	-3532
▁Six	-3533
▁Tib	-3534
▁Top	-3535
▁You	-3536
▁bar	-3537
▁cas	-3538
▁cho	-3539
▁der	-3540
▁dev	-3541
▁dig	-3542
▁eat	-3543
▁eye	-3544
▁har	-3545
▁hig	-3546
▁hur	-3547
▁kil	-3548
▁low	-3549
▁mus	-3550
▁pus	-3551
▁rap	-3552
▁rev	-3553
▁sym	-3554
abled	-3555
adesh	-3556
akers	-3557
andas	-3558
antic	-3559
antos	-3560
apers	-3561
apore	-3562
aries	-3563
arily	-3564
asion	-3565
board	-3566
eated	-3567
epend	-3568
erved	-3569
fully	-3570
icket	-3571
iling	-3572
inked	-3573
itzer	-3574
jects	-3575
mical	-3576
oring	-3577
orter	-3578
osque	-3579
quent	-3580
right	-3581
rison	-3582
shire	-3583
stand	-3584
veral	-3585
▁Alex	-3586
▁Amin	-3587
▁Baku	-3588
▁Chen	-3589
▁Giul	-3590
▁Lake	-3591
▁Omar	-3592
▁Peru	-3593
▁Prot	-3594
▁Rice	-3595
▁Sark	-3596
▁Sean	-3597
▁That	-3598
▁Tony	-3599
▁adop	-3600
▁airl	-3601
▁audi	-3602
▁bail	-3603
▁boys	-3604
▁cauc	-3605
▁clos	-3606
▁dict	-3607
▁fans	-3608
▁fast	-3609
▁gall	-3610
▁jobs	-3611
▁love	-3612
▁mach	-3613
▁mean	-3614
▁mess	-3615
▁mort	-3616
▁pict	-3617
▁pred	-3618
▁push	-3619
▁remo	-3620
▁rush	-3621
▁sear	-3622
▁sell	-3623
▁simp	-3624
▁soon	-3625
▁spot	-3626
▁sust	-3627
▁tape	-3628
▁trou	-3629
▁uses	-3630
▁vill	-3631
▁west	-3632
▁whom	-3633
▁wide	-3634
AGHDAD	-3635
action	-3636
astern	-3637
atives	-3638
eldorf	-3639
icians	-3640
ladesh	-3641
ontrol	-3642
ources	-3643
profit	-3644
▁2,000	-3645
▁Anton	-3646
▁Beach	-3647
▁Corps	-3648
▁Duess	-3649
▁Frank	-3650
▁Grace	-3651
▁James	-3652
▁Macau	-3653
▁Riley	-3654
▁River	-3655
▁Today	-3656
▁acres	-3657
▁added	-3658
▁armed	-3659
▁banks	-3660
▁break	-3661
▁brief	-3662
▁broad	-3663
▁coach	-3664
▁colon	-3665
▁drugs	-3666
▁encou	-3667
▁exist	-3668
▁hands	-3669
▁light	-3670
▁minor	-3671
▁needs	-3672
▁panel	-3673
▁rebel	-3674
▁rival	-3675
▁ruled	-3676
▁sales	-3677
▁seems	-3678
▁signs	-3679
▁spill	-3680
▁sport	-3681
▁study	-3682
▁teens	-3683
▁terms	-3684
▁voted	-3685
▁winds	-3686
chester	-3687
ecially	-3688
mercial	-3689
ruption	-3690
stitute	-3691
▁George	-3692
▁Museum	-3693
▁Spears	-3694
▁active	-3695
▁annual	-3696
▁assist	-3697
▁banned	-3698
▁battle	-3699
▁blamed	-3700
▁citing	-3701
▁closed	-3702
▁coming	-3703
▁damage	-3704
▁endors	-3705
▁escape	-3706
▁flames	-3707
▁funded	-3708
▁handed	-3709
▁inside	-3710
▁latest	-3711
▁likely	-3712
▁mental	-3713
▁object	-3714
▁online	-3715
▁pandas	-3716
▁planes	-3717
▁proced	-3718
▁regard	-3719
▁status	-3720
▁unable	-3721
▁within	-3722
boarding	-3723
ications	-3724
▁BAGHDAD	-3725
▁Chester	-3726
▁Medical	-3727
▁Pacific	-3728
▁Reuters	-3729
▁Ronaldo	-3730
▁Sarkozy	-3731
▁Several	-3732
▁Supreme	-3733
▁Ugandan	-3734
▁accuses	-3735
▁arrests	-3736
▁beating	-3737
▁central	-3738
▁command	-3739
▁connect	-3740
▁forward	-3741
▁getting	-3742
▁healthy	-3743
▁helping	-3744
▁highway	-3745
▁himself	-3746
▁involve	-3747
▁justice	-3748
▁leading	-3749
▁license	-3750
▁machine	-3751
▁markets	-3752
▁profess	-3753
▁protest	-3754
▁quickly	-3755
▁regular	-3756
▁seeking	-3757
▁senator	-3758
▁serving	-3759
▁setting	-3760
▁torture	-3761
▁waiting	-3762
▁walking	-3763
▁wounded	-3764
▁written	-3765
▁Business	-3766
▁Giuliani	-3767
▁Military	-3768
▁Southern	-3769
▁allowing	-3770
▁collapse	-3771
▁complete	-3772
▁dictator	-3773
▁document	-3774
▁governor	-3775
▁occurred	-3776
▁recently	-3777
▁repeated	-3778
▁research	-3779
▁response	-3780
▁roadside	-3781
▁speaking	-3782
▁survivor	-3783
▁visitors	-3784
▁Americans	-3785
▁Argentine	-3786
▁Hampshire	-3787
▁Singapore	-3788
▁committee	-3789
▁completed	-3790
▁confirmed	-3791
▁described	-3792
▁documents	-3793
▁estimated	-3794
▁militants	-3795
▁passenger	-3796
▁probation	-3797
▁represent	-3798
▁scheduled	-3799
▁stability	-3800
▁standards	-3801
▁tradition	-3802
▁Associated	-3803
▁Bangladesh	-3804
▁Manchester	-3805
▁commercial	-3806
▁considered	-3807
▁controvers	-3808
▁especially	-3809
▁leadership	-3810
▁protection	-3811
▁protesters	-3812
▁Duesseldorf	-3813
▁development	-3814
▁Commissioner	-3815
▁administration	-3816
-2	-3817
11	-3818
2-	-3819
3,	-3820
5,	-3821
80	-3822
In	-3823
ME	-3824
OR	-3825
PA	-3826
US	-3827
bi	-3828
di	-3829
ko	-3830
ny	-3831
uj	-3832
-15	-3833
cle	-3834
cod	-3835
con	-3836
den	-3837
des	-3838
ead	-3839
ges	-3840
got	-3841
hib	-3842
iga	-3843
ili	-3844
inn	-3845
ipe	-3846
ira	-3847
iry	-3848
joy	-3849
mad	-3850
mon	-3851
oad	-3852
ott	-3853
ovo	-3854
pty	-3855
rey	-3856
rog	-3857
sif	-3858
udy	-3859
uez	-3860
ugh	-3861
▁90	-3862
▁Ac	-3863
▁Ag	-3864
▁Ah	-3865
▁Do	-3866
▁FC	-3867
▁Im	-3868
▁Ke	-3869
▁Ne	-3870
▁Qu	-3871
▁Uk	-3872
▁km	-3873
This	-3874
abee	-3875
abel	-3876
abil	-3877
ails	-3878
aith	-3879
avit	-3880
azir	-3881
cean	-3882
eddy	-3883
fire	-3884
ford	-3885
fort	-3886
grav	-3887
icop	-3888
ietn	-3889
inds	-3890
inho	-3891
ivid	-3892
izer	-3893
mate	-3894
oded	-3895
oral	-3896
pire	-3897
pril	-3898
real	-3899
resh	-3900
ribe	-3901
rity	-3902
ruit	-3903
stan	-3904
term	-3905
ucky	-3906
ways	-3907
well	-3908
zona	-3909
▁1-1	-3910
▁10-	-3911
▁12-	-3912
▁27,	-3913
▁Aff	-3914
▁CEO	-3915
▁CIA	-3916
▁Cat	-3917
▁Dal	-3918
▁Dog	-3919
▁Ham	-3920
▁Ins	-3921
▁Pan	-3922
▁Rad	-3923
▁Ray	-3924
▁Reg	-3925
▁Saw	-3926
▁Tim	-3927
▁Tor	-3928
▁adv	-3929
▁aim	-3930
▁ang	-3931
▁bom	-3932
▁cru	-3933
▁dia	-3934
▁dro	-3935
▁fer	-3936
▁foc	-3937
▁hor	-3938
▁mom	-3939
▁mot	-3940
▁pet	-3941
▁ric	-3942
▁rif	-3943
▁rod	-3944
▁ult	-3945
▁yet	-3946
acter	-3947
adele	-3948
aling	-3949
alled	-3950
alyst	-3951
ansas	-3952
arter	-3953
ersey	-3954
house	-3955
ience	-3956
incip	-3957
ipped	-3958
match	-3959
mates	-3960
minal	-3961
obile	-3962
ocked	-3963
ounts	-3964
oured	-3965
pting	-3966
rants	-3967
umped	-3968
ureau	-3969
▁1980	-3970
▁2001	-3971
▁AIDS	-3972
▁Foot	-3973
▁Girl	-3974
▁Gulf	-3975
▁Huck	-3976
▁Last	-3977
▁Long	-3978
▁Mitt	-3979
▁Mont	-3980
▁Nort	-3981
▁Pope	-3982
▁Pros	-3983
▁Utah	-3984
▁Yous	-3985
▁answ	-3986
▁aver	-3987
▁batt	-3988
▁boss	-3989
▁corn	-3990
▁deep	-3991
▁dial	-3992
▁educ	-3993
▁else	-3994
▁ever	-3995
▁exam	-3996
▁hang	-3997
▁huge	-3998
▁kept	-3999
▁line	-4000
▁mill	-4001
▁ones	-4002
▁pack	-4003
▁pers	-4004
▁runs	-4005
▁smok	-4006
▁tack	-4007
codile	-4008
coming	-4009
ething	-4010
ffield	-4011
icious	-4012
icking	-4013
idavit	-4014
ighter	-4015
onents	-4016
person	-4017
ricult	-4018
terror	-4019
▁About	-4020
▁Board	-4021
▁Costa	-4022
▁Death	-4023
▁Dubai	-4024
▁Exper	-4025
▁Found	-4026
▁Gates	-4027
▁Grand	-4028
▁Harry	-4029
▁Hawai	-4030
▁Hills	-4031
▁Laden	-4032
▁Major	-4033
▁Mayor	-4034
▁Moore	-4035
▁PARIS	-4036
▁Qatar	-4037
▁Staff	-4038
▁Uribe	-4039
▁Vietn	-4040
▁ammun	-4041
▁boost	-4042
▁clean	-4043
▁close	-4044
▁crack	-4045
▁domin	-4046
▁enjoy	-4047
▁exerc	-4048
▁faced	-4049
▁floor	-4050
▁foods	-4051
▁fresh	-4052
▁funds	-4053
▁games	-4054
▁goalk	-4055
▁heard	-4056
▁holid	-4057
▁hopes	-4058
▁leave	-4059
▁loved	-4060
▁march	-4061
▁mayor	-4062
▁movie	-4063
▁owner	-4064
▁probe	-4065
▁ready	-4066
▁round	-4067
▁scand	-4068
▁scene	-4069
▁shirt	-4070
▁shots	-4071
▁speed	-4072
▁steps	-4073
▁stret	-4074
▁teams	-4075
▁teddy	-4076
▁tests	-4077
▁trees	-4078
▁upset	-4079
Reuters	-4080
athered	-4081
itarian	-4082
ossible	-4083
urgents	-4084
▁Boeing	-4085
▁Canada	-4086
▁Daniel	-4087
▁Kenyan	-4088
▁Leader	-4089
▁Madele	-4090
▁Munich	-4091
▁Murray	-4092
▁Orange	-4093
▁Portug	-4094
▁Singer	-4095
▁Syrian	-4096
▁Valley	-4097
▁Victor	-4098
▁adding	-4099
▁agreed	-4100
▁bomber	-4101
▁cannot	-4102
▁career	-4103
▁church	-4104
▁common	-4105
▁consum	-4106
▁counts	-4107
▁denied	-4108
▁either	-4109
▁entire	-4110
▁failed	-4111
▁fertil	-4112
▁finals	-4113
▁forest	-4114
▁highly	-4115
▁images	-4116
▁insist	-4117
▁itself	-4118
▁lawyer	-4119
▁native	-4120
▁nearby	-4121
▁orders	-4122
▁patrol	-4123
▁punish	-4124
▁rescue	-4125
▁sector	-4126
▁simply	-4127
▁social	-4128
▁source	-4129
▁square	-4130
▁supply	-4131
▁surger	-4132
▁traged	-4133
▁videot	-4134
emocracy	-4135
▁Antonio	-4136
▁Arizona	-4137
▁Benazir	-4138
▁Bernard	-4139
▁English	-4140
▁Laurean	-4141
▁Sawyers	-4142
▁Service	-4143
▁Somalia	-4144
▁Youssif	-4145
▁aggress	-4146
▁attract	-4147
▁brother	-4148
▁complex	-4149
▁decided	-4150
▁doctors	-4151
▁fashion	-4152
▁friends	-4153
▁funding	-4154
▁further	-4155
▁helicop	-4156
▁improve	-4157
▁individ	-4158
▁inquiry	-4159
▁limited	-4160
▁managed	-4161
▁mission	-4162
▁offered	-4163
▁options	-4164
▁planned	-4165
▁reconst	-4166
▁recover	-4167
▁related	-4168
▁removed	-4169
▁routine	-4170
▁similar	-4171
▁soldier	-4172
▁violent	-4173
▁Although	-4174
▁Football	-4175
▁Huckabee	-4176
▁Majority	-4177
▁Northern	-4178
▁Sudanese	-4179
▁activity	-4180
▁actually	-4181
▁affected	-4182
▁anything	-4183
▁apparent	-4184
▁believes	-4185
▁captured	-4186
▁caucuses	-4187
▁chairman	-4188
▁chemical	-4189
▁concerns	-4190
▁conflict	-4191
▁congress	-4192
▁consider	-4193
▁defeated	-4194
▁detained	-4195
▁district	-4196
▁exploded	-4197
▁favorite	-4198
▁identity	-4199
▁majority	-4200
▁millions	-4201
▁ministry	-4202
▁officers	-4203
▁overseas	-4204
▁particip	-4205
▁planning	-4206
▁pressure	-4207
▁soldiers	-4208
▁supplies	-4209
▁targeted	-4210
▁Argentina	-4211
▁Hollywood	-4212
▁Madeleine	-4213
▁Officials	-4214
▁Sheffield	-4215
▁committed	-4216
▁continues	-4217
▁crocodile	-4218
▁delivered	-4219
▁employees	-4220
▁establish	-4221
▁immediate	-4222
▁influence	-4223
▁published	-4224
▁shootings	-4225
▁sustained	-4226
▁Revolution	-4227
▁businesses	-4228
▁conviction	-4229
▁corruption	-4230
▁determined	-4231
▁goalkeeper	-4232
▁insurgency	-4233
▁insurgents	-4234
▁kidnapping	-4235
▁possession	-4236
▁repeatedly	-4237
▁structures	-4238
▁dogfighting	-4239
▁enforcement	-4240
▁governments	-4241
▁immigration	-4242
▁involvement	-4243
▁neighboring	-4244
▁responsible	-4245
▁particularly	-4246
▁waterboarding	-4247
.,	-4248
..	-4249
3-	-4250
40	-4251
60	-4252
89	-4253
EG	-4254
HA	-4255
HC	-4256
IL	-4257
If	-4258
MA	-4259
NA	-4260
OL	-4261
TA	-4262
bo	-4263
ih	-4264
mo	-4265
sy	-4266
ym	-4267
100	-4268
ads	-4269
ano	-4270
apt	-4271
arm	-4272
arn	-4273
asr	-4274
aya	-4275
aze	-4276
bar	-4277
bre	-4278
bul	-4279
eci	-4280
hel	-4281
iar	-4282
irm	-4283
isl	-4284
jan	-4285
kin	-4286
met	-4287
olf	-4288
ols	-4289
pol	-4290
rea	-4291
rig	-4292
sol	-4293
teg	-4294
udd	-4295
ude	-4296
ula	-4297
uma	-4298
ume	-4299
vez	-4300
ycl	-4301
▁$3	-4302
▁31	-4303
▁5-	-4304
▁52	-4305
▁77	-4306
▁BU	-4307
▁Ev	-4308
▁II	-4309
▁IR	-4310
▁Ku	-4311
▁Ky	-4312
▁Mu	-4313
▁UN	-4314
▁aw	-4315
▁jo	-4316
ELES	-4317
Halo	-4318
Sadr	-4319
adel	-4320
airo	-4321
aker	-4322
anet	-4323
arry	-4324
asts	-4325
berg	-4326
come	-4327
eart	-4328
eler	-4329
evin	-4330
girl	-4331
gypt	-4332
illa	-4333
ills	-4334
ique	-4335
izab	-4336
just	-4337
kins	-4338
lets	-4339
life	-4340
nsen	-4341
ocks	-4342
oger	-4343
ogue	-4344
omas	-4345
oses	-4346
phia	-4347
ping	-4348
ples	-4349
pper	-4350
raig	-4351
rial	-4352
ried	-4353
room	-4354
send	-4355
tico	-4356
uals	-4357
ully	-4358
unte	-4359
uros	-4360
wide	-4361
yria	-4362
▁...	-4363
▁15-	-4364
▁18,	-4365
▁19-	-4366
▁2-1	-4367
▁25,	-4368
▁ANG	-4369
▁Art	-4370
▁Cub	-4371
▁Fab	-4372
▁Far	-4373
▁Gil	-4374
▁LOS	-4375
▁Law	-4376
▁Lib	-4377
▁Nor	-4378
▁Oak	-4379
▁Pot	-4380
▁Rel	-4381
▁Sea	-4382
▁Sid	-4383
▁Ste	-4384
▁Sus	-4385
▁Wal	-4386
▁ast	-4387
▁ben	-4388
▁bit	-4389
▁cab	-4390
▁deg	-4391
▁eth	-4392
▁fig	-4393
▁hij	-4394
▁ide	-4395
▁inf	-4396
▁inn	-4397
▁lip	-4398
▁obs	-4399
▁red	-4400
▁row	-4401
▁san	-4402
▁unf	-4403
▁var	-4404
▁voc	-4405
▁wed	-4406
▁wid	-4407
ament	-4408
asing	-4409
ayers	-4410
chers	-4411
eared	-4412
early	-4413
ecess	-4414
eless	-4415
eling	-4416
ester	-4417
icane	-4418
icked	-4419
illed	-4420
ilson	-4421
imony	-4422
irlik	-4423
isher	-4424
jamin	-4425
ocide	-4426
olese	-4427
oline	-4428
ordin	-4429
ories	-4430
ority	-4431
overy	-4432
racts	-4433
raped	-4434
ropri	-4435
state	-4436
uster	-4437
▁1999	-4438
▁2000	-4439
▁Also	-4440
▁Atle	-4441
▁Burk	-4442
▁Cent	-4443
▁Chel	-4444
▁Cons	-4445
▁Dick	-4446
▁From	-4447
▁Jack	-4448
▁Jose	-4449
▁Kand	-4450
▁Khan	-4451
▁Lock	-4452
▁Nasr	-4453
▁Prat	-4454
▁Qual	-4455
▁Samp	-4456
▁Snow	-4457
▁Step	-4458
▁Tour	-4459
▁Wine	-4460
▁appl	-4461
▁army	-4462
▁cash	-4463
▁earn	-4464
▁fung	-4465
▁gold	-4466
▁gone	-4467
▁guns	-4468
▁hope	-4469
▁insp	-4470
▁norm	-4471
▁phys	-4472
▁poly	-4473
▁prem	-4474
▁rain	-4475
▁seem	-4476
▁sens	-4477
▁sick	-4478
▁size	-4479
▁slay	-4480
▁song	-4481
▁sout	-4482
▁stra	-4483
▁stun	-4484
▁term	-4485
▁ties	-4486
▁tree	-4487
▁trib	-4488
▁type	-4489
▁upon	-4490
▁vess	-4491
▁veto	-4492
▁weak	-4493
▁wond	-4494
▁wood	-4495
▁zone	-4496
00,000	-4497
acting	-4498
airobi	-4499
amburg	-4500
artney	-4501
atures	-4502
change	-4503
endent	-4504
erally	-4505
ipment	-4506
ishing	-4507
nesota	-4508
orders	-4509
reedom	-4510
ricane	-4511
yclone	-4512
▁2005,	-4513
▁2007,	-4514
▁April	-4515
▁Craig	-4516
▁Delta	-4517
▁Earth	-4518
▁Egypt	-4519
▁Green	-4520
▁Kevin	-4521
▁Mount	-4522
▁Myers	-4523
▁Nancy	-4524
▁Ocean	-4525
▁Putin	-4526
▁Roger	-4527
▁Santa	-4528
▁Spain	-4529
▁Super	-4530
▁Terry	-4531
▁Tibet	-4532
▁Wales	-4533
▁While	-4534
▁Woman	-4535
▁aband	-4536
▁angry	-4537
▁bases	-4538
▁books	-4539
▁broke	-4540
▁chain	-4541
▁concl	-4542
▁daily	-4543
▁dream	-4544
▁empty	-4545
▁enter	-4546
▁fined	-4547
▁flood	-4548
▁fully	-4549
▁glass	-4550
▁intro	-4551
▁kills	-4552
▁legal	-4553
▁lines	-4554
▁mater	-4555
▁meant	-4556
▁meets	-4557
▁music	-4558
▁opens	-4559
▁paper	-4560
▁polls	-4561
▁price	-4562
▁rescu	-4563
▁rough	-4564
▁seeds	-4565
▁sixth	-4566
▁split	-4567
▁spoke	-4568
▁store	-4569
▁trade	-4570
▁twins	-4571
▁urged	-4572
▁value	-4573
▁whole	-4574
▁words	-4575
▁worst	-4576
▁worth	-4577
ecution	-4578
izabeth	-4579
▁10,000	-4580
▁Church	-4581
▁Cruise	-4582
▁Hispan	-4583
▁Jersey	-4584
▁Kuwait	-4585
▁Nearly	-4586
▁Report	-4587
▁Saddam	-4588
▁Serbia	-4589
▁Valenc	-4590
▁acting	-4591
▁advice	-4592
▁aggrav	-4593
▁almost	-4594
▁altern	-4595
▁anyone	-4596
▁arrive	-4597
▁asking	-4598
▁attend	-4599
▁awards	-4600
▁batter	-4601
▁change	-4602
▁circum	-4603
▁courts	-4604
▁create	-4605
▁deaths	-4606
▁deploy	-4607
▁doctor	-4608
▁double	-4609
▁events	-4610
▁expand	-4611
▁extrem	-4612
▁facing	-4613
▁famous	-4614
▁giving	-4615
▁growth	-4616
▁impact	-4617
▁income	-4618
▁intent	-4619
▁legisl	-4620
▁levels	-4621
▁linked	-4622
▁losing	-4623
▁matter	-4624
▁modern	-4625
▁mosque	-4626
▁papers	-4627
▁picked	-4628
▁pushed	-4629
▁regime	-4630
▁remote	-4631
▁rising	-4632
▁rivals	-4633
▁rodent	-4634
▁runway	-4635
▁secret	-4636
▁seeing	-4637
▁spread	-4638
▁tempor	-4639
▁tested	-4640
▁visits	-4641
▁waters	-4642
▁winter	-4643
▁worked	-4644
Mohammed	-4645
adelphia	-4646
ximately	-4647
▁ANGELES	-4648
▁Bahrain	-4649
▁Beckham	-4650
▁Experts	-4651
▁Federer	-4652
▁Nairobi	-4653
▁Organiz	-4654
▁Patrick	-4655
▁Western	-4656
▁ability	-4657
▁account	-4658
▁animals	-4659
▁appears	-4660
▁captain	-4661
▁causing	-4662
▁century	-4663
▁college	-4664
▁contain	-4665
▁contest	-4666
▁culture	-4667
▁dealers	-4668
▁defense	-4669
▁dismiss	-4670
▁distrib	-4671
▁dollars	-4672
▁entered	-4673
▁evening	-4674
▁inmates	-4675
▁letters	-4676
▁measure	-4677
▁message	-4678
▁nations	-4679
▁obvious	-4680
▁penalty	-4681
▁picture	-4682
▁project	-4683
▁radical	-4684
▁refused	-4685
▁request	-4686
▁scandal	-4687
▁schools	-4688
▁sending	-4689
▁sources	-4690
▁stadium	-4691
▁stopped	-4692
▁teenage	-4693
▁threats	-4694
▁usually	-4695
▁watched	-4696
▁western	-4697
▁willing	-4698
riculture	-4699
▁Algerian	-4700
▁Arkansas	-4701
▁Atletico	-4702
▁Benjamin	-4703
▁Incirlik	-4704
▁Juventus	-4705
▁Maryland	-4706
▁Peterson	-4707
▁Princess	-4708
▁Townsend	-4709
▁Williams	-4710
▁audience	-4711
▁becoming	-4712
▁critical	-4713
▁defender	-4714
▁disaster	-4715
▁division	-4716
▁followed	-4717
▁gasoline	-4718
▁gathered	-4719
▁identify	-4720
▁includes	-4721
▁independ	-4722
▁interest	-4723
▁invasion	-4724
▁marriage	-4725
▁material	-4726
▁militant	-4727
▁politics	-4728
▁powerful	-4729
▁pregnant	-4730
▁products	-4731
▁prosecut	-4732
▁provided	-4733
▁remember	-4734
▁returned	-4735
▁revealed	-4736
▁solution	-4737
▁starting	-4738
▁stressed	-4739
▁tensions	-4740
▁veterans	-4741
▁violated	-4742
▁wounding	-4743
▁Congolese	-4744
▁Elizabeth	-4745
▁Emergency	-4746
▁McCartney	-4747
▁Minnesota	-4748
▁Venezuela	-4749
▁affidavit	-4750
▁attorneys	-4751
▁character	-4752
▁condition	-4753
▁conducted	-4754
▁currently	-4755
▁desperate	-4756
▁direction	-4757
▁equipment	-4758
▁potential	-4759
▁reporting	-4760
▁searching	-4761
▁secretary	-4762
▁something	-4763
▁testimony	-4764
▁traveling	-4765
▁unrelated	-4766
▁Government	-4767
▁aggravated	-4768
▁ammunition	-4769
▁appearance	-4770
▁collection	-4771
▁commission	-4772
▁confidence	-4773
▁importance	-4774
▁impossible	-4775
▁indictment	-4776
▁internally	-4777
▁previously	-4778
▁restaurant	-4779
▁understand	-4780
▁withdrawal	-4781
▁Palestinian	-4782
▁Prosecutors	-4783
▁investigate	-4784
▁Organization	-4785
▁Philadelphia	-4786
▁hospitalized	-4787
▁Revolutionary	-4788
▁congressional	-4789
▁investigators	-4790
▁opportunities	-4791
▁demonstrations	-4792
",	-4793
);	-4794
.5	-4795
20	-4796
4,	-4797
91	-4798
AO	-4799
ER	-4800
Ju	-4801
KK	-4802
je	-4803
ke	-4804
lt	-4805
no	-4806
sk	-4807
wh	-4808
600	-4809
ARC	-4810
Bar	-4811
ILL	-4812
afi	-4813
agn	-4814
amm	-4815
asg	-4816
bek	-4817
bit	-4818
def	-4819
deg	-4820
eal	-4821
een	-4822
ein	-4823
ema	-4824
esl	-4825
eyn	-4826
hdi	-4827
ids	-4828
ilt	-4829
ked	-4830
ken	-4831
low	-4832
ola	-4833
opy	-4834
osa	-4835
oul	-4836
oum	-4837
pos	-4838
rif	-4839
sea	-4840
tec	-4841
tra	-4842
uca	-4843
win	-4844
zeg	-4845
▁41	-4846
▁44	-4847
▁56	-4848
▁7-	-4849
▁70	-4850
▁75	-4851
▁By	-4852
▁IV	-4853
▁Iz	-4854
▁Rh	-4855
▁VA	-4856
▁Ve	-4857
▁gr	-4858
acas	-4859
aked	-4860
amor	-4861
anes	-4862
arch	-4863
ares	-4864
argo	-4865
arks	-4866
arms	-4867
aten	-4868
atri	-4869
aval	-4870
aves	-4871
bach	-4872
bles	-4873
ceed	-4874
cern	-4875
chez	-4876
chie	-4877
clif	-4878
comm	-4879
ctor	-4880
esar	-4881
esty	-4882
ette	-4883
feit	-4884
gend	-4885
hand	-4886
hens	-4887
hest	-4888
hing	-4889
ianl	-4890
ibly	-4891
icer	-4892
ideo	-4893
iece	-4894
iful	-4895
inch	-4896
inet	-4897
irts	-4898
irut	-4899
isco	-4900
itan	-4901
lary	-4902
mist	-4903
nsyl	-4904
obby	-4905
ohan	-4906
oked	-4907
olas	-4908
olen	-4909
oper	-4910
oria	-4911
ouri	-4912
owak	-4913
pass	-4914
pool	-4915
raud	-4916
reng	-4917
roll	-4918
ston	-4919
sych	-4920
thur	-4921
town	-4922
ueen	-4923
unta	-4924
upta	-4925
utts	-4926
viet	-4927
weed	-4928
yond	-4929
▁$50	-4930
▁12,	-4931
▁14-	-4932
▁16,	-4933
▁20-	-4934
▁21,	-4935
▁22,	-4936
▁25-	-4937
▁28,	-4938
▁31,	-4939
▁6-4	-4940
▁777	-4941
▁Bin	-4942
▁Cas	-4943
▁Dam	-4944
▁Dar	-4945
▁Den	-4946
▁Div	-4947
▁Dri	-4948
▁Fal	-4949
▁Fel	-4950
▁GAO	-4951
▁Hom	-4952
▁ICE	-4953
▁Kat	-4954
▁Kel	-4955
▁Kos	-4956
▁Kyi	-4957
▁Lat	-4958
▁Led	-4959
▁Maz	-4960
▁Mem	-4961
▁Met	-4962
▁Old	-4963
▁Osc	-4964
▁PKK	-4965
▁Ref	-4966
▁Rem	-4967
▁SAN	-4968
▁Sol	-4969
▁USA	-4970
▁Ult	-4971
▁awa	-4972
▁ble	-4973
▁cam	-4974
▁cub	-4975
▁din	-4976
▁emb	-4977
▁ens	-4978
▁exc	-4979
▁hum	-4980
▁ice	-4981
▁ign	-4982
▁lad	-4983
▁mer	-4984
▁pit	-4985
▁rom	-4986
▁sal	-4987
▁sil	-4988
▁sle	-4989
▁tip	-4990
▁ton	-4991
▁tur	-4992
▁unc	-4993
There	-4994
While	-4995
ading	-4996
ainst	-4997
airly	-4998
aksin	-4999
aleld	-5000
ality	-5001
althy	-5002
anish	-5003
arell	-5004
asgow	-5005
astic	-5006
ction	-5007
eback	-5008
eland	-5009
esity	-5010
eston	-5011
fires	-5012
ician	-5013
idesp	-5014
inois	-5015
iplin	-5016
ishes	-5017
month	-5018
ocent	-5019
omers	-5020
ordon	-5021
orted	-5022
owers	-5023
raged	-5024
raine	-5025
rateg	-5026
story	-5027
ulate	-5028
ullah	-5029
ulner	-5030
upted	-5031
▁1970	-5032
▁Anti	-5033
▁BUPA	-5034
▁Beat	-5035
▁Both	-5036
▁Cust	-5037
▁Dist	-5038
▁Eric	-5039
▁Expl	-5040
▁Fund	-5041
▁Galv	-5042
▁Gold	-5043
▁Good	-5044
▁Hall	-5045
▁Kurd	-5046
▁Life	-5047
▁Luis	-5048
▁Mall	-5049
▁Many	-5050
▁Road	-5051
▁Roma	-5052
▁Rome	-5053
▁Sant	-5054
▁Shaw	-5055
▁Sore	-5056
▁Then	-5057
▁Wall	-5058
▁Wink	-5059
▁arch	-5060
▁bees	-5061
▁bird	-5062
▁burg	-5063
▁card	-5064
▁door	-5065
▁easy	-5066
▁excl	-5067
▁fine	-5068
▁firm	-5069
▁flee	-5070
▁gain	-5071
▁gang	-5072
▁halt	-5073
▁hurt	-5074
▁laun	-5075
▁lawn	-5076
▁laws	-5077
▁liqu	-5078
▁mine	-5079
▁murd	-5080
▁oral	-5081
▁pard	-5082
▁path	-5083
▁pled	-5084
▁quit	-5085
▁rage	-5086
▁rank	-5087
▁rare	-5088
▁reef	-5089
▁ring	-5090
▁scre	-5091
▁seat	-5092
▁sets	-5093
▁spec	-5094
▁stem	-5095
▁sure	-5096
▁unbe	-5097
▁vice	-5098
▁wars	-5099
▁ways	-5100
▁wine	-5101
▁wire	-5102
Syrian	-5103
akhtar	-5104
artial	-5105
cliffe	-5106
degree	-5107
eepers	-5108
encing	-5109
ension	-5110
itical	-5111
manent	-5112
minute	-5113
mittee	-5114
onnell	-5115
oonist	-5116
oscopy	-5117
othing	-5118
rators	-5119
ricted	-5120
rities	-5121
ronaut	-5122
rowned	-5123
▁Armen	-5124
▁Asian	-5125
▁Aztec	-5126
▁Cesar	-5127
▁Chile	-5128
▁Civil	-5129
▁Cutts	-5130
▁Eight	-5131
▁Franc	-5132
▁Gianl	-5133
▁Grant	-5134
▁Hamil	-5135
▁Istan	-5136
▁Josep	-5137
▁Kenya	-5138
▁Korea	-5139
▁Liver	-5140
▁Lohan	-5141
▁Mehdi	-5142
▁Nowak	-5143
▁Order	-5144
▁Phill	-5145
▁Queen	-5146
▁Sands	-5147
▁Smith	-5148
▁Syria	-5149
▁Tests	-5150
▁Traff	-5151
▁Trans	-5152
▁Video	-5153
▁Villa	-5154
▁achie	-5155
▁actor	-5156
▁alive	-5157
▁arran	-5158
▁aside	-5159
▁beach	-5160
▁blaze	-5161
▁block	-5162
▁cargo	-5163
▁cerem	-5164
▁champ	-5165
▁cited	-5166
▁const	-5167
▁craft	-5168
▁deton	-5169
▁dozen	-5170
▁drawn	-5171
▁drive	-5172
▁drove	-5173
▁elder	-5174
▁euros	-5175
▁faith	-5176
▁fence	-5177
▁fires	-5178
▁focus	-5179
▁fract	-5180
▁girls	-5181
▁green	-5182
▁honor	-5183
▁integ	-5184
▁joint	-5185
▁langu	-5186
▁medal	-5187
▁memor	-5188
▁moral	-5189
▁occup	-5190
▁organ	-5191
▁pilot	-5192
▁psych	-5193
▁reven	-5194
▁ricin	-5195
▁roles	-5196
▁score	-5197
▁seats	-5198
▁shown	-5199
▁sites	-5200
▁skull	-5201
▁slain	-5202
▁sting	-5203
▁teach	-5204
▁touch	-5205
▁tourn	-5206
▁turns	-5207
▁warns	-5208
control	-5209
ication	-5210
ificant	-5211
llinois	-5212
nsylvan	-5213
ologist	-5214
ometers	-5215
redible	-5216
rington	-5217
stances	-5218
terbach	-5219
▁Andrew	-5220
▁Arthur	-5221
▁Beirut	-5222
▁Berlin	-5223
▁Carlos	-5224
▁Columb	-5225
▁Deputy	-5226
▁During	-5227
▁Father	-5228
▁Kosovo	-5229
▁Lantos	-5230
▁Lauren	-5231
▁Pervez	-5232
▁Rafael	-5233
▁Second	-5234
▁Sunnis	-5235
▁Thomas	-5236
▁Trebek	-5237
▁Wilson	-5238
▁adults	-5239
▁affili	-5240
▁beaten	-5241
▁behalf	-5242
▁beyond	-5243
▁bought	-5244
▁bullet	-5245
▁camera	-5246
▁compet	-5247
▁corpor	-5248
▁course	-5249
▁crimes	-5250
▁decide	-5251
▁degree	-5252
▁depart	-5253
▁detect	-5254
▁devast	-5255
▁device	-5256
▁downpl	-5257
▁engage	-5258
▁ensure	-5259
▁except	-5260
▁export	-5261
▁felony	-5262
▁flying	-5263
▁fourth	-5264
▁higher	-5265
▁instit	-5266
▁legend	-5267
▁lifted	-5268
▁losses	-5269
▁mainly	-5270
▁middle	-5271
▁mobile	-5272
▁mostly	-5273
▁moving	-5274
▁necess	-5275
▁pilots	-5276
▁prepar	-5277
▁raised	-5278
▁retail	-5279
▁reward	-5280
▁scores	-5281
▁settle	-5282
▁streng	-5283
▁suburb	-5284
▁tackle	-5285
▁temper	-5286
▁trauma	-5287
▁voting	-5288
▁widesp	-5289
▁writer	-5290
Juventus	-5291
aleldine	-5292
heastern	-5293
rogation	-5294
ropriate	-5295
▁Burrell	-5296
▁Caracas	-5297
▁Central	-5298
▁Charles	-5299
▁Chelsea	-5300
▁Earlier	-5301
▁Falcons	-5302
▁Glasgow	-5303
▁Hamburg	-5304
▁However	-5305
▁Jackson	-5306
▁Library	-5307
▁Roberts	-5308
▁Sampras	-5309
▁Sanchez	-5310
▁Seattle	-5311
▁Society	-5312
▁Spanish	-5313
▁Suspect	-5314
▁Swinton	-5315
▁Thaksin	-5316
▁Ukraine	-5317
▁Vietnam	-5318
▁Winkler	-5319
▁abusing	-5320
▁actress	-5321
▁adviser	-5322
▁airline	-5323
▁analyst	-5324
▁backing	-5325
▁charity	-5326
▁collaps	-5327
▁comment	-5328
▁coroner	-5329
▁cutting	-5330
▁devices	-5331
▁dropped	-5332
▁engaged	-5333
▁erupted	-5334
▁escaped	-5335
▁figures	-5336
▁forcing	-5337
▁happens	-5338
▁illness	-5339
▁imposed	-5340
▁impress	-5341
▁inquest	-5342
▁kingdom	-5343
▁largely	-5344
▁library	-5345
▁obesity	-5346
▁parking	-5347
▁partner	-5348
▁patches	-5349
▁quarter	-5350
▁reached	-5351
▁records	-5352
▁reflect	-5353
▁replace	-5354
▁require	-5355
▁restore	-5356
▁results	-5357
▁retired	-5358
▁slaying	-5359
▁storage	-5360
▁surgery	-5361
▁talking	-5362
▁targets	-5363
▁traffic	-5364
▁tragedy	-5365
▁trapped	-5366
▁warming	-5367
▁warrant	-5368
▁weather	-5369
▁younger	-5370
essential	-5371
ulnerable	-5372
▁Abdullah	-5373
▁Bolivian	-5374
▁Division	-5375
▁Hamilton	-5376
▁Harrison	-5377
▁Hispanic	-5378
▁Hospital	-5379
▁Istanbul	-5380
▁Qualcomm	-5381
▁Sorensen	-5382
▁Veterans	-5383
▁approved	-5384
▁attacked	-5385
▁attended	-5386
▁burglary	-5387
▁commonly	-5388
▁dialogue	-5389
▁directly	-5390
▁disabled	-5391
▁employee	-5392
▁encourag	-5393
▁endorsed	-5394
▁exercise	-5395
▁extended	-5396
▁factions	-5397
▁frequent	-5398
▁included	-5399
▁injuring	-5400
▁innocent	-5401
▁instruct	-5402
▁learning	-5403
▁location	-5404
▁mountain	-5405
▁petition	-5406
▁prepared	-5407
▁princess	-5408
▁programs	-5409
▁projects	-5410
▁proposed	-5411
▁restrict	-5412
▁searches	-5413
▁senators	-5414
▁separate	-5415
▁thoughts	-5416
▁unbeaten	-5417
▁upcoming	-5418
controlled	-5419
▁Committee	-5420
▁Galveston	-5421
▁Institute	-5422
▁Liverpool	-5423
▁Radcliffe	-5424
▁astronaut	-5425
▁bodyguard	-5426
▁buildings	-5427
▁campaigns	-5428
▁certainly	-5429
▁commander	-5430
▁continued	-5431
▁contracts	-5432
▁crackdown	-5433
▁criticism	-5434
▁describes	-5435
▁disciplin	-5436
▁discovery	-5437
▁expertise	-5438
▁explosion	-5439
▁expressed	-5440
▁extensive	-5441
▁increased	-5442
▁insurance	-5443
▁mountains	-5444
▁nonprofit	-5445
▁permanent	-5446
▁resources	-5447
▁sanctions	-5448
▁solutions	-5449
▁suggested	-5450
▁supporter	-5451
▁survivors	-5452
▁targeting	-5453
▁threatens	-5454
▁transport	-5455
▁violation	-5456
▁wildfires	-5457
▁witnesses	-5458
stitutional	-5459
▁Bernardino	-5460
▁Foundation	-5461
▁Harrington	-5462
▁Journalist	-5463
▁Lauterbach	-5464
▁Pennsylvan	-5465
▁Ronaldinho	-5466
▁aggressive	-5467
▁contractor	-5468
▁criticized	-5469
▁difference	-5470
▁diplomatic	-5471
▁disappoint	-5472
▁extremists	-5473
▁facilities	-5474
▁fertilizer	-5475
▁generation	-5476
▁helicopter	-5477
▁immigrants	-5478
▁investment	-5479
▁kilometers	-5480
▁management	-5481
▁originally	-5482
▁overturned	-5483
▁presidents	-5484
▁procedures	-5485
▁punishment	-5486
▁scientists	-5487
▁statements	-5488
▁suspension	-5489
▁suspicious	-5490
▁tournament	-5491
▁ultimately	-5492
▁widespread	-5493
▁Association	-5494
▁Jamaleldine	-5495
▁Republicans	-5496
▁celebrities	-5497
▁colonoscopy	-5498
▁communities	-5499
▁declaration	-5500
▁experienced	-5501
▁politicians	-5502
▁possibility	-5503
▁reconstruct	-5504
▁significant	-5505
▁underground	-5506
▁Palestinians	-5507
▁confirmation	-5508
▁conservative	-5509
▁firefighters	-5510
▁humanitarian	-5511
▁independence	-5512
▁approximately	-5513
▁environmental	-5514
▁interrogation	-5515
▁Administration	-5516
).	-5517
08	-5518
CO	-5519
He	-5520
La	-5521
MD	-5522
OJ	-5523
RU	-5524
So	-5525
TV	-5526
UM	-5527
WE	-5528
ez	-5529
gl	-5530
ha	-5531
hu	-5532
la	-5533
lo	-5534
ls	-5535
ni	-5536
ox	-5537
py	-5538
qt	-5539
tg	-5540
ux	-5541
uz	-5542
wd	-5543
yd	-5544
zi	-5545
▁u	-5546
-35	-5547
08)	-5548
11,	-5549
200	-5550
380	-5551
591	-5552
800	-5553
IFA	-5554
LAS	-5555
ORK	-5556
Rep	-5557
Rom	-5558
aha	-5559
ahm	-5560
ahn	-5561
aki	-5562
ali	-5563
ami	-5564
ann	-5565
aro	-5566
aws	-5567
bol	-5568
bur	-5569
can	-5570
ded	-5571
eed	-5572
emy	-5573
eop	-5574
ett	-5575
eus	-5576
ext	-5577
gdu	-5578
hab	-5579
hem	-5580
hol	-5581
hua	-5582
hus	-5583
icc	-5584
igl	-5585
iod	-5586
iro	-5587
isf	-5588
law	-5589
log	-5590
obe	-5591
oil	-5592
opp	-5593
pet	-5594
pre	-5595
rah	-5596
ros	-5597
tta	-5598
ube	-5599
HCR	-5600
ucc	-5601
uce	-5602
ugg	-5603
uit	-5604
uja	-5605
ums	-5606
ymn	-5607
ynn	-5608
yon	-5609
zan	-5610
▁$7	-5611
▁$8	-5612
▁(3	-5613
▁2-	-5614
▁32	-5615
▁96	-5616
▁CB	-5617
▁Di	-5618
▁Ec	-5619
▁IN	-5620
▁Jr	-5621
▁MD	-5622
▁Mw	-5623
▁Op	-5624
▁Ra	-5625
▁Sl	-5626
▁di	-5627
▁fr	-5628
▁ju	-5629
EGAS	-5630
Roma	-5631
They	-5632
USOJ	-5633
When	-5634
aard	-5635
abul	-5636
acob	-5637
adei	-5638
adow	-5639
ager	-5640
agne	-5641
aims	-5642
akou	-5643
aley	-5644
alke	-5645
alvo	-5646
ando	-5647
angh	-5648
ania	-5649
anka	-5650
apol	-5651
ardo	-5652
ardy	-5653
arth	-5654
ateg	-5655
atra	-5656
azid	-5657
book	-5658
dden	-5659
drug	-5660
eman	-5661
enit	-5662
etic	-5663
ewed	-5664
feed	-5665
gest	-5666
gian	-5667
goti	-5668
gram	-5669
hafi	-5670
hart	-5671
hunt	-5672
husi	-5673
iago	-5674
icts	-5675
iele	-5676
ifer	-5677
ifth	-5678
ihat	-5679
ilet	-5680
imum	-5681
init	-5682
iple	-5683
ippi	-5684
irit	-5685
ites	-5686
iyah	-5687
jana	-5688
kick	-5689
levi	-5690
lled	-5691
lock	-5692
long	-5693
lymp	-5694
mara	-5695
mers	-5696
mine	-5697
ocop	-5698
ohoo	-5699
olds	-5700
onso	-5701
opez	-5702
orff	-5703
oric	-5704
osal	-5705
ouch	-5706
pack	-5707
pher	-5708
phis	-5709
pond	-5710
prop	-5711
rect	-5712
rend	-5713
rine	-5714
roit	-5715
rose	-5716
ruce	-5717
rump	-5718
step	-5719
then	-5720
tier	-5721
ties	-5722
tled	-5723
toff	-5724
uese	-5725
ugby	-5726
utal	-5727
uten	-5728
uttg	-5729
week	-5730
west	-5731
wich	-5732
wife	-5733
yard	-5734
ynam	-5735
▁14,	-5736
▁150	-5737
▁19,	-5738
▁195	-5739
▁20,	-5740
▁23-	-5741
▁24-	-5742
▁26,	-5743
▁3-0	-5744
▁36,	-5745
▁37-	-5746
▁4-0	-5747
▁6-2	-5748
▁6-3	-5749
▁Ali	-5750
▁Aub	-5751
▁Bat	-5752
▁Bro	-5753
▁Cap	-5754
▁Cpl	-5755
▁Cur	-5756
▁DNA	-5757
▁Dev	-5758
▁Duc	-5759
▁Eth	-5760
▁Gre	-5761
▁Hur	-5762
▁IRA	-5763
▁Ire	-5764
▁Jol	-5765
▁Kib	-5766
▁Kle	-5767
▁LAS	-5768
▁Lah	-5769
▁Lub	-5770
▁Mel	-5771
▁Meo	-5772
▁Mer	-5773
▁Moh	-5774
▁Mot	-5775
▁Naf	-5776
▁Nic	-5777
▁Opp	-5778
▁Pit	-5779
▁Pur	-5780
▁Saf	-5781
▁Sir	-5782
▁Squ	-5783
▁Sri	-5784
▁Suu	-5785
▁Tot	-5786
▁Tup	-5787
▁USS	-5788
▁Van	-5789
▁WMD	-5790
▁WWE	-5791
▁aer	-5792
▁arg	-5793
▁asp	-5794
▁bal	-5795
▁bed	-5796
▁bid	-5797
▁bow	-5798
▁bub	-5799
▁bud	-5800
▁cal	-5801
▁cow	-5802
▁cul	-5803
▁dom	-5804
▁dry	-5805
▁ele	-5806
▁fal	-5807
▁fix	-5808
▁guy	-5809
▁ham	-5810
▁hip	-5811
▁log	-5812
▁loy	-5813
▁mis	-5814
▁sea	-5815
▁sem	-5816
▁sor	-5817
▁tow	-5818
▁tox	-5819
▁tun	-5820
▁typ	-5821
▁ver	-5822
▁vis	-5823
▁wra	-5824
5,000	-5825
agers	-5826
agoza	-5827
ailed	-5828
aints	-5829
allon	-5830
amily	-5831
ample	-5832
antas	-5833
anyon	-5834
arcot	-5835
arden	-5836
arges	-5837
armed	-5838
ashes	-5839
asons	-5840
astro	-5841
atory	-5842
avior	-5843
berto	-5844
burgh	-5845
ceful	-5846
check	-5847
chell	-5848
chett	-5849
ching	-5850
deleg	-5851
ectac	-5852
elled	-5853
ellig	-5854
ennon	-5855
enses	-5856
erted	-5857
estic	-5858
estiv	-5859
gment	-5860
going	-5861
grade	-5862
idity	-5863
iegel	-5864
ients	-5865
ieves	-5866
ifman	-5867
ijing	-5868
inson	-5869
iscal	-5870
isons	-5871
itals	-5872
itude	-5873
ivity	-5874
liest	-5875
light	-5876
lying	-5877
nesty	-5878
olved	-5879
oscow	-5880
oston	-5881
oting	-5882
otion	-5883
owned	-5884
point	-5885
ports	-5886
pound	-5887
pping	-5888
prise	-5889
qtada	-5890
raeus	-5891
remen	-5892
renor	-5893
ronic	-5894
style	-5895
ticip	-5896
trail	-5897
uffed	-5898
usive	-5899
utter	-5900
vised	-5901
▁1984	-5902
▁1990	-5903
▁1997	-5904
▁Andy	-5905
▁Anth	-5906
▁Aung	-5907
▁Batt	-5908
▁Bear	-5909
▁Best	-5910
▁Bomb	-5911
▁Boyd	-5912
▁Brad	-5913
▁Bran	-5914
▁Bund	-5915
▁Burn	-5916
▁Cher	-5917
▁Cort	-5918
▁Cres	-5919
▁Dube	-5920
▁FIFA	-5921
▁Five	-5922
▁Food	-5923
▁Gill	-5924
▁Jama	-5925
▁Kamp	-5926
▁Kent	-5927
▁Kiri	-5928
▁Lama	-5929
▁Lynn	-5930
▁Mark	-5931
▁Mart	-5932
▁Nair	-5933
▁Oper	-5934
▁Reds	-5935
▁Reid	-5936
▁Rica	-5937
▁Rock	-5938
▁Rudy	-5939
▁Sams	-5940
▁Sidr	-5941
▁Supp	-5942
▁Thai	-5943
▁Unit	-5944
▁YORK	-5945
▁ages	-5946
▁aren	-5947
▁asks	-5948
▁bags	-5949
▁band	-5950
▁beer	-5951
▁bust	-5952
▁caps	-5953
▁cler	-5954
▁cool	-5955
▁done	-5956
▁emer	-5957
▁emir	-5958
▁fats	-5959
▁felt	-5960
▁flew	-5961
▁fran	-5962
▁guer	-5963
▁hall	-5964
▁hero	-5965
▁hill	-5966
▁idea	-5967
▁jour	-5968
▁kick	-5969
▁lawm	-5970
▁lewd	-5971
▁lift	-5972
▁loan	-5973
▁male	-5974
▁mask	-5975
▁mist	-5976
▁neck	-5977
▁none	-5978
▁noon	-5979
▁note	-5980
▁pair	-5981
▁perf	-5982
▁pist	-5983
▁pope	-5984
▁pose	-5985
▁prec	-5986
▁rall	-5987
▁ramp	-5988
▁reac	-5989
▁rice	-5990
▁rich	-5991
▁roof	-5992
▁sale	-5993
▁self	-5994
▁shar	-5995
▁shoo	-5996
▁skin	-5997
▁stri	-5998
▁surf	-5999
▁tast	-6000
▁tied	-6001
▁tips	-6002
▁unse	-6003
▁vers	-6004
▁wasn	-6005
▁woes	-6006
▁worn	-6007
alator	-6008
anghai	-6009
anging	-6010
apolis	-6011
arelli	-6012
artoum	-6013
ayette	-6014
defend	-6015
dinese	-6016
ducing	-6017
ecause	-6018
ellite	-6019
enport	-6020
entine	-6021
entory	-6022
esliga	-6023
etimes	-6024
ewhere	-6025
guards	-6026
iciary	-6027
idency	-6028
illing	-6029
inched	-6030
istent	-6031
orched	-6032
ritory	-6033
rorism	-6034
rowing	-6035
uality	-6036
ulting	-6037
urance	-6038
usions	-6039
venile	-6040
ymnast	-6041
▁1,000	-6042
▁1,200	-6043
▁2006,	-6044
▁2008,	-6045
▁3,000	-6046
▁Abdul	-6047
▁Ahmed	-6048
▁Amara	-6049
▁Bible	-6050
▁Bruce	-6051
▁Canad	-6052
▁Coman	-6053
▁Congo	-6054
▁Dalai	-6055
▁Debra	-6056
▁Dynam	-6057
▁ElBar	-6058
▁First	-6059
▁Gupta	-6060
▁Immig	-6061
▁Jacob	-6062
▁Jason	-6063
▁Joint	-6064
▁Julie	-6065
▁Lanka	-6066
▁Larry	-6067
▁Laura	-6068
▁Linds	-6069
▁Lopez	-6070
▁Malvo	-6071
▁Marsh	-6072
▁Mazza	-6073
▁Minne	-6074
▁Names	-6075
▁Niger	-6076
▁Nihat	-6077
▁Olymp	-6078
▁Oscar	-6079
▁Patil	-6080
▁Rhode	-6081
▁Schum	-6082
▁Serie	-6083
▁Stand	-6084
▁Starr	-6085
▁Stock	-6086
▁Strik	-6087
▁Those	-6088
▁Tocop	-6089
▁UNHCR	-6090
▁Unity	-6091
▁VEGAS	-6092
▁Visit	-6093
▁accom	-6094
▁admit	-6095
▁airpl	-6096
▁airst	-6097
▁alone	-6098
▁aware	-6099
▁basic	-6100
▁basis	-6101
▁beats	-6102
▁beaut	-6103
▁begun	-6104
▁benef	-6105
▁birds	-6106
▁birth	-6107
▁brand	-6108
▁built	-6109
▁buses	-6110
▁canal	-6111
▁carry	-6112
▁cease	-6113
▁clubs	-6114
▁coral	-6115
▁costs	-6116
▁crews	-6117
▁dealt	-6118
▁doors	-6119
▁dress	-6120
▁earth	-6121
▁ended	-6122
▁error	-6123
▁exact	-6124
▁exhib	-6125
▁fatal	-6126
▁fears	-6127
▁fifth	-6128
▁finds	-6129
▁fraud	-6130
▁fruit	-6131
▁goals	-6132
▁goods	-6133
▁gradu	-6134
▁guard	-6135
▁heads	-6136
▁image	-6137
▁impro	-6138
▁junta	-6139
▁knock	-6140
▁lands	-6141
▁laund	-6142
▁lined	-6143
▁looks	-6144
▁mafia	-6145
▁marry	-6146
▁motor	-6147
▁noted	-6148
▁plant	-6149
▁purch	-6150
▁quite	-6151
▁raise	-6152
▁raped	-6153
▁rapid	-6154
▁rates	-6155
▁recru	-6156
▁route	-6157
▁shift	-6158
▁ships	-6159
▁smoke	-6160
▁smugg	-6161
▁spons	-6162
▁stars	-6163
▁steal	-6164
▁stock	-6165
▁sweep	-6166
▁taxes	-6167
▁tough	-6168
▁upper	-6169
▁urban	-6170
▁urine	-6171
▁votes	-6172
▁walls	-6173
▁weeds	-6174
▁white	-6175
▁write	-6176
▁yards	-6177
Donnell	-6178
agement	-6179
anguage	-6180
aragoza	-6181
assment	-6182
atively	-6183
certain	-6184
essions	-6185
iciency	-6186
issippi	-6187
itimate	-6188
leviate	-6189
profile	-6190
reeding	-6191
sterdam	-6192
unction	-6193
uttgart	-6194
wheeler	-6195
▁15,000	-6196
▁25,000	-6197
▁40,000	-6198
▁Auburn	-6199
▁Austin	-6200
▁Border	-6201
▁Boston	-6202
▁Bremen	-6203
▁Bridge	-6204
▁Briton	-6205
▁Canyon	-6206
▁Castro	-6207
▁Cheney	-6208
▁Commun	-6209
▁Danish	-6210
▁Direct	-6211
▁Doming	-6212
▁Driver	-6213
▁Ducati	-6214
▁Dujana	-6215
▁Econom	-6216
▁Elaine	-6217
▁Empire	-6218
▁Family	-6219
▁Flight	-6220
▁Gadahn	-6221
▁Global	-6222
▁Gordon	-6223
▁Hariri	-6224
▁Harris	-6225
▁Indian	-6226
▁Joseph	-6227
▁Kibaki	-6228
▁Korean	-6229
▁Ledger	-6230
▁Lennon	-6231
▁Libyan	-6232
▁McCann	-6233
▁Medina	-6234
▁Moscow	-6235
▁Nafeek	-6236
▁Napoli	-6237
▁People	-6238
▁Poland	-6239
▁Potter	-6240
▁Purvis	-6241
▁Relief	-6242
▁Rodrig	-6243
▁Safety	-6244
▁Theres	-6245
▁Trenor	-6246
▁Uganda	-6247
▁Warren	-6248
▁abused	-6249
▁allies	-6250
▁always	-6251
▁ambass	-6252
▁answer	-6253
▁apolog	-6254
▁artist	-6255
▁assign	-6256
▁ballot	-6257
▁belief	-6258
▁breach	-6259
▁brings	-6260
▁broken	-6261
▁brutal	-6262
▁bureau	-6263
▁buried	-6264
▁casual	-6265
▁choice	-6266
▁clinch	-6267
▁closer	-6268
▁credit	-6269
▁desire	-6270
▁dinner	-6271
▁disrup	-6272
▁eating	-6273
▁editor	-6274
▁engine	-6275
▁estate	-6276
▁finish	-6277
▁fiscal	-6278
▁garden	-6279
▁headed	-6280
▁horror	-6281
▁houses	-6282
▁joined	-6283
▁jumped	-6284
▁landed	-6285
▁lethal	-6286
▁longer	-6287
▁looked	-6288
▁looted	-6289
▁makeup	-6290
▁master	-6291
▁memory	-6292
▁negoti	-6293
▁netted	-6294
▁normal	-6295
▁owners	-6296
▁pardon	-6297
▁passed	-6298
▁pledge	-6299
▁posted	-6300
▁pounds	-6301
▁poured	-6302
▁priest	-6303
▁promin	-6304
▁recess	-6305
▁recomm	-6306
▁relief	-6307
▁remind	-6308
▁rifles	-6309
▁rolled	-6310
▁runner	-6311
▁sentim	-6312
▁severe	-6313
▁shadow	-6314
▁shards	-6315
▁silenc	-6316
▁singer	-6317
▁single	-6318
▁sister	-6319
▁speaks	-6320
▁spirit	-6321
▁street	-6322
▁strict	-6323
▁strike	-6324
▁symbol	-6325
▁talked	-6326
▁thinks	-6327
▁trains	-6328
▁transl	-6329
▁tunnel	-6330
▁unrest	-6331
▁values	-6332
▁vessel	-6333
▁vetoed	-6334
▁washed	-6335
▁window	-6336
▁wounds	-6337
▁yester	-6338
arcotics	-6339
ceptable	-6340
ensation	-6341
gendorff	-6342
genocide	-6343
inciples	-6344
iversary	-6345
ospitals	-6346
▁Affairs	-6347
▁Alberto	-6348
▁Beatles	-6349
▁Beijing	-6350
▁Blatter	-6351
▁Branson	-6352
▁Charges	-6353
▁Chengdu	-6354
▁Command	-6355
▁Concern	-6356
▁Conserv	-6357
▁Customs	-6358
▁Cyclone	-6359
▁Daniele	-6360
▁Despite	-6361
▁Detroit	-6362
▁Donohoo	-6363
▁Fashion	-6364
▁Federal	-6365
▁Freedom	-6366
▁Gadhafi	-6367
▁Gillian	-6368
▁Hampton	-6369
▁Ireland	-6370
▁Israeli	-6371
▁Jeffrey	-6372
▁Kampala	-6373
▁Leaders	-6374
▁Leifman	-6375
▁Memphis	-6376
▁Muqtada	-6377
▁Neander	-6378
▁Oakland	-6379
▁Program	-6380
▁Schalke	-6381
▁Stadium	-6382
▁Stephen	-6383
▁Switzer	-6384
▁actions	-6385
▁anticip	-6386
▁arrived	-6387
▁artists	-6388
▁average	-6389
▁awarded	-6390
▁baggage	-6391
▁balance	-6392
▁battery	-6393
▁betting	-6394
▁burning	-6395
▁busiest	-6396
▁carried	-6397
▁centers	-6398
▁chances	-6399
▁comfort	-6400
▁consult	-6401
▁continu	-6402
▁contrib	-6403
▁correct	-6404
▁covered	-6405
▁crucial	-6406
▁damaged	-6407
▁declare	-6408
▁dispute	-6409
▁drowned	-6410
▁eastern	-6411
▁elderly	-6412
▁elected	-6413
▁examine	-6414
▁example	-6415
▁falling	-6416
▁finally	-6417
▁finding	-6418
▁founded	-6419
▁gallons	-6420
▁holiday	-6421
▁honored	-6422
▁hostage	-6423
▁instead	-6424
▁intense	-6425
▁journey	-6426
▁killers	-6427
▁learned	-6428
▁lessons	-6429
▁martial	-6430
▁militia	-6431
▁monarch	-6432
▁monitor	-6433
▁nothing	-6434
▁numbers	-6435
▁offices	-6436
▁opposed	-6437
▁overall	-6438
▁parties	-6439
▁persons	-6440
▁plastic	-6441
▁pleaded	-6442
▁pointed	-6443
▁prepare	-6444
▁present	-6445
▁pushing	-6446
▁putting	-6447
▁receive	-6448
▁remarks	-6449
▁revoked	-6450
▁showing	-6451
▁society	-6452
▁spectac	-6453
▁stories	-6454
▁strateg	-6455
▁systems	-6456
▁telling	-6457
▁tonight	-6458
▁tractor	-6459
▁trained	-6460
▁trouble	-6461
▁various	-6462
▁volunte	-6463
▁warning	-6464
▁wealthy	-6465
▁wedding	-6466
▁winners	-6467
abilities	-6468
elligence	-6469
▁Chairman	-6470
▁Chertoff	-6471
▁Comaneci	-6472
▁Courtney	-6473
▁Crescent	-6474
▁District	-6475
▁Exchange	-6476
▁Hawaiian	-6477
▁Homeland	-6478
▁Illinois	-6479
▁Interpol	-6480
▁Kentucky	-6481
▁Khartoum	-6482
▁Kiriakou	-6483
▁Lockhart	-6484
▁Missouri	-6485
▁Mitchell	-6486
▁Namesake	-6487
▁Petraeus	-6488
▁Phillips	-6489
▁Redskins	-6490
▁Refugees	-6491
▁Republic	-6492
▁Santiago	-6493
▁Scottish	-6494
▁Services	-6495
▁Shakhtar	-6496
▁Shanghai	-6497
▁Speaking	-6498
▁Valencia	-6499
▁accounts	-6500
▁adoption	-6501
▁backpack	-6502
▁baseball	-6503
▁battling	-6504
▁bombings	-6505
▁bringing	-6506
▁civilian	-6507
▁claiming	-6508
▁clinched	-6509
▁comeback	-6510
▁computer	-6511
▁deserved	-6512
▁designed	-6513
▁designer	-6514
▁disputes	-6515
▁distance	-6516
▁drinkers	-6517
▁everyone	-6518
▁finished	-6519
▁friendly	-6520
▁greatest	-6521
▁handlers	-6522
▁hijacked	-6523
▁insisted	-6524
▁juvenile	-6525
▁launcher	-6526
▁lewdness	-6527
▁mortgage	-6528
▁movement	-6529
▁multiple	-6530
▁networks	-6531
▁original	-6532
▁photogra	-6533
▁physical	-6534
▁policies	-6535
▁positive	-6536
▁practice	-6537
▁presence	-6538
▁priority	-6539
▁prisoner	-6540
▁promised	-6541
▁pursuing	-6542
▁reaching	-6543
▁rejected	-6544
▁required	-6545
▁resigned	-6546
▁romantic	-6547
▁severely	-6548
▁shopping	-6549
▁standing	-6550
▁stemming	-6551
▁suburban	-6552
▁superior	-6553
▁surprise	-6554
▁terminal	-6555
▁underage	-6556
girlfriend	-6557
▁Amsterdam	-6558
▁Armenians	-6559
▁Davenport	-6560
▁Dominguez	-6561
▁ElBaradei	-6562
▁Francisco	-6563
▁Hurricane	-6564
▁Palestine	-6565
▁Pratchett	-6566
▁Stuttgart	-6567
▁Tocopilla	-6568
▁Winehouse	-6569
▁abandoned	-6570
▁alleviate	-6571
▁apartment	-6572
▁beginning	-6573
▁celebrity	-6574
▁collapsed	-6575
▁computers	-6576
▁connected	-6577
▁contained	-6578
▁customers	-6579
▁deadliest	-6580
▁declaring	-6581
▁democracy	-6582
▁detention	-6583
▁developed	-6584
▁discussed	-6585
▁dominated	-6586
▁education	-6587
▁escalator	-6588
▁explosive	-6589
▁generally	-6590
▁initially	-6591
▁insulting	-6592
▁inventory	-6593
▁northeast	-6594
▁pregnancy	-6595
▁presented	-6596
▁professor	-6597
▁providing	-6598
▁recovered	-6599
▁referring	-6600
▁regarding	-6601
▁regularly	-6602
▁remaining	-6603
▁residence	-6604
▁safeguard	-6605
▁satellite	-6606
▁southeast	-6607
▁structure	-6608
▁supported	-6609
▁withdrawn	-6610
▁yesterday	-6611
▁Bundesliga	-6612
▁Interstate	-6613
▁Petersburg	-6614
▁Portuguese	-6615
▁Venezuelan	-6616
▁activities	-6617
▁approached	-6618
▁assistance	-6619
▁associated	-6620
▁attempting	-6621
▁conducting	-6622
▁efficiency	-6623
▁evacuation	-6624
▁girlfriend	-6625
▁incredible	-6626
▁inspection	-6627
▁introduced	-6628
▁journalist	-6629
▁objections	-6630
▁presidency	-6631
▁protective	-6632
▁questioned	-6633
▁recognized	-6634
▁regardless	-6635
▁restricted	-6636
▁successive	-6637
▁superdeleg	-6638
▁videotaped	-6639
▁vulnerable	-6640
▁Bergendorff	-6641
▁Immigration	-6642
▁Journalists	-6643
▁Minneapolis	-6644
▁Mississippi	-6645
▁Neanderthal	-6646
▁Switzerland	-6647
▁allegations	-6648
▁anniversary	-6649
▁controversy	-6650
▁counterfeit	-6651
▁destruction	-6652
▁disappeared	-6653
▁individuals	-6654
▁legislation	-6655
▁restaurants	-6656
▁spectacular	-6657
▁temporarily	-6658
▁traditional	-6659
▁trafficking	-6660
▁Firefighters	-6661
▁Pennsylvania	-6662
▁accidentally	-6663
▁appointments	-6664
▁disciplinary	-6665
▁expectations	-6666
▁firefighting	-6667
▁institutions	-6668
▁restrictions	-6669
▁temperatures	-6670
▁controversial	-6671
▁demonstrators	-6672
▁organizations	-6673
▁Constitutional	-6674
▁Transportation	-6675
▁investigations	-6676
."	-6677
.6	-6678
.7	-6679
15	-6680
67	-6681
AA	-6682
Al	-6683
BC	-6684
BU	-6685
Ch	-6686
EN	-6687
HS	-6688
IV	-6689
Is	-6690
KS	-6691
LA	-6692
MI	-6693
MW	-6694
Or	-6695
RG	-6696
SA	-6697
SF	-6698
Sh	-6699
OG	-6700
TO	-6701
VI	-6702
da	-6703
eu	-6704
fB	-6705
kn	-6706
po	-6707
rd	-6708
rs	-6709
tr	-6710
uf	-6711
va	-6712
ww	-6713
yk	-6714
zy	-6715
▁0	-6716
700	-6717
Bad	-6718
Des	-6719
FID	-6720
For	-6721
Her	-6722
ION	-6723
ONV	-6724
Our	-6725
Spe	-6726
You	-6727
acc	-6728
aco	-6729
agl	-6730
alp	-6731
alu	-6732
apa	-6733
arf	-6734
arr	-6735
ata	-6736
aud	-6737
awa	-6738
bie	-6739
bly	-6740
bon	-6741
but	-6742
cop	-6743
die	-6744
dis	-6745
ean	-6746
eat	-6747
eig	-6748
elo	-6749
ena	-6750
enz	-6751
equ	-6752
erh	-6753
erm	-6754
err	-6755
ffs	-6756
fra	-6757
fth	-6758
gam	-6759
gar	-6760
gom	-6761
gus	-6762
han	-6763
igg	-6764
ikk	-6765
imi	-6766
imo	-6767
ims	-6768
ini	-6769
iol	-6770
iop	-6771
isa	-6772
ius	-6773
jad	-6774
jia	-6775
jok	-6776
key	-6777
mod	-6778
nic	-6779
non	-6780
odd	-6781
oen	-6782
oft	-6783
olo	-6784
oni	-6785
onz	-6786
ori	-6787
oyd	-6788
reg	-6789
rim	-6790
sec	-6791
sen	-6792
sid	-6793
tap	-6794
uct	-6795
uet	-6796
uri	-6797
val	-6798
vic	-6799
CAT	-6800
COW	-6801
HAR	-6802
vre	-6803
yal	-6804
yes	-6805
▁2,	-6806
▁29	-6807
▁3"	-6808
▁3-	-6809
▁39	-6810
▁4,	-6811
▁4-	-6812
▁42	-6813
▁45	-6814
▁46	-6815
▁58	-6816
▁6,	-6817
▁73	-6818
▁76	-6819
▁85	-6820
▁AP	-6821
▁BE	-6822
▁CD	-6823
▁Gu	-6824
▁IA	-6825
▁JO	-6826
▁Jh	-6827
▁Jo	-6828
▁Ki	-6829
▁Li	-6830
▁MI	-6831
▁MP	-6832
▁My	-6833
▁Of	-6834
▁Om	-6835
▁Os	-6836
▁RO	-6837
▁Ty	-6838
▁Up	-6839
▁du	-6840
▁id	-6841
▁ir	-6842
,600	-6843
ACKS	-6844
BURG	-6845
HANN	-6846
Iron	-6847
LASG	-6848
Sala	-6849
TOUM	-6850
What	-6851
abah	-6852
abal	-6853
acre	-6854
acts	-6855
agan	-6856
ahar	-6857
aint	-6858
aken	-6859
akul	-6860
aled	-6861
alle	-6862
anis	-6863
ansa	-6864
anyi	-6865
apel	-6866
appy	-6867
arts	-6868
auro	-6869
awaz	-6870
ayel	-6871
bing	-6872
body	-6873
bott	-6874
bury	-6875
cast	-6876
cell	-6877
cend	-6878
club	-6879
ctal	-6880
ctic	-6881
dest	-6882
dick	-6883
dine	-6884
educ	-6885
egen	-6886
enet	-6887
enge	-6888
enty	-6889
enza	-6890
esse	-6891
etsk	-6892
etts	-6893
fred	-6894
gans	-6895
hend	-6896
hist	-6897
iave	-6898
icip	-6899
Why	-6900
Baby	-6901
idal	-6902
igen	-6903
iled	-6904
imid	-6905
inaw	-6906
indi	-6907
ingo	-6908
inth	-6909
iper	-6910
irty	-6911
isan	-6912
ishu	-6913
iter	-6914
ithu	-6915
ixon	-6916
izes	-6917
lack	-6918
leag	-6919
lete	-6920
lett	-6921
like	-6922
mans	-6923
mark	-6924
mile	-6925
mosp	-6926
ockt	-6927
ogad	-6928
oing	-6929
olic	-6930
onny	-6931
opsy	-6932
orer	-6933
orta	-6934
osex	-6935
otel	-6936
otes	-6937
othy	-6938
ouni	-6939
oves	-6940
ovic	-6941
oyuz	-6942
pted	-6943
reck	-6944
rees	-6945
rete	-6946
rich	-6947
riot	-6948
road	-6949
runk	-6950
sent	-6951
shot	-6952
thew	-6953
umin	-6954
umps	-6955
vard	-6956
vene	-6957
weet	-6958
whel	-6959
will	-6960
wise	-6961
writ	-6962
zequ	-6963
▁$15	-6964
▁11,	-6965
▁131	-6966
▁16-	-6967
▁17-	-6968
▁185	-6969
▁21-	-6970
▁23,	-6971
▁24,	-6972
▁3-1	-6973
▁30,	-6974
▁37,	-6975
▁400	-6976
▁500	-6977
▁67,	-6978
▁700	-6979
▁90-	-6980
▁900	-6981
▁ATF	-6982
▁Abu	-6983
▁Aid	-6984
▁Ana	-6985
▁Bou	-6986
▁Cab	-6987
▁Cos	-6988
▁Cou	-6989
▁Dis	-6990
▁Doz	-6991
▁Dyk	-6992
▁Eve	-6993
▁Fig	-6994
▁Fin	-6995
▁Gal	-6996
▁Gem	-6997
▁Gov	-6998
▁Had	-6999
aele	-7000
elme	-7001
enko	-7002
ttes	-7003
ycle	-7004
▁2-2	-7005
▁Hen	-7006
▁Hon	-7007
▁Hou	-7008
▁Hut	-7009
▁Jav	-7010
▁Jer	-7011
▁Joe	-7012
▁Jon	-7013
▁Kal	-7014
▁Lap	-7015
▁Leg	-7016
▁Lie	-7017
▁Loc	-7018
▁Lut	-7019
▁MIA	-7020
▁MME	-7021
▁MOS	-7022
▁Mal	-7023
▁Mat	-7024
▁Max	-7025
▁McM	-7026
▁Mom	-7027
▁Nat	-7028
▁Not	-7029
▁Ono	-7030
▁Ott	-7031
▁Pah	-7032
▁Peg	-7033
▁Pel	-7034
▁Pre	-7035
▁Pri	-7036
▁Rah	-7037
▁Ram	-7038
▁Raw	-7039
▁Rec	-7040
▁Ret	-7041
▁Ric	-7042
▁Ros	-7043
▁Rot	-7044
▁Rub	-7045
▁Sal	-7046
▁Sim	-7047
▁Sin	-7048
▁Sur	-7049
▁Tit	-7050
▁Tou	-7051
▁Toy	-7052
▁Utd	-7053
▁VfB	-7054
▁Vit	-7055
▁Vol	-7056
▁Wer	-7057
▁Why	-7058
▁ads	-7059
▁amb	-7060
▁anc	-7061
▁ash	-7062
▁caf	-7063
▁cig	-7064
▁dub	-7065
▁egg	-7066
▁flu	-7067
▁fro	-7068
▁fug	-7069
▁gay	-7070
▁hid	-7071
▁hun	-7072
▁len	-7073
▁map	-7074
▁mix	-7075
▁mud	-7076
▁nit	-7077
▁sad	-7078
▁tim	-7079
▁unh	-7080
▁van	-7081
▁vig	-7082
▁wal	-7083
▁wol	-7084
Babel	-7085
Badri	-7086
Grand	-7087
achus	-7088
actor	-7089
adino	-7090
aghad	-7091
aging	-7092
aiden	-7093
ailor	-7094
alapa	-7095
alifa	-7096
alion	-7097
allas	-7098
allow	-7099
Cola	-7100
ILLE	-7101
Jeop	-7102
ezza	-7103
▁lux	-7104
Lahem	-7105
ademy	-7106
aijan	-7107
aming	-7108
anesi	-7109
anker	-7110
anted	-7111
antly	-7112
arcia	-7113
arged	-7114
arity	-7115
arthy	-7116
atern	-7117
aters	-7118
birth	-7119
bitat	-7120
break	-7121
class	-7122
cover	-7123
dsley	-7124
eding	-7125
emaah	-7126
ennis	-7127
ensed	-7128
essed	-7129
ethod	-7130
ettle	-7131
flies	-7132
gence	-7133
ially	-7134
ields	-7135
ieved	-7136
igned	-7137
imera	-7138
inals	-7139
inced	-7140
inger	-7141
inian	-7142
ishik	-7143
itect	-7144
jeune	-7145
lando	-7146
leted	-7147
leton	-7148
lifer	-7149
limin	-7150
losed	-7151
luded	-7152
night	-7153
ommod	-7154
onely	-7155
onial	-7156
onies	-7157
orker	-7158
ousin	-7159
outed	-7160
phant	-7161
plant	-7162
poned	-7163
ption	-7164
ptoms	-7165
rands	-7166
rated	-7167
rates	-7168
rease	-7169
rewer	-7170
rings	-7171
risis	-7172
ropol	-7173
rotta	-7174
shaya	-7175
stick	-7176
stone	-7177
three	-7178
ticle	-7179
uable	-7180
uched	-7181
ucose	-7182
ugged	-7183
urger	-7184
usual	-7185
verty	-7186
years	-7187
▁$130	-7188
▁$200	-7189
▁1960	-7190
▁1965	-7191
▁1972	-7192
▁1993	-7193
▁1995	-7194
▁2010	-7195
▁300-	-7196
▁Adam	-7197
▁Area	-7198
▁Asia	-7199
▁BMW	-7200
▁CBS	-7201
▁HIV	-7202
oenix	-7203
ufact	-7204
▁Band	-7205
▁Buck	-7206
▁Buff	-7207
▁Case	-7208
▁Cass	-7209
▁Cath	-7210
▁Club	-7211
▁Coca	-7212
▁Cond	-7213
▁Crew	-7214
▁Crit	-7215
▁Cuba	-7216
▁Dana	-7217
▁Dawn	-7218
▁Deco	-7219
▁Disc	-7220
▁Djok	-7221
▁Dogs	-7222
▁Down	-7223
▁Drew	-7224
▁Drug	-7225
▁Ever	-7226
▁FARC	-7227
▁Fair	-7228
▁Fall	-7229
▁Fern	-7230
▁Free	-7231
▁Gang	-7232
▁Gary	-7233
▁Glob	-7234
▁Gonz	-7235
▁Hawk	-7236
▁Hear	-7237
▁Iron	-7238
▁Jane	-7239
▁Jean	-7240
▁KHAR	-7241
▁Land	-7242
▁Liga	-7243
▁Lyon	-7244
▁Mahm	-7245
▁Matt	-7246
▁Mike	-7247
▁Moss	-7248
▁Mwai	-7249
▁Nash	-7250
▁Okin	-7251
▁Once	-7252
▁Only	-7253
▁Orme	-7254
▁Pall	-7255
▁Part	-7256
▁Pass	-7257
▁Plan	-7258
▁Prem	-7259
▁Pres	-7260
▁Prop	-7261
▁RFID	-7262
▁ROME	-7263
▁Raff	-7264
▁Regg	-7265
▁Riqu	-7266
▁Rudd	-7267
▁Salt	-7268
▁Saud	-7269
▁Says	-7270
▁Shop	-7271
▁Song	-7272
▁Test	-7273
▁Todd	-7274
▁Vera	-7275
▁Verm	-7276
▁Vice	-7277
▁Viol	-7278
▁Wars	-7279
▁Week	-7280
▁Work	-7281
▁acce	-7282
▁aged	-7283
▁aide	-7284
▁bath	-7285
▁blow	-7286
▁bold	-7287
▁born	-7288
▁bott	-7289
▁bron	-7290
▁brun	-7291
▁bull	-7292
▁chee	-7293
▁clan	-7294
▁clot	-7295
▁code	-7296
▁cout	-7297
▁dess	-7298
▁diab	-7299
▁ease	-7300
▁edge	-7301
▁enab	-7302
▁fate	-7303
▁feud	-7304
▁fier	-7305
▁flow	-7306
▁hair	-7307
▁hasn	-7308
▁heav	-7309
▁hint	-7310
▁hole	-7311
▁holy	-7312
▁jets	-7313
▁jung	-7314
▁kits	-7315
▁lock	-7316
▁magn	-7317
▁mind	-7318
▁phen	-7319
▁prix	-7320
▁puts	-7321
▁rate	-7322
▁riot	-7323
▁sand	-7324
▁save	-7325
▁shif	-7326
▁sink	-7327
▁slow	-7328
▁snow	-7329
▁soft	-7330
▁soph	-7331
▁stab	-7332
▁stip	-7333
▁summ	-7334
▁tall	-7335
▁toug	-7336
▁twin	-7337
▁vast	-7338
▁wake	-7339
▁zook	-7340
ESBURG	-7341
LASGOW	-7342
Report	-7343
Salaam	-7344
ailand	-7345
akness	-7346
antage	-7347
antasy	-7348
atever	-7349
avezzi	-7350
berman	-7351
border	-7352
called	-7353
christ	-7354
ealand	-7355
eigler	-7356
elling	-7357
ensual	-7358
estyle	-7359
gamist	-7360
gomery	-7361
hended	-7362
herent	-7363
icated	-7364
icipal	-7365
ickets	-7366
icting	-7367
ifying	-7368
inated	-7369
inejad	-7370
insula	-7371
iopian	-7372
isions	-7373
isting	-7374
lished	-7375
mainst	-7376
making	-7377
medies	-7378
member	-7379
mother	-7380
nowled	-7381
ollins	-7382
omenon	-7383
ompass	-7384
onnect	-7385
orious	-7386
ormous	-7387
ortion	-7388
ounced	-7389
ounded	-7390
ounted	-7391
pector	-7392
perity	-7393
racked	-7394
rified	-7395
runner	-7396
skirts	-7397
stable	-7398
stance	-7399
tering	-7400
umbent	-7401
verage	-7402
weight	-7403
worker	-7404
zeguet	-7405
▁3,500	-7406
▁5,000	-7407
▁Ahmad	-7408
▁Alleg	-7409
▁Allen	-7410
▁Andre	-7411
▁Azerb	-7412
▁Barca	-7413
▁Batna	-7414
▁Bened	-7415
▁Binya	-7416
▁Blake	-7417
▁Brook	-7418
▁Camor	-7419
▁Catal	-7420
▁Chall	-7421
▁Champ	-7422
▁Chris	-7423
▁Clark	-7424
▁Corre	-7425
▁Crown	-7426
▁Daily	-7427
▁Eddie	-7428
▁Ezequ	-7429
▁Fabio	-7430
▁Front	-7431
▁Glass	-7432
▁Heigl	-7433
▁Hines	-7434
▁Hotel	-7435
▁Iztap	-7436
▁JACKS	-7437
▁Jamie	-7438
▁Jolie	-7439
▁Julio	-7440
▁Kanda	-7441
▁Katie	-7442
▁Kelly	-7443
▁Kouch	-7444
▁Krist	-7445
▁Labor	-7446
▁Lance	-7447
▁Lions	-7448
▁Lithu	-7449
▁Lubna	-7450
▁Lufth	-7451
▁MIAMI	-7452
▁Mafia	-7453
▁Marin	-7454
▁Mauro	-7455
▁Mejia	-7456
▁Mills	-7457
▁Mogad	-7458
▁Moroc	-7459
▁Naval	-7460
▁Nawaz	-7461
▁Nixon	-7462
▁Onion	-7463
▁Other	-7464
▁Peace	-7465
▁Pharr	-7466
▁Piave	-7467
▁Pitts	-7468
▁Pless	-7469
▁Power	-7470
▁Rafik	-7471
▁Raikk	-7472
▁Ringo	-7473
▁Royal	-7474
▁Royce	-7475
▁Seven	-7476
▁Since	-7477
▁Singh	-7478
▁Soyuz	-7479
▁Steyn	-7480
▁Sunni	-7481
▁Swiss	-7482
▁Times	-7483
▁Topps	-7484
▁Trade	-7485
▁Vakul	-7486
▁Venet	-7487
▁Vince	-7488
▁Watch	-7489
▁Women	-7490
▁Yazid	-7491
▁absol	-7492
▁accus	-7493
▁acted	-7494
▁aired	-7495
▁apart	-7496
▁appre	-7497
▁artif	-7498
▁backs	-7499
▁balls	-7500
▁blade	-7501
▁blame	-7502
▁bones	-7503
▁bound	-7504
▁brown	-7505
▁buyer	-7506
▁cards	-7507
▁caste	-7508
▁catch	-7509
▁chees	-7510
▁conce	-7511
▁deals	-7512
▁derby	-7513
▁diagn	-7514
▁digit	-7515
▁dimin	-7516
▁dirty	-7517
▁disgu	-7518
▁diver	-7519
▁divor	-7520
▁dread	-7521
▁emiss	-7522
▁envoy	-7523
▁equal	-7524
▁evalu	-7525
▁facts	-7526
▁films	-7527
▁flush	-7528
▁frank	-7529
▁freed	-7530
▁gates	-7531
▁gives	-7532
▁globe	-7533
▁grape	-7534
▁grave	-7535
▁grown	-7536
▁holds	-7537
▁hoped	-7538
▁hosts	-7539
▁knows	-7540
▁label	-7541
▁labor	-7542
▁lobby	-7543
▁marks	-7544
▁medic	-7545
▁model	-7546
▁moder	-7547
▁monit	-7548
▁monks	-7549
▁moves	-7550
▁ninth	-7551
▁noise	-7552
▁novel	-7553
▁occas	-7554
▁overs	-7555
▁piece	-7556
▁pitch	-7557
▁polar	-7558
▁poppy	-7559
▁poses	-7560
▁potty	-7561
▁quake	-7562
▁queen	-7563
▁quiet	-7564
▁radar	-7565
▁radio	-7566
▁rains	-7567
▁reefs	-7568
▁regul	-7569
▁rises	-7570
▁river	-7571
▁royal	-7572
▁rugby	-7573
▁rules	-7574
▁rural	-7575
▁seeks	-7576
▁shake	-7577
▁shape	-7578
▁sharp	-7579
▁sheet	-7580
▁sleep	-7581
▁slums	-7582
▁sorry	-7583
▁space	-7584
▁stage	-7585
▁stiff	-7586
▁stops	-7587
▁subse	-7588
▁towns	-7589
▁toxic	-7590
▁trail	-7591
▁tribe	-7592
▁trigg	-7593
▁troop	-7594
▁truth	-7595
▁types	-7596
▁unite	-7597
▁units	-7598
▁unres	-7599
▁upgra	-7600
▁veget	-7601
▁vocal	-7602
▁waste	-7603
▁wreck	-7604
▁wrest	-7605
ONVILLE	-7606
Western	-7607
abilize	-7608
abulary	-7609
alpindi	-7610
amental	-7611
angered	-7612
arettes	-7613
artisan	-7614
earthed	-7615
entally	-7616
erhouni	-7617
estment	-7618
ference	-7619
igenous	-7620
incipal	-7621
initely	-7622
iration	-7623
itation	-7624
ization	-7625
killing	-7626
markets	-7627
nership	-7628
oleezza	-7629
pondent	-7630
ramatic	-7631
reaming	-7632
rential	-7633
trailer	-7634
undreds	-7635
utation	-7636
vention	-7637
▁12,000	-7638
▁30,000	-7639
▁38,000	-7640
▁50,000	-7641
▁67,100	-7642
▁Acting	-7643
▁Alfred	-7644
▁Altern	-7645
▁Anders	-7646
▁Arrest	-7647
▁Athens	-7648
▁Awards	-7649
▁Battle	-7650
▁Bayern	-7651
▁Bombay	-7652
▁Boulos	-7653
▁Bureau	-7654
▁Candid	-7655
▁Carter	-7656
▁Casino	-7657
▁Chabal	-7658
▁Chiefs	-7659
▁Crisis	-7660
▁Dallas	-7661
▁Damien	-7662
▁Delray	-7663
▁Denver	-7664
▁Dozens	-7665
▁Dynamo	-7666
▁Explos	-7667
▁Famous	-7668
▁Felipe	-7669
▁Garcia	-7670
▁Golden	-7671
▁Hawaii	-7672
▁Howard	-7673
▁JOHANN	-7674
▁Jemaah	-7675
▁Latino	-7676
▁Lawyer	-7677
▁Louvre	-7678
▁Luther	-7679
▁MOSCOW	-7680
▁Martin	-7681
▁Monita	-7682
▁Naples	-7683
▁Nation	-7684
▁Nishik	-7685
▁Noured	-7686
▁Panama	-7687
▁Perino	-7688
▁Player	-7689
▁Polish	-7690
▁Public	-7691
▁Raghad	-7692
▁Reagan	-7693
▁Resort	-7694
▁Rights	-7695
▁Rivera	-7696
▁Sailor	-7697
▁Santos	-7698
▁Schult	-7699
▁Sharif	-7700
▁Sharon	-7701
▁Shinaw	-7702
▁Social	-7703
▁Soviet	-7704
▁Square	-7705
▁Steven	-7706
▁Tupelo	-7707
▁Villar	-7708
▁Walter	-7709
▁Weiner	-7710
▁Werder	-7711
▁admits	-7712
▁advert	-7713
▁aiming	-7714
▁allege	-7715
▁animal	-7716
▁assess	-7717
▁assets	-7718
▁atmosp	-7719
▁autism	-7720
▁begins	-7721
▁belong	-7722
▁bitter	-7723
▁blames	-7724
▁budget	-7725
▁burned	-7726
▁buying	-7727
▁cancel	-7728
▁casino	-7729
▁chance	-7730
▁cleric	-7731
▁client	-7732
▁combat	-7733
▁cooper	-7734
▁corner	-7735
▁cousin	-7736
▁dealer	-7737
▁decade	-7738
▁deeply	-7739
▁detain	-7740
▁dispat	-7741
▁dissol	-7742
▁diving	-7743
▁donors	-7744
▁drugst	-7745
▁dubbed	-7746
▁dumped	-7747
▁empire	-7748
▁enjoys	-7749
▁ethnic	-7750
▁factor	-7751
▁fairly	-7752
▁festiv	-7753
▁fields	-7754
▁firing	-7755
▁fundra	-7756
▁gained	-7757
▁gather	-7758
▁gender	-7759
▁gloves	-7760
▁guided	-7761
▁gunman	-7762
▁happen	-7763
▁hiring	-7764
▁housed	-7765
▁indeed	-7766
▁island	-7767
▁kidney	-7768
▁ladies	-7769
▁lashes	-7770
▁listed	-7771
▁loaded	-7772
▁luxury	-7773
▁meters	-7774
▁method	-7775
▁moment	-7776
▁motorb	-7777
▁mowing	-7778
▁newcom	-7779
▁obtain	-7780
▁offers	-7781
▁organs	-7782
▁ouster	-7783
▁overth	-7784
▁packed	-7785
▁partly	-7786
▁pastor	-7787
▁paying	-7788
▁period	-7789
▁perpet	-7790
▁placed	-7791
▁polyps	-7792
▁posing	-7793
▁powers	-7794
▁prayer	-7795
▁prices	-7796
▁pursue	-7797
▁quoted	-7798
▁racial	-7799
▁raises	-7800
▁replac	-7801
▁safely	-7802
▁satisf	-7803
▁screen	-7804
▁seemed	-7805
▁seized	-7806
▁shared	-7807
▁shrine	-7808
▁skills	-7809
▁sniper	-7810
▁sounds	-7811
▁spoken	-7812
▁spring	-7813
▁stated	-7814
▁stayed	-7815
▁stores	-7816
▁strain	-7817
▁sudden	-7818
▁suites	-7819
▁summit	-7820
▁survey	-7821
▁tanker	-7822
▁teleph	-7823
▁thanks	-7824
▁thrown	-7825
▁ticket	-7826
▁toilet	-7827
▁tracks	-7828
▁tracts	-7829
▁tribal	-7830
▁unborn	-7831
▁unique	-7832
▁videos	-7833
▁viewed	-7834
▁walked	-7835
▁wicket	-7836
▁widely	-7837
▁winger	-7838
▁wolves	-7839
▁wooded	-7840
▁worker	-7841
▁writes	-7842
Jeopardy	-7843
atriates	-7844
breaking	-7845
liminary	-7846
ological	-7847
ologists	-7848
orically	-7849
positive	-7850
tainment	-7851
▁Academy	-7852
▁Alshaya	-7853
▁Amnesty	-7854
▁Because	-7855
▁Bolivia	-7856
▁Britney	-7857
▁Chadian	-7858
▁Chilean	-7859
▁Control	-7860
▁Couples	-7861
▁Critics	-7862
▁Donetsk	-7863
▁Downing	-7864
▁Eastern	-7865
▁Everson	-7866
▁Falluja	-7867
▁Fortune	-7868
▁Fromong	-7869
▁GLASGOW	-7870
▁Gemayel	-7871
▁Harvard	-7872
▁Honoria	-7873
▁Houston	-7874
▁Indones	-7875
▁Islands	-7876
▁Jamaica	-7877
▁Keeling	-7878
▁Khalifa	-7879
▁Kingdom	-7880
▁Kuranyi	-7881
▁Laporta	-7882
▁Lavezzi	-7883
▁Lejeune	-7884
▁Lindsay	-7885
▁Mahmoud	-7886
▁Massimo	-7887
▁Matthew	-7888
▁Measure	-7889
▁Mexican	-7890
▁Mission	-7891
▁Mohamed	-7892
▁Muslims	-7893
▁Nicolas	-7894
▁Nigeria	-7895
▁Officer	-7896
▁Orlando	-7897
▁Pahrump	-7898
▁Phoenix	-7899
▁Premier	-7900
▁Primera	-7901
▁Proenza	-7902
▁Reserve	-7903
▁Ricardo	-7904
▁Roddick	-7905
▁Samarra	-7906
▁Samsung	-7907
▁Schumer	-7908
▁Science	-7909
▁Sheikha	-7910
▁Shepher	-7911
▁Shiites	-7912
▁Smoking	-7913
▁Sources	-7914
▁Special	-7915
▁Spitzer	-7916
▁Starace	-7917
▁Therese	-7918
▁Timothy	-7919
▁Vermont	-7920
▁affairs	-7921
▁armored	-7922
▁autonom	-7923
▁autopsy	-7924
▁	-7925
e	-7926
a	-7927
t	-7928
i	-7929
n	-7930
o	-7931
r	-7932
s	-7933
h	-7934
d	-7935
l	-7936
c	-7937
u	-7938
m	-7939
f	-7940
g	-7941
p	-7942
y	-7943
w	-7944
b	-7945
,	-7946
v	-7947
.	-7948
k	-7949
-	-7950
S	-7951
C	-7952
A	-7953
"	-7954
N	-7955
0	-7956
T	-7957
'	-7958
M	-7959
I	-7960
B	-7961
P	-7962
D	-7963
1	-7964
W	-7965
L	-7966
R	-7967
F	-7968
x	-7969
E	-7970
2	-7971
H	-7972
O	-7973
j	-7974
G	-7975
z	-7976
q	-7977
U	-7978
J	-7979
:	-7980
5	-7981
3	-7982
K	-7983
(	-7984
)	-7985
V	-7986
4	-7987
9	-7988
8	-7989
7	-7990
6	-7991
Y	-7992
;	-7993
$	-7994
Q	-7995
