<pad>	0
<unk>	0
<s>	0
</s>	0
▁t	-0
▁a	-1
in	-2
he	-3
er	-4
on	-5
▁s	-6
re	-7
▁the	-8
▁w	-9
en	-10
or	-11
an	-12
at	-13
ed	-14
▁c	-15
▁o	-16
es	-17
▁f	-18
it	-19
ing	-20
ar	-21
is	-22
al	-23
▁in	-24
▁p	-25
▁b	-26
▁to	-27
▁of	-28
nd	-29
ou	-30
ic	-31
▁h	-32
▁m	-33
as	-34
▁d	-35
▁and	-36
il	-37
ion	-38
om	-39
le	-40
id	-41
ent	-42
ay	-43
▁th	-44
▁.	-45
▁re	-46
▁S	-47
▁A	-48
▁C	-49
ro	-50
▁T	-51
el	-52
▁l	-53
▁n	-54
st	-55
ol	-56
ac	-57
am	-58
▁g	-59
▁M	-60
ur	-61
ad	-62
ter	-63
▁"	-64
▁e	-65
ut	-66
▁for	-67
▁on	-68
▁be	-69
ve	-70
ig	-71
ot	-72
im	-73
▁he	-74
ir	-75
▁st	-76
ec	-77
ation	-78
us	-79
ver	-80
▁I	-81
▁B	-82
et	-83
▁P	-84
ly	-85
▁that	-86
ow	-87
ill	-88
▁wh	-89
ith	-90
▁is	-91
▁with	-92
ce	-93
▁sa	-94
▁at	-95
ra	-96
▁F	-97
ers	-98
▁H	-99
▁W	-100
▁N	-101
un	-102
ri	-103
▁an	-104
ts	-105
os	-106
▁-	-107
em	-108
▁--	-109
ld	-110
▁as	-111
▁said	-112
▁D	-113
th	-114
and	-115
▁was	-116
▁The	-117
▁R	-118
ear	-119
ul	-120
▁con	-121
▁L	-122
ch	-123
op	-124
est	-125
ak	-126
res	-127
rom	-128
her	-129
▁1	-130
ist	-131
▁G	-132
00	-133
▁al	-134
ag	-135
igh	-136
▁J	-137
▁y	-138
ore	-139
▁pro	-140
▁it	-141
ct	-142
▁from	-143
ate	-144
▁2	-145
ew	-146
ment	-147
if	-148
ain	-149
▁his	-150
▁v	-151
▁r	-152
▁de	-153
pp	-154
ort	-155
▁com	-156
▁ch	-157
▁O	-158
ity	-159
▁E	-160
▁ha	-161
▁by	-162
▁say	-163
▁le	-164
our	-165
ies	-166
▁(	-167
ast	-168
day	-169
ial	-170
ia	-171
od	-172
▁are	-173
▁sh	-174
ack	-175
art	-176
ud	-177
end	-178
oun	-179
ice	-180
um	-181
NN	-182
▁has	-183
▁k	-184
ess	-185
▁U	-186
all	-187
oc	-188
▁ex	-189
▁off	-190
ian	-191
▁sp	-192
iv	-193
▁af	-194
ab	-195
▁K	-196
ee	-197
▁pl	-198
▁who	-199
▁have	-200
,"	-201
up	-202
gh	-203
ord	-204
ard	-205
ive	-206
out	-207
qu	-208
▁su	-209
se	-210
rou	-211
▁go	-212
ok	-213
ight	-214
ap	-215
cc	-216
▁ab	-217
ry	-218
ect	-219
▁after	-220
▁j	-221
ident	-222
ust	-223
ant	-224
mer	-225
▁whe	-226
▁se	-227
ge	-228
ould	-229
ich	-230
ome	-231
▁says	-232
are	-233
ber	-234
▁not	-235
ost	-236
▁ag	-237
▁wor	-238
ere	-239
ff	-240
▁will	-241
ong	-242
ary	-243
CNN	-244
ell	-245
ide	-246
und	-247
▁or	-248
▁their	-249
▁were	-250
ub	-251
▁St	-252
▁cl	-253
ans	-254
ine	-255
ie	-256
ure	-257
ep	-258
▁her	-259
ions	-260
▁rep	-261
ire	-262
▁pe	-263
▁Ch	-264
▁year	-265
▁but	-266
▁In	-267
▁res	-268
▁out	-269
ous	-270
▁ad	-271
▁acc	-272
old	-273
ip	-274
▁inc	-275
▁pol	-276
ount	-277
iz	-278
▁had	-279
ople	-280
ther	-281
wo	-282
ated	-283
ace	-284
▁been	-285
▁un	-286
ime	-287
▁int	-288
ru	-289
▁people	-290
man	-291
ict	-292
▁they	-293
▁comp	-294
▁att	-295
ass	-296
▁rec	-297
▁this	-298
▁about	-299
ey	-300
ue	-301
▁cont	-302
▁which	-303
ations	-304
av	-305
▁ar	-306
ence	-307
▁V	-308
▁over	-309
ound	-310
▁new	-311
▁200	-312
▁dis	-313
ical	-314
lo	-315
ign	-316
▁offic	-317
ite	-318
ik	-319
age	-320
ond	-321
ish	-322
▁up	-323
ors	-324
▁we	-325
resident	-326
▁exp	-327
use	-328
ake	-329
ib	-330
ational	-331
▁man	-332
ates	-333
▁two	-334
ren	-335
▁Un	-336
▁she	-337
amp	-338
ree	-339
ild	-340
orn	-341
ran	-342
ress	-343
▁more	-344
own	-345
▁one	-346
▁ne	-347
▁Th	-348
▁do	-349
ican	-350
▁all	-351
aw	-352
eek	-353
enc	-354
vern	-355
ame	-356
▁when	-357
▁sec	-358
ose	-359
ile	-360
▁cr	-361
▁im	-362
ind	-363
tern	-364
og	-365
▁3	-366
hed	-367
▁sc	-368
ited	-369
▁Y	-370
▁fir	-371
▁can	-372
ark	-373
act	-374
ase	-375
▁its	-376
esday	-377
ters	-378
ail	-379
ick	-380
▁into	-381
▁than	-382
▁govern	-383
uc	-384
ens	-385
▁Af	-386
ach	-387
iss	-388
▁te	-389
▁19	-390
▁other	-391
ov	-392
▁ev	-393
▁you	-394
▁me	-395
▁official	-396
▁per	-397
▁app	-398
urn	-399
▁New	-400
▁mon	-401
arg	-402
▁first	-403
▁ro	-404
ath	-405
ities	-406
so	-407
one	-408
ama	-409
lud	-410
orm	-411
ition	-412
▁inv	-413
▁count	-414
▁would	-415
▁work	-416
▁part	-417
land	-418
▁Al	-419
▁co	-420
ording	-421
wn	-422
▁last	-423
▁week	-424
▁op	-425
▁mil	-426
▁bec	-427
ied	-428
erv	-429
▁pre	-430
ally	-431
ash	-432
▁government	-433
▁lead	-434
ater	-435
▁An	-436
ult	-437
▁qu	-438
ubl	-439
▁bo	-440
ton	-441
ory	-442
ely	-443
rid	-444
▁tr	-445
▁us	-446
▁en	-447
▁includ	-448
▁He	-449
▁kill	-450
ement	-451
▁Amer	-452
istan	-453
▁years	-454
ings	-455
▁comm	-456
ade	-457
▁act	-458
vel	-459
oll	-460
ince	-461
▁police	-462
year	-463
▁CNN	-464
▁also	-465
▁tra	-466
▁day	-467
itt	-468
▁report	-469
▁pr	-470
▁again	-471
▁grou	-472
reat	-473
oin	-474
ang	-475
000	-476
,000	-477
▁min	-478
▁play	-479
vers	-480
ons	-481
▁United	-482
ob	-483
▁4	-484
ork	-485
lect	-486
▁hel	-487
pt	-488
very	-489
ike	-490
▁dec	-491
▁according	-492
▁call	-493
ier	-494
ough	-495
able	-496
▁told	-497
uth	-498
▁Ob	-499
ex	-500
ents	-501
▁so	-502
als	-503
we	-504
ah	-505
anc	-506
amil	-507
uring	-508
▁some	-509
▁ear	-510
▁him	-511
▁kn	-512
ause	-513
▁fin	-514
▁time	-515
fore	-516
▁Obama	-517
son	-518
ft	-519
▁Is	-520
▁$	-521
under	-522
▁them	-523
ife	-524
▁world	-525
rough	-526
ood	-527
rit	-528
illion	-529
▁imp	-530
led	-531
red	-532
▁Mon	-533
urs	-534
ss	-535
▁could	-536
▁Ar	-537
▁against	-538
ious	-539
uthor	-540
ance	-541
▁three	-542
▁before	-543
▁bl	-544
ased	-545
▁show	-546
▁help	-547
▁am	-548
▁ra	-549
▁car	-550
▁rem	-551
ating	-552
▁where	-553
rop	-554
eral	-555
ove	-556
▁just	-557
▁group	-558
▁home	-559
ink	-560
▁milit	-561
gan	-562
▁win	-563
ublic	-564
ina	-565
▁def	-566
▁child	-567
▁Sp	-568
ug	-569
▁fl	-570
▁under	-571
▁country	-572
▁war	-573
ool	-574
outh	-575
EW	-576
▁President	-577
ook	-578
▁attack	-579
les	-580
▁NEW	-581
▁law	-582
▁found	-583
▁bet	-584
ered	-585
other	-586
▁what	-587
▁Le	-588
oh	-589
▁5	-590
▁20	-591
▁des	-592
▁president	-593
▁stat	-594
way	-595
ock	-596
▁mem	-597
▁6	-598
▁famil	-599
▁It	-600
▁rel	-601
▁reg	-602
fer	-603
▁plan	-604
▁En	-605
ck	-606
leg	-607
▁state	-608
▁month	-609
ency	-610
lin	-611
oot	-612
▁supp	-613
The	-614
▁ind	-615
▁tri	-616
▁wom	-617
aking	-618
▁sur	-619
oss	-620
▁med	-621
▁cons	-622
▁add	-623
▁Mar	-624
au	-625
▁air	-626
▁like	-627
med	-628
▁there	-629
ank	-630
ourt	-631
ning	-632
ouse	-633
ternational	-634
ets	-635
alk	-636
ica	-637
ital	-638
orts	-639
▁Wh	-640
ected	-641
▁during	-642
▁because	-643
▁spok	-644
▁back	-645
▁being	-646
ert	-647
ix	-648
form	-649
▁officials	-650
▁Tu	-651
▁near	-652
▁no	-653
ved	-654
alth	-655
▁cap	-656
eb	-657
▁invest	-658
▁vi	-659
▁Tuesday	-660
▁four	-661
▁ph	-662
▁through	-663
▁ass	-664
▁fe	-665
▁down	-666
▁most	-667
▁ret	-668
rug	-669
▁team	-670
▁end	-671
atur	-672
▁second	-673
con	-674
▁ins	-675
▁Monday	-676
▁including	-677
az	-678
ces	-679
rest	-680
ather	-681
▁Frid	-682
ting	-683
urity	-684
▁Friday	-685
ph	-686
▁any	-687
▁death	-688
edn	-689
ced	-690
ven	-691
▁since	-692
ednesday	-693
uss	-694
▁Wednesday	-695
▁statement	-696
io	-697
orth	-698
▁killed	-699
ursday	-700
row	-701
▁Thursday	-702
ble	-703
▁while	-704
▁Ind	-705
any	-706
te	-707
min	-708
▁prov	-709
▁stud	-710
air	-711
▁Z	-712
ful	-713
used	-714
atch	-715
▁get	-716
ward	-717
ists	-718
▁inter	-719
hes	-720
▁em	-721
▁ter	-722
alif	-723
ister	-724
▁Sh	-725
▁author	-726
ned	-727
▁ac	-728
▁news	-729
▁million	-730
▁Sund	-731
▁rele	-732
round	-733
▁set	-734
▁if	-735
gr	-736
ights	-737
▁At	-738
▁Sunday	-739
▁prot	-740
ecut	-741
ives	-742
▁serv	-743
istr	-744
▁our	-745
▁States	-746
chool	-747
▁spokes	-748
cent	-749
▁bu	-750
▁bel	-751
▁high	-752
bers	-753
ual	-754
▁made	-755
ll	-756
▁military	-757
du	-758
▁did	-759
ty	-760
ower	-761
erson	-762
orld	-763
▁vict	-764
▁ann	-765
▁Eng	-766
usp	-767
irect	-768
ween	-769
ms	-770
▁conf	-771
▁charg	-772
▁American	-773
ne	-774
ave	-775
▁head	-776
▁Re	-777
hip	-778
▁investig	-779
▁family	-780
▁eff	-781
raq	-782
▁gu	-783
enter	-784
▁South	-785
ason	-786
▁Afr	-787
▁between	-788
▁10	-789
▁iss	-790
▁Iraq	-791
ner	-792
▁7	-793
ands	-794
ision	-795
▁reported	-796
riv	-797
aj	-798
▁make	-799
▁York	-800
▁resp	-801
▁now	-802
▁only	-803
der	-804
ments	-805
ted	-806
▁may	-807
▁World	-808
ics	-809
▁Pol	-810
ross	-811
ared	-812
cer	-813
ron	-814
ized	-815
▁long	-816
▁arrest	-817
aturday	-818
ise	-819
▁sl	-820
▁former	-821
▁public	-822
▁elect	-823
▁many	-824
▁way	-825
oth	-826
▁care	-827
oy	-828
▁Saturday	-829
ollow	-830
rib	-831
▁susp	-832
att	-833
▁sm	-834
▁need	-835
ody	-836
▁children	-837
▁how	-838
ef	-839
▁Car	-840
ger	-841
▁miss	-842
ants	-843
aim	-844
▁Pak	-845
ute	-846
▁Afgh	-847
ech	-848
ness	-849
▁dep	-850
▁Bar	-851
▁pass	-852
▁leg	-853
ret	-854
▁own	-855
hen	-856
ility	-857
ense	-858
iel	-859
its	-860
ale	-861
imes	-862
▁Brit	-863
▁Pakistan	-864
▁my	-865
▁recent	-866
▁sign	-867
rat	-868
omm	-869
▁cre	-870
ai	-871
▁fire	-872
▁Afghan	-873
ean	-874
▁fil	-875
artment	-876
ivers	-877
ible	-878
▁direct	-879
▁viol	-880
▁start	-881
ues	-882
olog	-883
ures	-884
▁Min	-885
lear	-886
▁num	-887
pl	-888
▁such	-889
▁inj	-890
co	-891
ember	-892
▁run	-893
▁She	-894
▁As	-895
▁br	-896
ling	-897
▁polit	-898
els	-899
omb	-900
▁But	-901
ines	-902
▁camp	-903
▁those	-904
aliforn	-905
▁loc	-906
uman	-907
▁follow	-908
▁take	-909
▁open	-910
▁sent	-911
eep	-912
▁health	-913
order	-914
▁look	-915
alifornia	-916
ral	-917
conom	-918
ury	-919
ush	-920
▁percent	-921
▁sy	-922
▁bro	-923
port	-924
▁fac	-925
▁California	-926
▁Mex	-927
▁security	-928
▁school	-929
▁court	-930
ured	-931
▁Rep	-932
▁And	-933
▁Fran	-934
▁life	-935
▁city	-936
ative	-937
▁ser	-938
ief	-939
ull	-940
ague	-941
▁trans	-942
▁contin	-943
▁bus	-944
▁aff	-945
▁want	-946
rem	-947
elf	-948
lor	-949
▁alleg	-950
duc	-951
aren	-952
▁claim	-953
▁Iran	-954
ians	-955
riend	-956
▁opp	-957
▁your	-958
▁authorities	-959
▁person	-960
iam	-961
ular	-962
ution	-963
ederal	-964
ison	-965
▁Joh	-966
▁sub	-967
vi	-968
▁days	-969
ames	-970
▁econom	-971
▁well	-972
app	-973
▁For	-974
▁poin	-975
▁dem	-976
▁gen	-977
ars	-978
uch	-979
▁mov	-980
▁should	-981
osp	-982
▁men	-983
▁night	-984
▁ext	-985
▁oper	-986
▁vis	-987
ged	-988
▁left	-989
▁called	-990
▁top	-991
▁drug	-992
▁even	-993
▁members	-994
ued	-995
ins	-996
ices	-997
vent	-998
▁gr	-999
augh	-1000
xt	-1001
ving	-1002
▁8	-1003
▁Eu	-1004
▁col	-1005
af	-1006
ror	-1007
gy	-1008
ange	-1009
rol	-1010
▁five	-1011
▁belie	-1012
▁then	-1013
▁remain	-1014
earch	-1015
▁announ	-1016
▁commun	-1017
▁spokesman	-1018
ops	-1019
duct	-1020
ony	-1021
▁John	-1022
▁know	-1023
▁company	-1024
ird	-1025
▁still	-1026
▁Air	-1027
▁det	-1028
▁return	-1029
▁Mc	-1030
▁international	-1031
▁sever	-1032
▁took	-1033
▁place	-1034
ior	-1035
▁six	-1036
ington	-1037
rist	-1038
gram	-1039
▁ask	-1040
ism	-1041
hern	-1042
▁National	-1043
▁Dep	-1044
▁9	-1045
ico	-1046
▁char	-1047
to	-1048
▁Ab	-1049
▁Sec	-1050
▁pop	-1051
iver	-1052
▁used	-1053
▁women	-1054
rying	-1055
ajor	-1056
▁case	-1057
loy	-1058
▁think	-1059
osed	-1060
ety	-1061
side	-1062
▁North	-1063
read	-1064
ax	-1065
▁site	-1066
ivil	-1067
rik	-1068
▁Ger	-1069
▁power	-1070
▁support	-1071
▁Europ	-1072
ait	-1073
ages	-1074
▁tak	-1075
▁par	-1076
▁Pro	-1077
▁spec	-1078
ending	-1079
▁around	-1080
▁record	-1081
▁Police	-1082
▁every	-1083
ley	-1084
▁House	-1085
ober	-1086
▁died	-1087
▁rest	-1088
▁str	-1089
▁organ	-1090
for	-1091
▁hop	-1092
▁mar	-1093
▁199	-1094
ott	-1095
line	-1096
▁adv	-1097
▁season	-1098
▁Col	-1099
▁15	-1100
▁number	-1101
▁final	-1102
▁ve	-1103
ball	-1104
enn	-1105
ests	-1106
▁hour	-1107
▁don	-1108
▁Ge	-1109
▁bre	-1110
▁Con	-1111
▁inf	-1112
ects	-1113
per	-1114
rael	-1115
▁won	-1116
iness	-1117
inal	-1118
▁youn	-1119
my	-1120
▁champ	-1121
▁poss	-1122
▁'	-1123
ael	-1124
▁che	-1125
▁mark	-1126
▁Ad	-1127
ient	-1128
▁allow	-1129
ific	-1130
▁meet	-1131
▁prom	-1132
▁cur	-1133
▁spe	-1134
▁beh	-1135
▁least	-1136
iving	-1137
ene	-1138
▁Co	-1139
▁another	-1140
▁ent	-1141
▁next	-1142
▁build	-1143
ashington	-1144
▁Ang	-1145
▁use	-1146
▁area	-1147
ves	-1148
▁England	-1149
alf	-1150
ept	-1151
▁201	-1152
▁Israel	-1153
▁talk	-1154
▁dif	-1155
lood	-1156
▁Cup	-1157
▁post	-1158
▁Washington	-1159
ON	-1160
▁put	-1161
▁Mich	-1162
▁dead	-1163
irl	-1164
▁office	-1165
▁program	-1166
▁sw	-1167
stem	-1168
oci	-1169
stit	-1170
▁ref	-1171
▁Russ	-1172
lier	-1173
▁invol	-1174
eng	-1175
▁both	-1176
ries	-1177
▁Afghanistan	-1178
gency	-1179
iversity	-1180
▁early	-1181
▁human	-1182
▁Count	-1183
▁Dem	-1184
▁federal	-1185
▁ob	-1186
tain	-1187
▁Kore	-1188
▁going	-1189
▁del	-1190
▁Ju	-1191
▁leaders	-1192
▁hand	-1193
▁see	-1194
▁political	-1195
view	-1196
▁major	-1197
▁club	-1198
▁past	-1199
▁British	-1200
oon	-1201
aly	-1202
eth	-1203
▁Jack	-1204
ospital	-1205
▁12	-1206
▁sold	-1207
▁woman	-1208
▁fight	-1209
orney	-1210
velop	-1211
▁nation	-1212
▁Be	-1213
pr	-1214
▁Department	-1215
-1	-1216
▁la	-1217
ection	-1218
▁came	-1219
▁find	-1220
▁civil	-1221
▁11	-1222
ocrat	-1223
▁China	-1224
▁City	-1225
▁cond	-1226
uel	-1227
utes	-1228
lam	-1229
▁deal	-1230
▁strik	-1231
▁hom	-1232
▁best	-1233
▁water	-1234
▁move	-1235
ims	-1236
ida	-1237
ators	-1238
▁Pr	-1239
▁forces	-1240
▁big	-1241
ern	-1242
pped	-1243
▁disc	-1244
▁fore	-1245
▁rece	-1246
▁test	-1247
▁national	-1248
▁good	-1249
▁turn	-1250
▁ago	-1251
▁does	-1252
▁Geor	-1253
ministr	-1254
▁League	-1255
ched	-1256
▁saf	-1257
▁pres	-1258
ived	-1259
▁saying	-1260
go	-1261
ional	-1262
ruct	-1263
▁Gu	-1264
▁far	-1265
ually	-1266
▁German	-1267
▁crit	-1268
▁system	-1269
gin	-1270
▁later	-1271
▁County	-1272
▁job	-1273
▁terror	-1274
ened	-1275
▁tro	-1276
sh	-1277
ised	-1278
▁months	-1279
▁charges	-1280
ished	-1281
ought	-1282
work	-1283
▁Aust	-1284
▁proble	-1285
▁young	-1286
▁travel	-1287
▁much	-1288
ona	-1289
▁expl	-1290
▁quest	-1291
▁Bl	-1292
▁released	-1293
▁Web	-1294
▁rul	-1295
▁18	-1296
▁Flor	-1297
▁Dav	-1298
▁mid	-1299
amed	-1300
▁Se	-1301
▁friend	-1302
get	-1303
▁Cl	-1304
secut	-1305
▁same	-1306
▁several	-1307
▁ca	-1308
▁leader	-1309
rent	-1310
▁join	-1311
▁shot	-1312
▁incre	-1313
▁organiz	-1314
▁arrested	-1315
▁Comm	-1316
acy	-1317
▁sk	-1318
hest	-1319
ffic	-1320
▁Angel	-1321
▁Florida	-1322
▁media	-1323
▁Jan	-1324
▁sex	-1325
▁sit	-1326
▁est	-1327
▁Mexico	-1328
ored	-1329
reen	-1330
▁prof	-1331
▁exper	-1332
▁inform	-1333
▁On	-1334
apan	-1335
▁alleged	-1336
▁business	-1337
▁oil	-1338
▁mur	-1339
osition	-1340
We	-1341
▁very	-1342
▁attacks	-1343
▁known	-1344
▁tit	-1345
▁Japan	-1346
▁pay	-1347
▁kid	-1348
ccess	-1349
aign	-1350
▁money	-1351
▁agency	-1352
▁International	-1353
the	-1354
ering	-1355
ified	-1356
▁event	-1357
▁accused	-1358
▁requ	-1359
▁fail	-1360
▁Sc	-1361
ired	-1362
▁rights	-1363
▁Pe	-1364
▁right	-1365
▁threat	-1366
▁vot	-1367
▁bomb	-1368
▁girl	-1369
ides	-1370
ploy	-1371
rown	-1372
▁deb	-1373
▁develop	-1374
▁away	-1375
▁held	-1376
ondon	-1377
▁2008	-1378
▁vide	-1379
▁host	-1380
▁Ph	-1381
▁ed	-1382
ided	-1383
▁star	-1384
ple	-1385
▁Am	-1386
▁Democrat	-1387
hel	-1388
ases	-1389
oman	-1390
▁real	-1391
eal	-1392
urg	-1393
▁Man	-1394
▁30	-1395
▁London	-1396
une	-1397
▁dr	-1398
▁sing	-1399
ys	-1400
▁local	-1401
▁beat	-1402
▁hist	-1403
▁dri	-1404
▁director	-1405
▁these	-1406
▁main	-1407
ially	-1408
ourn	-1409
▁train	-1410
ended	-1411
▁troops	-1412
▁let	-1413
▁among	-1414
▁pat	-1415
icans	-1416
▁$1	-1417
▁Africa	-1418
▁campaign	-1419
ator	-1420
ract	-1421
),	-1422
▁hit	-1423
▁unt	-1424
▁Christ	-1425
ana	-1426
ield	-1427
▁happ	-1428
▁foot	-1429
▁incident	-1430
▁Or	-1431
▁May	-1432
be	-1433
▁visit	-1434
▁went	-1435
▁third	-1436
▁along	-1437
▁cent	-1438
▁across	-1439
▁prison	-1440
ience	-1441
▁University	-1442
▁cor	-1443
▁late	-1444
▁mother	-1445
▁miles	-1446
▁hospital	-1447
▁prop	-1448
let	-1449
rench	-1450
▁come	-1451
raw	-1452
▁Har	-1453
▁face	-1454
▁success	-1455
▁Pal	-1456
▁manag	-1457
▁match	-1458
▁America	-1459
▁without	-1460
pe	-1461
▁Michael	-1462
by	-1463
▁earlier	-1464
▁body	-1465
▁jud	-1466
▁Jackson	-1467
▁Mil	-1468
▁small	-1469
▁stand	-1470
ize	-1471
ministration	-1472
▁mus	-1473
head	-1474
inc	-1475
ission	-1476
▁announced	-1477
▁Islam	-1478
idence	-1479
▁taken	-1480
▁land	-1481
▁coun	-1482
▁concer	-1483
▁State	-1484
ev	-1485
ject	-1486
▁hours	-1487
▁appro	-1488
▁West	-1489
▁side	-1490
▁White	-1491
▁French	-1492
▁Los	-1493
▁African	-1494
ium	-1495
▁art	-1496
▁ris	-1497
retary	-1498
ele	-1499
aring	-1500
▁India	-1501
-0	-1502
rain	-1503
▁produc	-1504
cl	-1505
▁hold	-1506
▁service	-1507
▁conv	-1508
cel	-1509
▁cou	-1510
▁es	-1511
▁violence	-1512
raz	-1513
▁victory	-1514
rew	-1515
▁minutes	-1516
▁phot	-1517
lish	-1518
▁appear	-1519
ann	-1520
▁activ	-1521
▁until	-1522
ically	-1523
▁stop	-1524
▁game	-1525
bal	-1526
aced	-1527
ones	-1528
▁information	-1529
ric	-1530
ti	-1531
▁Sen	-1532
▁book	-1533
cept	-1534
▁po	-1535
ards	-1536
ris	-1537
▁half	-1538
▁inst	-1539
ask	-1540
br	-1541
▁net	-1542
▁ident	-1543
ately	-1544
▁tell	-1545
▁murder	-1546
▁food	-1547
▁Gr	-1548
omin	-1549
orning	-1550
▁gun	-1551
▁outside	-1552
iers	-1553
rab	-1554
urch	-1555
uck	-1556
orters	-1557
▁keep	-1558
▁region	-1559
▁One	-1560
▁others	-1561
▁began	-1562
▁Mad	-1563
▁Angeles	-1564
self	-1565
▁control	-1566
▁France	-1567
ocu	-1568
▁16	-1569
▁few	-1570
▁hot	-1571
▁wife	-1572
▁Tr	-1573
icted	-1574
▁trying	-1575
ained	-1576
aul	-1577
cess	-1578
▁students	-1579
▁making	-1580
enal	-1581
▁wr	-1582
▁working	-1583
▁following	-1584
pite	-1585
uper	-1586
ump	-1587
▁short	-1588
aff	-1589
▁Center	-1590
▁whether	-1591
▁seen	-1592
▁attem	-1593
▁sim	-1594
▁current	-1595
▁investigation	-1596
▁taking	-1597
▁Mus	-1598
ention	-1599
ousands	-1600
▁reports	-1601
▁av	-1602
▁Tex	-1603
▁met	-1604
▁behind	-1605
▁eng	-1606
▁Austral	-1607
▁town	-1608
aughter	-1609
▁occ	-1610
avy	-1611
▁laun	-1612
▁having	-1613
▁Tal	-1614
▁film	-1615
▁prosecut	-1616
▁grow	-1617
▁shoot	-1618
▁consid	-1619
▁great	-1620
▁2007	-1621
▁suff	-1622
▁press	-1623
▁countries	-1624
ij	-1625
▁level	-1626
▁plane	-1627
ham	-1628
ying	-1629
▁fund	-1630
ference	-1631
▁capital	-1632
▁hard	-1633
gg	-1634
▁Ass	-1635
▁San	-1636
▁release	-1637
▁attorney	-1638
▁agre	-1639
▁25	-1640
▁old	-1641
▁Inter	-1642
▁emer	-1643
▁charged	-1644
▁TV	-1645
▁Cong	-1646
▁weeks	-1647
▁partic	-1648
▁larg	-1649
less	-1650
itted	-1651
▁mod	-1652
▁free	-1653
ittle	-1654
▁fact	-1655
▁Texas	-1656
ese	-1657
echn	-1658
▁cit	-1659
▁Clin	-1660
▁Will	-1661
arge	-1662
▁clear	-1663
▁father	-1664
iven	-1665
▁nearly	-1666
▁economic	-1667
ke	-1668
▁soc	-1669
▁expected	-1670
▁cut	-1671
0,000	-1672
▁read	-1673
itions	-1674
ald	-1675
▁David	-1676
▁title	-1677
▁Som	-1678
▁killing	-1679
▁el	-1680
ried	-1681
uary	-1682
▁got	-1683
▁compet	-1684
▁Minister	-1685
▁polic	-1686
▁14	-1687
time	-1688
▁morning	-1689
▁Sw	-1690
▁2009	-1691
▁list	-1692
▁King	-1693
▁form	-1694
▁employ	-1695
iban	-1696
aster	-1697
▁each	-1698
▁goal	-1699
▁chief	-1700
ots	-1701
ront	-1702
ats	-1703
iger	-1704
▁medical	-1705
riz	-1706
▁fell	-1707
▁13	-1708
akes	-1709
▁War	-1710
▁cover	-1711
▁NA	-1712
▁Americans	-1713
▁198	-1714
▁Med	-1715
▁Court	-1716
▁Clinton	-1717
▁docu	-1718
▁European	-1719
▁Hait	-1720
vious	-1721
▁lik	-1722
▁execut	-1723
ya	-1724
ler	-1725
▁sen	-1726
▁stre	-1727
▁sum	-1728
ament	-1729
▁community	-1730
▁video	-1731
▁confir	-1732
istry	-1733
▁dev	-1734
▁Taliban	-1735
bor	-1736
aper	-1737
▁desc	-1738
▁son	-1739
▁El	-1740
▁minister	-1741
▁ship	-1742
▁groups	-1743
▁house	-1744
▁We	-1745
▁dam	-1746
▁som	-1747
outhern	-1748
▁Ex	-1749
▁Braz	-1750
▁mass	-1751
raft	-1752
▁party	-1753
▁seven	-1754
ruck	-1755
▁cust	-1756
ung	-1757
▁led	-1758
▁design	-1759
▁Rober	-1760
▁whose	-1761
▁January	-1762
▁times	-1763
urr	-1764
off	-1765
▁100	-1766
▁Ser	-1767
▁June	-1768
▁Somal	-1769
▁bill	-1770
▁calls	-1771
▁music	-1772
over	-1773
▁search	-1774
▁relations	-1775
SA	-1776
ogra	-1777
▁cost	-1778
▁resident	-1779
▁eight	-1780
que	-1781
▁reb	-1782
gress	-1783
▁Brazil	-1784
▁asked	-1785
com	-1786
▁Par	-1787
▁tele	-1788
▁using	-1789
lim	-1790
now	-1791
▁less	-1792
era	-1793
▁They	-1794
▁flood	-1795
▁change	-1796
ology	-1797
▁tour	-1798
It	-1799
ournal	-1800
ades	-1801
iber	-1802
▁treat	-1803
▁able	-1804
▁comple	-1805
eptember	-1806
istrict	-1807
▁La	-1808
▁mat	-1809
▁Korea	-1810
▁decision	-1811
ili	-1812
lant	-1813
▁batt	-1814
▁lost	-1815
▁Georg	-1816
▁missing	-1817
ches	-1818
oard	-1819
▁sour	-1820
▁techn	-1821
ns	-1822
▁Bush	-1823
▁paren	-1824
▁Indian	-1825
▁wind	-1826
▁center	-1827
▁attempt	-1828
▁points	-1829
▁den	-1830
upt	-1831
hic	-1832
▁March	-1833
▁September	-1834
umb	-1835
▁black	-1836
▁import	-1837
par	-1838
▁break	-1839
▁bring	-1840
▁round	-1841
▁possible	-1842
▁17	-1843
▁Can	-1844
▁sol	-1845
sc	-1846
▁crew	-1847
▁ahead	-1848
▁special	-1849
▁Author	-1850
onst	-1851
▁Port	-1852
uclear	-1853
▁started	-1854
eda	-1855
▁glo	-1856
▁stay	-1857
▁Op	-1858
▁order	-1859
idd	-1860
ming	-1861
▁election	-1862
▁chall	-1863
▁class	-1864
imb	-1865
▁priv	-1866
▁targ	-1867
▁issues	-1868
▁dest	-1869
▁plans	-1870
▁seek	-1871
▁thousands	-1872
▁result	-1873
ways	-1874
uation	-1875
ulf	-1876
elebr	-1877
▁race	-1878
▁boy	-1879
▁repres	-1880
▁large	-1881
undred	-1882
mp	-1883
▁Dec	-1884
▁little	-1885
▁history	-1886
ees	-1887
▁doct	-1888
▁really	-1889
▁role	-1890
▁fre	-1891
▁imm	-1892
▁interview	-1893
▁recently	-1894
▁flight	-1895
▁Te	-1896
▁Res	-1897
▁given	-1898
itional	-1899
▁billion	-1900
▁Br	-1901
▁How	-1902
ily	-1903
▁July	-1904
ready	-1905
▁peace	-1906
▁become	-1907
oe	-1908
yan	-1909
▁victims	-1910
▁Sch	-1911
▁feat	-1912
▁mess	-1913
▁border	-1914
▁close	-1915
hers	-1916
▁equ	-1917
▁Span	-1918
ertain	-1919
▁never	-1920
▁might	-1921
▁areas	-1922
▁differ	-1923
eg	-1924
ead	-1925
urk	-1926
▁vo	-1927
▁must	-1928
▁better	-1929
▁Georgia	-1930
▁process	-1931
▁shows	-1932
sy	-1933
▁ban	-1934
▁wound	-1935
▁daughter	-1936
ories	-1937
▁financ	-1938
▁problems	-1939
▁neigh	-1940
▁profess	-1941
▁McC	-1942
▁too	-1943
cement	-1944
▁give	-1945
▁respons	-1946
▁ap	-1947
▁building	-1948
▁continue	-1949
ape	-1950
▁bank	-1951
▁step	-1952
-2	-1953
▁ball	-1954
▁chang	-1955
▁English	-1956
▁believe	-1957
elt	-1958
▁involved	-1959
ault	-1960
▁question	-1961
▁2006	-1962
▁nort	-1963
▁His	-1964
▁ple	-1965
▁ground	-1966
▁Go	-1967
▁Champ	-1968
▁describ	-1969
▁saw	-1970
ential	-1971
▁evidence	-1972
iding	-1973
▁north	-1974
▁weekend	-1975
▁40	-1976
▁Just	-1977
▁point	-1978
bs	-1979
▁cour	-1980
▁workers	-1981
ari	-1982
▁24	-1983
▁Def	-1984
▁already	-1985
ences	-1986
▁Ken	-1987
▁network	-1988
▁players	-1989
▁Hol	-1990
▁2010	-1991
▁view	-1992
▁nuclear	-1993
aeda	-1994
▁eas	-1995
osing	-1996
▁meeting	-1997
cil	-1998
▁defe	-1999
▁deter	-2000
band	-2001
▁pot	-2002
▁include	-2003
▁officer	-2004
▁Congress	-2005
▁lot	-2006
▁series	-2007
▁officers	-2008
eration	-2009
aid	-2010
▁trial	-2011
▁vehic	-2012
▁ord	-2013
woman	-2014
▁reach	-2015
▁tw	-2016
ada	-2017
▁rad	-2018
▁After	-2019
▁soldiers	-2020
▁50	-2021
▁football	-2022
uge	-2023
▁Pl	-2024
▁risk	-2025
▁dist	-2026
▁feel	-2027
▁administration	-2028
▁coll	-2029
▁champions	-2030
Amer	-2031
iron	-2032
uty	-2033
▁indust	-2034
▁Carol	-2035
▁All	-2036
▁resc	-2037
▁weap	-2038
▁William	-2039
▁Ed	-2040
▁Sy	-2041
▁force	-2042
▁celebr	-2043
ane	-2044
ales	-2045
ever	-2046
▁fut	-2047
▁Two	-2048
▁mom	-2049
▁foc	-2050
ulation	-2051
▁strong	-2052
▁anti	-2053
▁surv	-2054
▁tax	-2055
▁fans	-2056
▁Atlant	-2057
▁fall	-2058
▁efforts	-2059
mar	-2060
pro	-2061
ring	-2062
▁issued	-2063
▁social	-2064
ten	-2065
aker	-2066
▁Per	-2067
▁compl	-2068
▁Champions	-2069
1,	-2070
▁didn	-2071
ached	-2072
▁member	-2073
ances	-2074
NG	-2075
itness	-2076
ration	-2077
based	-2078
mber	-2079
▁tre	-2080
▁Arab	-2081
▁disp	-2082
▁road	-2083
▁crash	-2084
book	-2085
▁Republic	-2086
▁Spain	-2087
▁live	-2088
arty	-2089
aving	-2090
ittee	-2091
▁room	-2092
▁champion	-2093
ergy	-2094
icide	-2095
▁line	-2096
estern	-2097
▁judge	-2098
▁foreign	-2099
▁received	-2100
ashed	-2101
▁prevent	-2102
sp	-2103
pril	-2104
eared	-2105
▁bar	-2106
▁low	-2107
▁vol	-2108
aged	-2109
▁career	-2110
ox	-2111
▁presidential	-2112
▁Aug	-2113
▁critic	-2114
▁Ear	-2115
imate	-2116
▁storm	-2117
of	-2118
omp	-2119
▁key	-2120
▁comes	-2121
▁defend	-2122
▁safety	-2123
▁remains	-2124
Th	-2125
▁parents	-2126
▁provide	-2127
▁previous	-2128
amb	-2129
▁hig	-2130
▁Milan	-2131
▁despite	-2132
▁dou	-2133
▁lawy	-2134
▁August	-2135
itive	-2136
▁insp	-2137
▁added	-2138
▁coast	-2139
▁Nations	-2140
▁address	-2141
▁Mor	-2142
▁future	-2143
▁organization	-2144
▁ri	-2145
▁April	-2146
▁De	-2147
most	-2148
▁adm	-2149
inese	-2150
▁Ital	-2151
▁aut	-2152
hester	-2153
▁Secretary	-2154
▁Open	-2155
▁Security	-2156
ney	-2157
stand	-2158
▁Real	-2159
▁market	-2160
▁gave	-2161
▁i	-2162
▁aid	-2163
ovember	-2164
▁general	-2165
▁Cor	-2166
▁cand	-2167
▁played	-2168
▁homes	-2169
undreds	-2170
▁likely	-2171
here	-2172
▁Some	-2173
▁Germany	-2174
▁Madrid	-2175
▁conduct	-2176
▁story	-2177
▁discuss	-2178
▁based	-2179
▁issue	-2180
▁helped	-2181
atives	-2182
▁November	-2183
aps	-2184
▁Em	-2185
ays	-2186
▁Her	-2187
▁pil	-2188
▁represent	-2189
isc	-2190
vision	-2191
irc	-2192
▁name	-2193
▁Senate	-2194
▁states	-2195
▁injured	-2196
mon	-2197
▁once	-2198
usband	-2199
▁action	-2200
▁economy	-2201
▁Sm	-2202
▁Ber	-2203
cover	-2204
▁December	-2205
▁lives	-2206
ination	-2207
▁different	-2208
▁Manc	-2209
▁contro	-2210
▁friends	-2211
ires	-2212
▁conn	-2213
▁caused	-2214
▁inside	-2215
uses	-2216
▁197	-2217
▁East	-2218
▁things	-2219
itor	-2220
rought	-2221
▁legal	-2222
▁cle	-2223
▁No	-2224
aces	-2225
▁non	-2226
▁Turk	-2227
▁cross	-2228
▁impro	-2229
▁emergency	-2230
▁When	-2231
▁Iraqi	-2232
▁though	-2233
▁mot	-2234
ctober	-2235
▁phone	-2236
ners	-2237
▁claims	-2238
▁demonst	-2239
▁residents	-2240
▁spokeswoman	-2241
medi	-2242
iminal	-2243
rupt	-2244
▁hope	-2245
▁kind	-2246
▁leave	-2247
▁player	-2248
▁Gen	-2249
▁grand	-2250
▁tourn	-2251
▁Russia	-2252
▁defense	-2253
acked	-2254
▁cris	-2255
▁begin	-2256
▁vote	-2257
ett	-2258
por	-2259
ients	-2260
ising	-2261
▁walk	-2262
▁writ	-2263
▁ill	-2264
▁draw	-2265
▁families	-2266
▁due	-2267
▁wanted	-2268
lege	-2269
▁looking	-2270
▁Bay	-2271
ortun	-2272
ease	-2273
▁capt	-2274
▁fighting	-2275
reg	-2276
▁disapp	-2277
ban	-2278
▁within	-2279
▁October	-2280
▁Park	-2281
▁heart	-2282
▁neighbor	-2283
ores	-2284
ults	-2285
▁Serv	-2286
▁guil	-2287
▁financial	-2288
arm	-2289
▁space	-2290
▁Italian	-2291
BI	-2292
uted	-2293
▁What	-2294
▁Offic	-2295
ibility	-2296
engers	-2297
iet	-2298
▁lo	-2299
▁Haiti	-2300
ara	-2301
aud	-2302
riff	-2303
▁Acc	-2304
viron	-2305
▁full	-2306
▁board	-2307
ped	-2308
▁ever	-2309
▁sched	-2310
▁Russian	-2311
hood	-2312
▁Lou	-2313
▁lat	-2314
▁rock	-2315
▁southern	-2316
gent	-2317
asing	-2318
▁Mark	-2319
▁couple	-2320
illeg	-2321
▁policy	-2322
▁target	-2323
▁Chinese	-2324
▁Gulf	-2325
▁coach	-2326
▁Robert	-2327
▁$2	-2328
▁If	-2329
▁ty	-2330
▁age	-2331
▁div	-2332
▁Paul	-2333
▁cases	-2334
▁movie	-2335
reme	-2336
▁With	-2337
ural	-2338
▁became	-2339
▁global	-2340
▁Spanish	-2341
ably	-2342
enced	-2343
▁comb	-2344
▁lear	-2345
▁trad	-2346
olution	-2347
▁thought	-2348
▁pain	-2349
▁Vir	-2350
▁popular	-2351
▁striker	-2352
ho	-2353
▁check	-2354
▁More	-2355
▁newsp	-2356
▁husband	-2357
rugg	-2358
▁himself	-2359
▁contract	-2360
rote	-2361
▁effort	-2362
▁shooting	-2363
▁fav	-2364
▁educ	-2365
▁tem	-2366
▁earth	-2367
▁Europe	-2368
▁effect	-2369
vironment	-2370
lu	-2371
atic	-2372
light	-2373
▁charge	-2374
▁compan	-2375
50	-2376
▁fourth	-2377
▁suspect	-2378
int	-2379
▁Ste	-2380
onald	-2381
▁Army	-2382
▁Union	-2383
▁getting	-2384
▁squ	-2385
▁init	-2386
▁senior	-2387
ipp	-2388
▁Democratic	-2389
lines	-2390
▁tournament	-2391
▁meas	-2392
▁23	-2393
▁mag	-2394
▁opposition	-2395
unt	-2396
▁ide	-2397
▁crisis	-2398
itter	-2399
▁Manchester	-2400
▁hon	-2401
▁Miss	-2402
▁journal	-2403
▁Red	-2404
▁val	-2405
ening	-2406
ively	-2407
thing	-2408
▁sell	-2409
▁named	-2410
▁important	-2411
ago	-2412
▁Val	-2413
▁watch	-2414
▁22	-2415
rowd	-2416
though	-2417
▁south	-2418
▁Mexican	-2419
▁Mart	-2420
ata	-2421
ebru	-2422
▁neg	-2423
▁illeg	-2424
ebruary	-2425
▁injury	-2426
gypt	-2427
▁You	-2428
▁explos	-2429
▁guilty	-2430
▁toward	-2431
ensive	-2432
▁Prime	-2433
▁immig	-2434
▁today	-2435
▁cancer	-2436
▁deaths	-2437
▁Tw	-2438
▁Niger	-2439
ino	-2440
▁Hill	-2441
▁Rich	-2442
▁repl	-2443
abor	-2444
celona	-2445
▁wrote	-2446
▁strugg	-2447
▁leading	-2448
▁February	-2449
▁why	-2450
▁immedi	-2451
▁trip	-2452
▁failed	-2453
▁personal	-2454
▁stage	-2455
▁showed	-2456
ociation	-2457
▁fur	-2458
▁accident	-2459
▁Pakistani	-2460
fic	-2461
▁27	-2462
▁FBI	-2463
▁link	-2464
▁sugg	-2465
▁Egypt	-2466
▁access	-2467
▁enough	-2468
▁living	-2469
sel	-2470
▁Lib	-2471
epend	-2472
▁Israeli	-2473
lymp	-2474
▁sem	-2475
ado	-2476
ille	-2477
▁prep	-2478
ograph	-2479
▁citiz	-2480
▁study	-2481
▁Virgin	-2482
▁conc	-2483
▁protect	-2484
▁ben	-2485
▁super	-2486
ublican	-2487
▁Barcelona	-2488
▁Dan	-2489
▁Italy	-2490
▁candid	-2491
roup	-2492
run	-2493
▁Olymp	-2494
▁front	-2495
▁tried	-2496
ging	-2497
arian	-2498
▁Coun	-2499
▁Coast	-2500
▁Carolina	-2501
ule	-2502
ials	-2503
▁News	-2504
▁brother	-2505
wood	-2506
ession	-2507
stitution	-2508
▁fear	-2509
▁cred	-2510
▁airport	-2511
▁convicted	-2512
▁Authorities	-2513
▁Ben	-2514
▁staff	-2515
▁private	-2516
▁fun	-2517
ested	-2518
▁decl	-2519
▁often	-2520
ope	-2521
ething	-2522
▁cause	-2523
▁ur	-2524
▁Prem	-2525
▁This	-2526
▁laws	-2527
▁Republican	-2528
▁television	-2529
▁opening	-2530
▁industry	-2531
▁companies	-2532
▁gas	-2533
▁forced	-2534
▁cult	-2535
▁Do	-2536
▁aw	-2537
▁pick	-2538
aur	-2539
ilar	-2540
▁Fed	-2541
▁quar	-2542
▁doing	-2543
▁minute	-2544
▁forward	-2545
▁serious	-2546
▁emb	-2547
anger	-2548
▁spent	-2549
istance	-2550
▁passengers	-2551
ications	-2552
▁largest	-2553
▁weapons	-2554
▁Ham	-2555
ellig	-2556
▁Brown	-2557
▁Sam	-2558
olf	-2559
▁There	-2560
▁crime	-2561
▁pract	-2562
aled	-2563
▁seed	-2564
▁2005	-2565
▁Barack	-2566
▁Britain	-2567
▁station	-2568
▁conference	-2569
ift	-2570
gether	-2571
▁together	-2572
gu	-2573
akers	-2574
▁Pat	-2575
▁latest	-2576
▁lim	-2577
▁Face	-2578
esters	-2579
▁light	-2580
▁worked	-2581
▁Argent	-2582
▁manager	-2583
▁1,	-2584
▁Act	-2585
▁anim	-2586
▁cell	-2587
▁reve	-2588
▁Islamic	-2589
▁Premier	-2590
using	-2591
▁online	-2592
▁Char	-2593
▁Bro	-2594
aded	-2595
oint	-2596
▁esc	-2597
▁pir	-2598
▁coming	-2599
?"	-2600
men	-2601
uff	-2602
▁enc	-2603
▁militants	-2604
▁situation	-2605
na	-2606
ined	-2607
▁jail	-2608
▁publ	-2609
▁wants	-2610
▁island	-2611
ressed	-2612
▁turned	-2613
ems	-2614
▁nine	-2615
▁Group	-2616
lement	-2617
▁Louis	-2618
▁UK	-2619
onse	-2620
▁loss	-2621
▁penal	-2622
▁detail	-2623
▁Fore	-2624
▁cart	-2625
▁6-	-2626
▁Iranian	-2627
▁training	-2628
irth	-2629
▁Facebook	-2630
err	-2631
napp	-2632
▁wat	-2633
ole	-2634
uries	-2635
▁student	-2636
▁winner	-2637
▁product	-2638
▁something	-2639
ocked	-2640
▁prob	-2641
▁quick	-2642
▁hundreds	-2643
▁Party	-2644
▁included	-2645
▁confirmed	-2646
▁21	-2647
▁Council	-2648
▁brought	-2649
▁Att	-2650
▁earthqu	-2651
▁allegedly	-2652
eck	-2653
ains	-2654
▁try	-2655
▁crowd	-2656
▁favor	-2657
▁assault	-2658
▁elections	-2659
▁z	-2660
▁Wood	-2661
▁Black	-2662
▁suicide	-2663
ream	-2664
▁James	-2665
▁occur	-2666
▁fellow	-2667
▁Somalia	-2668
uit	-2669
▁According	-2670
uled	-2671
itting	-2672
▁While	-2673
west	-2674
▁dro	-2675
▁Island	-2676
rian	-2677
ster	-2678
▁circ	-2679
▁here	-2680
▁drugs	-2681
▁Muslim	-2682
odies	-2683
▁port	-2684
▁makes	-2685
American	-2686
wide	-2687
elligence	-2688
▁newspaper	-2689
▁26	-2690
▁sexual	-2691
▁fig	-2692
▁28	-2693
▁Mass	-2694
▁hopes	-2695
▁talks	-2696
▁crimes	-2697
ruction	-2698
ote	-2699
estin	-2700
▁base	-2701
▁Ministry	-2702
▁broad	-2703
▁collect	-2704
duce	-2705
craft	-2706
▁faces	-2707
▁needs	-2708
AR	-2709
ication	-2710
▁almost	-2711
▁believed	-2712
▁riv	-2713
▁reform	-2714
vernment	-2715
▁Defense	-2716
▁reporters	-2717
▁pos	-2718
▁vac	-2719
▁claimed	-2720
ature	-2721
▁teen	-2722
▁confl	-2723
ization	-2724
▁Rob	-2725
▁kids	-2726
sw	-2727
ges	-2728
airs	-2729
▁spot	-2730
▁parts	-2731
▁relig	-2732
▁ens	-2733
▁red	-2734
▁mult	-2735
▁perfor	-2736
▁Mal	-2737
▁Moh	-2738
▁doll	-2739
▁feet	-2740
▁conditions	-2741
wh	-2742
▁Kar	-2743
▁Tour	-2744
▁orig	-2745
▁further	-2746
arent	-2747
▁clos	-2748
▁problem	-2749
▁winning	-2750
▁relationship	-2751
iana	-2752
▁hotel	-2753
▁defeat	-2754
▁northern	-2755
▁opportun	-2756
▁Day	-2757
▁Health	-2758
▁playing	-2759
oid	-2760
▁Gar	-2761
▁jobs	-2762
▁games	-2763
▁needed	-2764
▁wounded	-2765
▁research	-2766
TO	-2767
ows	-2768
▁webs	-2769
ishing	-2770
▁const	-2771
▁speech	-2772
▁controvers	-2773
▁Association	-2774
oma	-2775
ota	-2776
▁park	-2777
itten	-2778
▁mill	-2779
▁analy	-2780
▁respond	-2781
▁attention	-2782
uk	-2783
ude	-2784
▁rev	-2785
▁heavy	-2786
▁Australia	-2787
▁agreement	-2788
▁Sal	-2789
▁scene	-2790
▁course	-2791
▁Kh	-2792
▁track	-2793
▁energy	-2794
▁similar	-2795
forcement	-2796
▁bur	-2797
ternet	-2798
▁response	-2799
▁suspected	-2800
cean	-2801
▁App	-2802
▁aud	-2803
▁fired	-2804
▁2004	-2805
riving	-2806
▁field	-2807
▁documents	-2808
oms	-2809
roy	-2810
ords	-2811
▁vir	-2812
ivid	-2813
liam	-2814
▁mission	-2815
▁independ	-2816
▁civilians	-2817
stitute	-2818
hab	-2819
▁ey	-2820
▁hous	-2821
▁rout	-2822
▁Virginia	-2823
▁196	-2824
▁esp	-2825
liament	-2826
▁leaving	-2827
HI	-2828
▁battle	-2829
▁hearing	-2830
▁Cub	-2831
▁award	-2832
▁source	-2833
▁district	-2834
rel	-2835
sea	-2836
ends	-2837
▁birth	-2838
ilities	-2839
▁services	-2840
▁scheduled	-2841
erc	-2842
▁soon	-2843
ises	-2844
▁goals	-2845
▁bas	-2846
icated	-2847
▁white	-2848
▁demand	-2849
▁earthquake	-2850
rick	-2851
rizona	-2852
▁takes	-2853
▁perform	-2854
▁operations	-2855
▁bad	-2856
▁Cent	-2857
ficult	-2858
▁estim	-2859
▁treatment	-2860
▁particular	-2861
AS	-2862
ogn	-2863
ston	-2864
▁wear	-2865
▁doesn	-2866
▁captain	-2867
▁song	-2868
▁separ	-2869
▁criminal	-2870
itz	-2871
▁fat	-2872
ality	-2873
ability	-2874
▁always	-2875
ify	-2876
upreme	-2877
▁carrying	-2878
▁experience	-2879
▁environment	-2880
▁displ	-2881
▁ended	-2882
▁letter	-2883
▁witness	-2884
▁fuel	-2885
▁suffered	-2886
▁offer	-2887
▁School	-2888
▁qualif	-2889
▁province	-2890
ps	-2891
aily	-2892
▁appeared	-2893
oo	-2894
cast	-2895
▁plant	-2896
▁accept	-2897
▁Des	-2898
▁insur	-2899
▁means	-2900
▁refer	-2901
▁charac	-2902
▁Arizona	-2903
vest	-2904
▁creat	-2905
▁prime	-2906
▁summer	-2907
▁identified	-2908
van	-2909
▁deep	-2910
▁love	-2911
▁disease	-2912
▁questions	-2913
che	-2914
iting	-2915
▁gener	-2916
▁performan	-2917
aza	-2918
urt	-2919
▁Atlanta	-2920
▁quarter	-2921
EO	-2922
oke	-2923
▁opt	-2924
▁difficult	-2925
mit	-2926
reet	-2927
▁doz	-2928
▁lawyer	-2929
bre	-2930
yle	-2931
anda	-2932
berg	-2933
▁box	-2934
▁rac	-2935
▁sure	-2936
aby	-2937
▁gl	-2938
ival	-2939
▁Abd	-2940
▁data	-2941
▁events	-2942
▁message	-2943
▁phys	-2944
bed	-2945
isl	-2946
▁60	-2947
oved	-2948
▁amb	-2949
ction	-2950
fully	-2951
▁danger	-2952
▁executive	-2953
▁review	-2954
▁scored	-2955
▁Justice	-2956
mad	-2957
ador	-2958
amous	-2959
ental	-2960
▁ruling	-2961
▁strike	-2962
▁launch	-2963
▁cho	-2964
▁Chel	-2965
▁benef	-2966
▁aftern	-2967
▁engine	-2968
▁command	-2969
ece	-2970
▁er	-2971
▁Ah	-2972
▁Jud	-2973
▁create	-2974
▁certain	-2975
▁protesters	-2976
gest	-2977
▁Ars	-2978
▁pri	-2979
▁kidnapp	-2980
3,	-2981
▁Me	-2982
illa	-2983
▁shut	-2984
▁Former	-2985
▁continued	-2986
ks	-2987
▁filed	-2988
▁individ	-2989
▁increase	-2990
▁Australian	-2991
▁Net	-2992
ecess	-2993
▁arri	-2994
▁burn	-2995
▁Guard	-2996
▁That	-2997
▁Korean	-2998
▁website	-2999
▁afternoon	-3000
ula	-3001
This	-3002
▁signed	-3003
▁fle	-3004
▁NATO	-3005
▁operation	-3006
ersey	-3007
▁Jose	-3008
▁mean	-3009
▁moved	-3010
▁Palestin	-3011
▁terrorist	-3012
▁Off	-3013
▁potential	-3014
iod	-3015
▁Law	-3016
friend	-3017
▁bodies	-3018
rav	-3019
down	-3020
urrican	-3021
▁Chelsea	-3022
▁injuries	-3023
▁exc	-3024
lying	-3025
▁abuse	-3026
▁marri	-3027
▁George	-3028
▁damage	-3029
▁penalty	-3030
▁dog	-3031
ecially	-3032
▁Richard	-3033
▁position	-3034
yc	-3035
▁Ale	-3036
▁sal	-3037
▁assist	-3038
▁calling	-3039
▁pred	-3040
▁stra	-3041
▁Smith	-3042
▁avail	-3043
▁aircraft	-3044
AN	-3045
▁rob	-3046
▁sat	-3047
iddle	-3048
▁allowed	-3049
inals	-3050
amin	-3051
▁yet	-3052
icop	-3053
▁running	-3054
▁investigators	-3055
ena	-3056
▁twice	-3057
▁chance	-3058
nel	-3059
▁clean	-3060
▁mount	-3061
▁present	-3062
▁described	-3063
ky	-3064
agh	-3065
rant	-3066
▁veter	-3067
▁millions	-3068
▁Democrats	-3069
bum	-3070
ovic	-3071
▁poll	-3072
airman	-3073
▁protests	-3074
▁Force	-3075
▁illegal	-3076
▁written	-3077
ridge	-3078
▁armed	-3079
▁influ	-3080
▁consum	-3081
▁impact	-3082
OND	-3083
atter	-3084
ca	-3085
▁recogn	-3086
▁single	-3087
▁poor	-3088
▁Colomb	-3089
▁especially	-3090
atural	-3091
▁created	-3092
▁flu	-3093
going	-3094
▁River	-3095
▁blood	-3096
▁Martin	-3097
▁hol	-3098
izing	-3099
▁recall	-3100
▁project	-3101
▁patients	-3102
▁sentence	-3103
oul	-3104
▁II	-3105
▁Il	-3106
covered	-3107
▁challen	-3108
▁doctors	-3109
▁includes	-3110
mail	-3111
oring	-3112
▁Sant	-3113
▁Agency	-3114
▁particip	-3115
OR	-3116
▁pict	-3117
▁vill	-3118
ES	-3119
ounds	-3120
▁spending	-3121
▁ren	-3122
▁High	-3123
▁compu	-3124
▁Supreme	-3125
▁occurred	-3126
emen	-3127
erem	-3128
▁tot	-3129
ificant	-3130
FA	-3131
▁paid	-3132
▁conflict	-3133
vey	-3134
oz	-3135
▁Ronald	-3136
▁pressure	-3137
yn	-3138
log	-3139
oud	-3140
▁29	-3141
▁done	-3142
▁rain	-3143
▁Middle	-3144
▁decided	-3145
▁happened	-3146
▁returned	-3147
uf	-3148
▁singer	-3149
▁contrib	-3150
▁intelligence	-3151
ping	-3152
▁Sing	-3153
▁protest	-3154
▁apparent	-3155
▁citizens	-3156
500	-3157
not	-3158
cial	-3159
▁lif	-3160
▁Anth	-3161
▁card	-3162
▁safe	-3163
▁growing	-3164
iff	-3165
itch	-3166
▁central	-3167
ifth	-3168
▁cam	-3169
▁pack	-3170
▁attend	-3171
▁available	-3172
▁Saud	-3173
▁appl	-3174
▁decades	-3175
▁interest	-3176
▁education	-3177
IA	-3178
rants	-3179
▁answ	-3180
▁estab	-3181
▁ordered	-3182
▁$3	-3183
▁Bel	-3184
▁truck	-3185
▁deliver	-3186
▁planned	-3187
▁launched	-3188
▁Bill	-3189
▁Cont	-3190
▁driver	-3191
▁results	-3192
udd	-3193
room	-3194
jects	-3195
▁hands	-3196
▁Williams	-3197
▁To	-3198
▁Anthony	-3199
▁streets	-3200
ayed	-3201
ano	-3202
▁rescue	-3203
▁scient	-3204
▁account	-3205
▁teams	-3206
▁period	-3207
▁massive	-3208
▁evac	-3209
iction	-3210
BC	-3211
pir	-3212
▁So	-3213
iled	-3214
ighters	-3215
▁crashed	-3216
▁employees	-3217
In	-3218
▁fr	-3219
▁wait	-3220
ielder	-3221
▁helping	-3222
BA	-3223
▁Service	-3224
▁midf	-3225
▁actor	-3226
▁victim	-3227
▁understand	-3228
inary	-3229
asters	-3230
▁Trans	-3231
▁album	-3232
▁custom	-3233
▁Mic	-3234
▁heard	-3235
▁General	-3236
▁concerns	-3237
omas	-3238
▁pilot	-3239
urricane	-3240
▁buy	-3241
▁table	-3242
▁My	-3243
▁sn	-3244
▁Sim	-3245
▁boat	-3246
▁Human	-3247
TON	-3248
ois	-3249
aught	-3250
▁condition	-3251
▁transport	-3252
ny	-3253
eff	-3254
▁Nad	-3255
▁nomin	-3256
▁common	-3257
▁legisl	-3258
▁nations	-3259
▁department	-3260
▁enforcement	-3261
▁sle	-3262
▁mater	-3263
▁share	-3264
▁expect	-3265
▁recover	-3266
▁governor	-3267
azine	-3268
▁Penn	-3269
encies	-3270
▁opened	-3271
▁population	-3272
▁development	-3273
▁Pac	-3274
oming	-3275
▁served	-3276
▁spread	-3277
▁document	-3278
aves	-3279
▁ste	-3280
▁McCain	-3281
▁agreed	-3282
▁biggest	-3283
▁restaur	-3284
za	-3285
ros	-3286
▁fem	-3287
▁struck	-3288
▁fast	-3289
▁self	-3290
▁store	-3291
ently	-3292
ville	-3293
▁gold	-3294
ernand	-3295
▁Arsenal	-3296
▁technology	-3297
prof	-3298
utch	-3299
▁Del	-3300
▁Lat	-3301
▁sites	-3302
▁reason	-3303
▁evening	-3304
▁vehicle	-3305
▁considered	-3306
).	-3307
iant	-3308
isco	-3309
▁pul	-3310
▁Camp	-3311
▁custody	-3312
▁weather	-3313
▁allegations	-3314
me	-3315
ams	-3316
▁Oh	-3317
▁Ro	-3318
ills	-3319
▁church	-3320
▁Internet	-3321
ery	-3322
udan	-3323
▁helicop	-3324
▁cru	-3325
▁wild	-3326
▁Commission	-3327
ugh	-3328
pool	-3329
aches	-3330
adium	-3331
▁snow	-3332
▁ruled	-3333
▁seeking	-3334
▁followed	-3335
ford	-3336
▁lack	-3337
▁Saudi	-3338
▁Office	-3339
▁levels	-3340
▁Twitter	-3341
▁Attorney	-3342
▁supporters	-3343
foot	-3344
▁inn	-3345
▁sett	-3346
▁reached	-3347
▁movement	-3348
aut	-3349
ceed	-3350
chers	-3351
▁affili	-3352
aks	-3353
▁var	-3354
night	-3355
▁someone	-3356
ipl	-3357
▁Grand	-3358
▁thing	-3359
▁parliament	-3360
rief	-3361
▁rank	-3362
▁instead	-3363
ki	-3364
ips	-3365
ova	-3366
ONDON	-3367
▁Three	-3368
▁LONDON	-3369
▁complain	-3370
▁Louisiana	-3371
▁significant	-3372
ma	-3373
rage	-3374
▁Ten	-3375
▁army	-3376
selves	-3377
▁entire	-3378
▁actually	-3379
ociety	-3380
▁sport	-3381
▁appeal	-3382
▁Argentina	-3383
▁performance	-3384
▁gra	-3385
▁passed	-3386
▁published	-3387
icket	-3388
▁freed	-3389
▁marriage	-3390
Wh	-3391
ni	-3392
back	-3393
▁mob	-3394
▁pan	-3395
▁send	-3396
ilt	-3397
ider	-3398
▁amid	-3399
▁Sudan	-3400
▁posted	-3401
▁suspects	-3402
▁currently	-3403
oti	-3404
▁ep	-3405
inho	-3406
utions	-3407
▁college	-3408
▁products	-3409
▁transfer	-3410
2,	-3411
▁Su	-3412
orial	-3413
▁Mary	-3414
▁radio	-3415
▁Federal	-3416
▁conserv	-3417
▁schools	-3418
ateg	-3419
illed	-3420
▁norm	-3421
▁Jersey	-3422
▁affected	-3423
term	-3424
heast	-3425
lywood	-3426
▁adding	-3427
▁themselves	-3428
gery	-3429
▁prosecutors	-3430
▁Che	-3431
▁aim	-3432
atory	-3433
orter	-3434
▁Last	-3435
▁band	-3436
▁believes	-3437
▁Four	-3438
▁coal	-3439
▁closed	-3440
oes	-3441
▁pun	-3442
estic	-3443
▁midfielder	-3444
▁GO	-3445
erry	-3446
▁Cap	-3447
▁Chic	-3448
▁Paris	-3449
▁Japanese	-3450
▁disaster	-3451
igan	-3452
sych	-3453
▁huge	-3454
▁Foreign	-3455
▁improve	-3456
▁eth	-3457
ither	-3458
▁Cons	-3459
▁cities	-3460
▁moment	-3461
▁photos	-3462
▁sentenced	-3463
▁additional	-3464
ria	-3465
▁AT	-3466
▁Sri	-3467
NGTON	-3468
useum	-3469
ruption	-3470
▁counter	-3471
▁progress	-3472
ancy	-3473
▁Rec	-3474
▁Phil	-3475
▁competition	-3476
▁unc	-3477
enger	-3478
▁Gaza	-3479
▁tens	-3480
▁facility	-3481
▁maintain	-3482
▁Committee	-3483
aying	-3484
▁prim	-3485
▁Chicago	-3486
▁denied	-3487
ady	-3488
▁35	-3489
▁iP	-3490
▁Dar	-3491
▁WAS	-3492
▁dom	-3493
▁Alex	-3494
▁Chief	-3495
▁fifth	-3496
▁contact	-3497
▁secretary	-3498
add	-3499
ola	-3500
rog	-3501
▁Lank	-3502
▁vess	-3503
linois	-3504
▁giving	-3505
▁regard	-3506
▁challeng	-3507
▁responsible	-3508
mine	-3509
▁Lee	-3510
▁neighborhood	-3511
▁Jim	-3512
▁doub	-3513
▁WASHI	-3514
▁avoid	-3515
▁focus	-3516
▁WASHINGTON	-3517
▁Ali	-3518
▁der	-3519
▁Press	-3520
▁resign	-3521
▁natural	-3522
▁Republicans	-3523
hi	-3524
va	-3525
emb	-3526
▁typ	-3527
▁kept	-3528
▁vers	-3529
▁Liver	-3530
▁expert	-3531
▁joined	-3532
ID	-3533
abwe	-3534
aine	-3535
▁hero	-3536
▁trou	-3537
▁advis	-3538
▁broke	-3539
▁league	-3540
▁raised	-3541
▁contain	-3542
▁quickly	-3543
▁commission	-3544
ani	-3545
▁flo	-3546
▁Zimb	-3547
▁pers	-3548
▁shop	-3549
▁famous	-3550
▁female	-3551
▁rebels	-3552
oted	-3553
▁Bank	-3554
▁cars	-3555
▁Scott	-3556
▁Zimbabwe	-3557
chie	-3558
olic	-3559
▁Stud	-3560
▁cerem	-3561
▁green	-3562
▁dollars	-3563
urd	-3564
▁Ma	-3565
▁semif	-3566
▁attacked	-3567
▁Christian	-3568
30	-3569
7,	-3570
ken	-3571
ode	-3572
▁extra	-3573
▁total	-3574
itarian	-3575
▁negoti	-3576
▁flights	-3577
▁Illinois	-3578
▁Lu	-3579
▁bag	-3580
ammed	-3581
▁increasing	-3582
▁Gre	-3583
udget	-3584
▁histor	-3585
▁straight	-3586
▁immediately	-3587
▁Administration	-3588
adh	-3589
ique	-3590
▁minor	-3591
▁Invest	-3592
▁destroy	-3593
▁stories	-3594
val	-3595
▁tru	-3596
ption	-3597
▁demonstr	-3598
▁pi	-3599
ites	-3600
▁hear	-3601
▁Feder	-3602
▁various	-3603
hered	-3604
▁Ohio	-3605
▁block	-3606
iter	-3607
▁People	-3608
▁Turkey	-3609
▁highest	-3610
▁violent	-3611
▁discovered	-3612
aghd	-3613
iplom	-3614
▁changes	-3615
▁Liverpool	-3616
▁CEO	-3617
▁works	-3618
▁counts	-3619
▁prompt	-3620
▁recomm	-3621
▁details	-3622
▁AC	-3623
agon	-3624
mark	-3625
oper	-3626
▁Pet	-3627
ilome	-3628
water	-3629
▁Canada	-3630
▁doctor	-3631
▁distrib	-3632
▁challenge	-3633
▁religious	-3634
▁Jeff	-3635
▁Woods	-3636
▁tells	-3637
▁arrived	-3638
▁driving	-3639
NA	-3640
▁sym	-3641
▁2008,	-3642
▁Green	-3643
▁serve	-3644
▁surgery	-3645
iling	-3646
▁Carl	-3647
▁idea	-3648
▁surpr	-3649
▁necess	-3650
▁justice	-3651
het	-3652
▁di	-3653
ashion	-3654
illing	-3655
▁Baghd	-3656
▁comment	-3657
▁admitted	-3658
▁opportunity	-3659
▁rape	-3660
00,000	-3661
afi	-3662
▁Pre	-3663
▁Rod	-3664
duced	-3665
▁adop	-3666
▁farm	-3667
▁achie	-3668
▁ensure	-3669
▁beating	-3670
▁surround	-3671
▁Cr	-3672
come	-3673
abama	-3674
▁Frank	-3675
▁Yemen	-3676
▁wrong	-3677
▁annual	-3678
▁debate	-3679
▁parties	-3680
▁Brazilian	-3681
kn	-3682
rag	-3683
▁term	-3684
▁professor	-3685
ero	-3686
win	-3687
▁Don	-3688
▁Mos	-3689
ushed	-3690
▁worst	-3691
▁Tor	-3692
▁Fort	-3693
▁Super	-3694
▁terms	-3695
▁screen	-3696
▁Airport	-3697
▁bott	-3698
makers	-3699
▁suppl	-3700
▁higher	-3701
▁Olympic	-3702
▁District	-3703
▁vehicles	-3704
ami	-3705
▁gre	-3706
▁van	-3707
aries	-3708
oking	-3709
▁propert	-3710
TA	-3711
erve	-3712
iami	-3713
▁Die	-3714
▁2003	-3715
ources	-3716
▁range	-3717
▁spoke	-3718
▁traffic	-3719
▁Officials	-3720
ua	-3721
iga	-3722
▁obs	-3723
▁rules	-3724
11	-3725
ez	-3726
▁longer	-3727
▁experts	-3728
▁offered	-3729
▁warning	-3730
▁determin	-3731
EL	-3732
▁wins	-3733
▁speed	-3734
▁sources	-3735
▁character	-3736
St	-3737
▁US	-3738
▁Kim	-3739
▁Nor	-3740
▁Prot	-3741
▁teac	-3742
lection	-3743
▁commer	-3744
▁places	-3745
▁complete	-3746
▁magazine	-3747
angu	-3748
ennis	-3749
▁dism	-3750
▁Miami	-3751
▁brief	-3752
▁commit	-3753
▁Mem	-3754
▁programs	-3755
urb	-3756
▁BP	-3757
▁model	-3758
▁Rights	-3759
▁addition	-3760
ikh	-3761
▁7-	-3762
mate	-3763
▁Joe	-3764
▁mis	-3765
▁slow	-3766
▁street	-3767
▁Nigeria	-3768
▁domestic	-3769
▁connection	-3770
abe	-3771
▁surf	-3772
astern	-3773
▁lower	-3774
▁users	-3775
▁Alabama	-3776
▁carried	-3777
▁Investig	-3778
▁flooding	-3779
iller	-3780
▁anyone	-3781
dom	-3782
▁Saf	-3783
▁baby	-3784
▁jury	-3785
▁sect	-3786
▁aboard	-3787
ological	-3788
▁Baghdad	-3789
▁committed	-3790
hib	-3791
▁push	-3792
▁seem	-3793
▁related	-3794
4,	-3795
OS	-3796
▁pur	-3797
otten	-3798
range	-3799
▁crack	-3800
▁majority	-3801
▁increased	-3802
like	-3803
▁Comp	-3804
▁Dutch	-3805
▁diplom	-3806
iro	-3807
▁Boy	-3808
▁girls	-3809
nes	-3810
▁FA	-3811
▁Wil	-3812
▁abs	-3813
wards	-3814
while	-3815
▁east	-3816
▁About	-3817
▁Nadal	-3818
▁enter	-3819
▁double	-3820
▁Johnson	-3821
▁chairman	-3822
break	-3823
ground	-3824
verage	-3825
▁worth	-3826
▁Street	-3827
▁ministry	-3828
ze	-3829
eter	-3830
▁Jos	-3831
ender	-3832
▁clin	-3833
▁costs	-3834
▁agents	-3835
▁respect	-3836
dle	-3837
▁Fl	-3838
enez	-3839
▁gay	-3840
▁Serb	-3841
▁actress	-3842
▁records	-3843
▁Mo	-3844
assy	-3845
fire	-3846
long	-3847
▁Jew	-3848
ounts	-3849
▁price	-3850
▁squad	-3851
▁Sheriff	-3852
▁actions	-3853
▁matches	-3854
▁agencies	-3855
bert	-3856
▁bed	-3857
▁bul	-3858
▁har	-3859
▁sea	-3860
▁Navy	-3861
▁whom	-3862
▁growth	-3863
▁matter	-3864
vert	-3865
istic	-3866
▁Many	-3867
▁firm	-3868
▁repe	-3869
▁Times	-3870
▁facing	-3871
▁Palestinian	-3872
▁Rog	-3873
▁Sar	-3874
▁Liber	-3875
vention	-3876
▁Fernand	-3877
▁bi	-3878
▁Cas	-3879
▁Pan	-3880
aging	-3881
▁vice	-3882
▁losing	-3883
▁although	-3884
ini	-3885
joy	-3886
achus	-3887
▁NASA	-3888
▁golf	-3889
▁sports	-3890
▁Cam	-3891
orado	-3892
ructure	-3893
▁moving	-3894
alt	-3895
clus	-3896
▁Diego	-3897
▁Franc	-3898
▁linked	-3899
▁offers	-3900
▁provided	-3901
rim	-3902
arry	-3903
etts	-3904
rize	-3905
unte	-3906
▁drive	-3907
▁sleep	-3908
▁consider	-3909
▁Ok	-3910
icking	-3911
▁owner	-3912
▁psych	-3913
▁Prince	-3914
▁Thomas	-3915
▁extrem	-3916
▁nearby	-3917
achusetts	-3918
▁Hollywood	-3919
▁affiliate	-3920
ares	-3921
irst	-3922
▁ant	-3923
arily	-3924
▁drop	-3925
▁Judge	-3926
▁associ	-3927
▁middle	-3928
▁politic	-3929
▁designed	-3930
▁revealed	-3931
▁insurance	-3932
EN	-3933
fl	-3934
rap	-3935
iple	-3936
oses	-3937
▁ran	-3938
iance	-3939
▁Step	-3940
▁rate	-3941
▁ways	-3942
▁tests	-3943
▁Federer	-3944
▁ability	-3945
▁critical	-3946
▁Jon	-3947
▁hor	-3948
▁und	-3949
astic	-3950
▁bail	-3951
▁stars	-3952
known	-3953
▁examp	-3954
▁waters	-3955
▁eastern	-3956
▁holding	-3957
rey	-3958
▁Mot	-3959
eeper	-3960
▁dropped	-3961
▁comments	-3962
emy	-3963
▁90	-3964
abin	-3965
iles	-3966
ipped	-3967
▁aware	-3968
▁70	-3969
▁Tom	-3970
▁hum	-3971
▁withd	-3972
DA	-3973
▁bid	-3974
▁arch	-3975
▁However	-3976
▁serving	-3977
▁declared	-3978
no	-3979
een	-3980
▁Bol	-3981
▁unf	-3982
adhafi	-3983
▁behav	-3984
▁carry	-3985
▁prior	-3986
▁measures	-3987
▁candidate	-3988
▁bin	-3989
▁cal	-3990
inger	-3991
▁born	-3992
▁mind	-3993
▁toll	-3994
▁Apple	-3995
▁Chile	-3996
▁drink	-3997
▁rivals	-3998
▁partners	-3999
▁powerful	-4000
▁successful	-4001
▁responsibility	-4002
cher	-4003
ibly	-4004
iest	-4005
▁GOP	-4006
▁Raf	-4007
▁Pent	-4008
▁felt	-4009
▁encou	-4010
▁voters	-4011
▁estimated	-4012
▁personnel	-4013
9,	-4014
burg	-4015
▁Mel	-4016
ctions	-4017
▁Earth	-4018
▁Portug	-4019
▁headed	-4020
▁kilome	-4021
▁committee	-4022
▁involving	-4023
▁Massachusetts	-4024
agn	-4025
▁thr	-4026
asons	-4027
ufact	-4028
▁Gold	-4029
jected	-4030
▁Ocean	-4031
▁raise	-4032
▁organizations	-4033
If	-4034
▁(1	-4035
ader	-4036
omen	-4037
reng	-4038
▁wall	-4039
▁exist	-4040
▁probably	-4041
gn	-4042
unk	-4043
ding	-4044
hold	-4045
uing	-4046
▁runs	-4047
▁experi	-4048
▁Indones	-4049
▁airline	-4050
▁analyst	-4051
ka	-4052
ala	-4053
fort	-4054
hing	-4055
lvan	-4056
▁sets	-4057
▁Peter	-4058
▁enjoy	-4059
▁asking	-4060
▁climate	-4061
▁pirates	-4062
▁ceremony	-4063
aden	-4064
▁Tim	-4065
ashes	-4066
▁shel	-4067
sylvan	-4068
▁Child	-4069
▁trade	-4070
ression	-4071
ha	-4072
rip	-4073
▁80	-4074
▁Hen	-4075
▁Rock	-4076
▁save	-4077
▁ready	-4078
itation	-4079
▁Church	-4080
▁budget	-4081
▁caught	-4082
▁Airlines	-4083
▁Ac	-4084
oyal	-4085
▁exch	-4086
▁gone	-4087
▁Libya	-4088
▁looked	-4089
▁warned	-4090
▁attempted	-4091
▁corruption	-4092
▁particularly	-4093
▁Shar	-4094
▁fine	-4095
▁gets	-4096
▁sens	-4097
▁above	-4098
▁evacu	-4099
▁lines	-4100
▁scores	-4101
▁dangerous	-4102
▁investigating	-4103
cy	-4104
ih	-4105
ply	-4106
body	-4107
▁arms	-4108
▁cast	-4109
▁relief	-4110
sylvania	-4111
▁century	-4112
▁request	-4113
▁Pentagon	-4114
▁computer	-4115
▁$4	-4116
asts	-4117
born	-4118
▁wel	-4119
urray	-4120
▁spir	-4121
▁remark	-4122
▁Medical	-4123
▁wearing	-4124
▁previously	-4125
ER	-4126
▁independent	-4127
▁Mean	-4128
▁wasn	-4129
minute	-4130
nowled	-4131
▁Beach	-4132
▁Daniel	-4133
▁Central	-4134
▁continues	-4135
iqu	-4136
hips	-4137
overy	-4138
▁plot	-4139
▁rule	-4140
▁joint	-4141
▁spill	-4142
▁winds	-4143
▁credit	-4144
▁immigration	-4145
turn	-4146
▁cash	-4147
▁agent	-4148
earchers	-4149
▁concern	-4150
▁approach	-4151
▁determine	-4152
ugg	-4153
▁33	-4154
cing	-4155
▁1-0	-4156
▁Dub	-4157
5,000	-4158
eless	-4159
▁Vict	-4160
▁stopped	-4161
▁captured	-4162
▁defender	-4163
▁terrorism	-4164
▁humanitarian	-4165
▁ult	-4166
▁suit	-4167
▁react	-4168
▁Murray	-4169
▁owners	-4170
ipe	-4171
▁Tay	-4172
▁dig	-4173
▁Organ	-4174
▁starting	-4175
▁leadership	-4176
▁throughout	-4177
▁controversial	-4178
Pr	-4179
iano	-4180
▁Osc	-4181
▁Van	-4182
▁Wall	-4183
▁knew	-4184
▁trib	-4185
▁lived	-4186
▁Gadhafi	-4187
▁receive	-4188
▁kilometers	-4189
▁Pennsylvania	-4190
set	-4191
▁Sun	-4192
▁Win	-4193
▁ang	-4194
▁nar	-4195
▁intro	-4196
▁sixth	-4197
▁pounds	-4198
▁rather	-4199
yr	-4200
ume	-4201
▁hy	-4202
nedy	-4203
resp	-4204
▁date	-4205
▁built	-4206
ictions	-4207
▁soldier	-4208
▁supplies	-4209
aped	-4210
▁ice	-4211
▁mist	-4212
▁Somali	-4213
▁prices	-4214
▁concerned	-4215
gen	-4216
ayer	-4217
▁ver	-4218
▁Cath	-4219
▁visitors	-4220
apt	-4221
▁Dr	-4222
▁Jul	-4223
▁lab	-4224
▁urg	-4225
icate	-4226
▁deploy	-4227
▁Kennedy	-4228
▁Western	-4229
▁regular	-4230
▁property	-4231
▁Meanwhile	-4232
▁activities	-4233
▁challenges	-4234
bo	-4235
arez	-4236
▁2002	-4237
▁status	-4238
▁coup	-4239
▁honor	-4240
coh	-4241
imul	-4242
▁Cal	-4243
▁Haw	-4244
▁pair	-4245
▁sust	-4246
▁spark	-4247
imately	-4248
▁obtain	-4249
cknowled	-4250
▁Institute	-4251
▁prosecutor	-4252
▁Mer	-4253
field	-4254
ronic	-4255
▁Most	-4256
▁Leban	-4257
▁deputy	-4258
▁images	-4259
▁pulled	-4260
▁surviv	-4261
▁congress	-4262
▁manufact	-4263
▁conducted	-4264
▁providing	-4265
▁ic	-4266
oned	-4267
▁Det	-4268
▁Pri	-4269
▁Ray	-4270
▁funds	-4271
▁sales	-4272
▁Despite	-4273
▁culture	-4274
▁volunte	-4275
▁Colorado	-4276
▁planning	-4277
▁eventually	-4278
▁threatened	-4279
ko	-4280
ager	-4281
life	-4282
▁2-0	-4283
lands	-4284
▁page	-4285
coming	-4286
elling	-4287
reland	-4288
▁blast	-4289
▁sense	-4290
related	-4291
▁acknowled	-4292
8,	-4293
▁Mah	-4294
▁streng	-4295
icip	-4296
▁10-	-4297
▁Mun	-4298
ordin	-4299
▁prem	-4300
ighter	-4301
isions	-4302
▁advoc	-4303
▁names	-4304
▁Ireland	-4305
▁Tenness	-4306
▁behavior	-4307
5,	-4308
TV	-4309
rah	-4310
▁Jo	-4311
nder	-4312
▁Den	-4313
ograp	-4314
▁goes	-4315
▁equip	-4316
▁Prosecut	-4317
▁civilian	-4318
▁positive	-4319
▁Soc	-4320
▁Tra	-4321
▁beg	-4322
▁emot	-4323
▁gang	-4324
▁purch	-4325
▁signs	-4326
▁tough	-4327
▁affect	-4328
▁figure	-4329
▁greater	-4330
▁married	-4331
▁numbers	-4332
▁ongoing	-4333
▁anything	-4334
▁coalition	-4335
IV	-4336
▁Os	-4337
argo	-4338
▁Bah	-4339
▁grad	-4340
▁rare	-4341
▁west	-4342
▁Found	-4343
▁Gates	-4344
▁oppon	-4345
▁cannot	-4346
▁secret	-4347
▁systems	-4348
▁appearance	-4349
ander	-4350
▁Conn	-4351
▁task	-4352
▁urged	-4353
▁either	-4354
▁Pacific	-4355
▁fashion	-4356
▁Tennessee	-4357
hy	-4358
ogle	-4359
▁Com	-4360
▁Spe	-4361
▁arg	-4362
▁pet	-4363
board	-4364
▁Asia	-4365
▁Asian	-4366
▁sound	-4367
▁voice	-4368
▁dozens	-4369
▁remember	-4370
▁journalists	-4371
rad	-4372
▁36	-4373
▁Gl	-4374
▁Sea	-4375
anded	-4376
▁Canad	-4377
▁constitution	-4378
yl	-4379
▁san	-4380
▁blog	-4381
▁fair	-4382
▁onto	-4383
▁tank	-4384
▁sides	-4385
▁spend	-4386
▁Public	-4387
▁amount	-4388
▁proced	-4389
▁reduce	-4390
▁secure	-4391
▁conspir	-4392
▁sending	-4393
▁treated	-4394
▁apparently	-4395
▁reportedly	-4396
▁32	-4397
fect	-4398
oral	-4399
uals	-4400
▁Bob	-4401
▁wid	-4402
ropri	-4403
ullah	-4404
▁fled	-4405
▁wide	-4406
athered	-4407
▁sheriff	-4408
▁finished	-4409
▁equipment	-4410
▁everything	-4411
lims	-4412
racy	-4413
sequ	-4414
There	-4415
acing	-4416
itude	-4417
▁Cast	-4418
▁argu	-4419
rators	-4420
▁2007,	-4421
▁Venez	-4422
▁destroyed	-4423
aith	-4424
ouri	-4425
▁Cuba	-4426
▁exerc	-4427
▁items	-4428
▁combat	-4429
▁resources	-4430
▁traveling	-4431
▁professional	-4432
do	-4433
▁sil	-4434
ansas	-4435
attle	-4436
▁Swed	-4437
▁flag	-4438
▁paper	-4439
▁Earlier	-4440
▁require	-4441
▁Venezuel	-4442
mas	-4443
▁cop	-4444
▁daily	-4445
▁devast	-4446
▁sister	-4447
▁suffering	-4448
▁Iv	-4449
▁Ut	-4450
▁fan	-4451
house	-4452
▁Nort	-4453
▁lose	-4454
▁ones	-4455
▁purs	-4456
▁Chris	-4457
▁goalk	-4458
▁traff	-4459
agement	-4460
▁Bayern	-4461
▁finding	-4462
▁suggest	-4463
▁practice	-4464
oli	-4465
icts	-4466
raud	-4467
▁Sand	-4468
▁Kenya	-4469
▁firef	-4470
▁image	-4471
▁photo	-4472
▁average	-4473
▁changed	-4474
▁showing	-4475
▁activity	-4476
▁Francisco	-4477
ba	-4478
hens	-4479
idel	-4480
eland	-4481
mates	-4482
▁mach	-4483
▁pret	-4484
Prince	-4485
▁brain	-4486
▁giant	-4487
▁beaten	-4488
▁seeing	-4489
▁reality	-4490
▁refused	-4491
▁seconds	-4492
▁Michigan	-4493
▁production	-4494
▁communities	-4495
bon	-4496
sex	-4497
▁Kn	-4498
▁Mu	-4499
aria	-4500
izes	-4501
▁Google	-4502
▁regime	-4503
▁bombing	-4504
▁western	-4505
▁Dis	-4506
▁Fil	-4507
apers	-4508
▁labor	-4509
▁restr	-4510
▁worldwide	-4511
,'	-4512
ols	-4513
acts	-4514
▁din	-4515
itzer	-4516
antage	-4517
▁films	-4518
▁Andrew	-4519
imum	-4520
quar	-4521
ellow	-4522
ijing	-4523
iring	-4524
▁Bern	-4525
▁corn	-4526
▁youth	-4527
▁mobile	-4528
▁stimul	-4529
▁favorite	-4530
▁necessary	-4531
▁commercial	-4532
▁FI	-4533
▁Gh	-4534
icit	-4535
▁Ver	-4536
▁2011	-4537
vement	-4538
▁Dubai	-4539
▁regul	-4540
anguage	-4541
ologist	-4542
▁Taylor	-4543
▁placed	-4544
▁talking	-4545
sun	-4546
ube	-4547
▁2-1	-4548
▁tort	-4549
▁vacc	-4550
▁grant	-4551
▁motor	-4552
▁condem	-4553
▁refuge	-4554
▁version	-4555
▁presence	-4556
▁Transport	-4557
▁31	-4558
▁Kat	-4559
▁Sil	-4560
▁decade	-4561
▁Beijing	-4562
▁example	-4563
▁nothing	-4564
▁buildings	-4565
▁assistance	-4566
▁Met	-4567
▁deg	-4568
▁mix	-4569
▁quake	-4570
▁Rafael	-4571
▁sought	-4572
▁criticism	-4573
▁construction	-4574
aska	-4575
haps	-4576
▁God	-4577
month	-4578
owers	-4579
▁Andy	-4580
▁Year	-4581
▁jump	-4582
▁confirm	-4583
▁illness	-4584
▁shortly	-4585
▁Hospital	-4586
▁Now	-4587
▁bom	-4588
oston	-4589
state	-4590
▁door	-4591
▁Steve	-4592
▁Watch	-4593
▁severe	-4594
▁Muslims	-4595
▁Interior	-4596
▁killings	-4597
▁politics	-4598
▁produced	-4599
▁recovery	-4600
▁announcement	-4601
resh	-4602
ureau	-4603
▁deadly	-4604
▁electric	-4605
erg	-4606
nic	-4607
cont	-4608
ties	-4609
leans	-4610
▁debut	-4611
entially	-4612
government	-4613
▁goalkeeper	-4614
▁kidnapping	-4615
▁traditional	-4616
ardo	-4617
▁Palin	-4618
▁virus	-4619
▁itself	-4620
▁propos	-4621
▁temper	-4622
▁coverage	-4623
▁gathered	-4624
▁businesses	-4625
▁HIV	-4626
cohol	-4627
pping	-4628
rated	-4629
▁Mont	-4630
▁domin	-4631
▁pleaded	-4632
▁detained	-4633
aval	-4634
▁Zeal	-4635
▁chem	-4636
▁books	-4637
▁clash	-4638
▁comed	-4639
▁During	-4640
▁Hillary	-4641
▁attract	-4642
▁helicopter	-4643
▁Lew	-4644
alled	-4645
ickets	-4646
ocracy	-4647
▁gives	-4648
▁mayor	-4649
▁origin	-4650
▁dismiss	-4651
▁Not	-4652
▁Roman	-4653
ification	-4654
▁Canadian	-4655
▁physical	-4656
▁quarterf	-4657
oren	-4658
sein	-4659
▁cat	-4660
▁isn	-4661
▁Fire	-4662
▁steps	-4663
▁words	-4664
▁Direct	-4665
▁Orleans	-4666
▁Ronaldo	-4667
▁overall	-4668
▁testing	-4669
▁customers	-4670
▁suspended	-4671
hour	-4672
nest	-4673
ware	-4674
▁bird	-4675
▁Turkish	-4676
▁finally	-4677
▁benefits	-4678
▁everyone	-4679
▁proposed	-4680
▁Christmas	-4681
▁protection	-4682
▁restaurant	-4683
▁conservative	-4684
▁Far	-4685
▁arm	-4686
▁cas	-4687
andal	-4688
▁Mour	-4689
▁dark	-4690
▁answer	-4691
▁cancel	-4692
▁entered	-4693
▁assistant	-4694
ked	-4695
ura	-4696
▁Hou	-4697
▁ele	-4698
elled	-4699
▁Beck	-4700
▁panel	-4701
▁citing	-4702
▁policies	-4703
tle	-4704
▁Dj	-4705
▁Fel	-4706
quare	-4707
▁kick	-4708
irates	-4709
▁Lanka	-4710
▁Southern	-4711
▁outbreak	-4712
▁Pot	-4713
▁Rad	-4714
▁sun	-4715
level	-4716
▁aimed	-4717
▁insurg	-4718
▁normal	-4719
▁Hurricane	-4720
▁operating	-4721
6,	-4722
▁Ag	-4723
▁Id	-4724
▁Ne	-4725
lets	-4726
▁rise	-4727
▁Ahmad	-4728
▁princ	-4729
▁recru	-4730
▁Boston	-4731
▁bringing	-4732
▁advantage	-4733
▁individual	-4734
Rep	-4735
onn	-4736
oner	-4737
rast	-4738
uild	-4739
▁Ram	-4740
ading	-4741
▁1990	-4742
▁Foot	-4743
▁Oscar	-4744
▁pregn	-4745
▁broken	-4746
▁legend	-4747
▁failure	-4748
▁measure	-4749
▁multiple	-4750
▁offering	-4751
EA	-4752
zz	-4753
igg	-4754
agan	-4755
▁fly	-4756
rison	-4757
▁Bang	-4758
▁learn	-4759
▁touch	-4760
▁Safety	-4761
▁Valley	-4762
▁threats	-4763
▁prepared	-4764
▁300	-4765
ented	-4766
▁Peru	-4767
▁note	-4768
ternal	-4769
▁Famil	-4770
▁apolog	-4771
▁survey	-4772
▁complex	-4773
▁damaged	-4774
▁Although	-4775
▁projects	-4776
▁immediate	-4777
lah	-4778
▁Er	-4779
well	-4780
▁Nic	-4781
▁bit	-4782
▁looks	-4783
▁meant	-4784
▁noted	-4785
▁Commun	-4786
▁finish	-4787
▁appears	-4788
▁Mohammed	-4789
den	-4790
ext	-4791
pper	-4792
▁Mug	-4793
▁fal	-4794
▁jet	-4795
ordan	-4796
▁Hall	-4797
▁alive	-4798
▁boost	-4799
▁banned	-4800
▁depart	-4801
▁veteran	-4802
▁village	-4803
▁original	-4804
▁candidates	-4805
ippi	-4806
ully	-4807
▁Fin	-4808
▁Laden	-4809
▁Morgan	-4810
▁gather	-4811
▁learned	-4812
▁disappear	-4813
▁Government	-4814
▁legislation	-4815
bl	-4816
rier	-4817
road	-4818
▁wed	-4819
itary	-4820
▁Since	-4821
▁Columb	-4822
▁mental	-4823
▁Charles	-4824
▁freedom	-4825
▁quality	-4826
▁telling	-4827
▁messages	-4828
▁remained	-4829
▁Abu	-4830
▁Hond	-4831
▁Hong	-4832
▁Test	-4833
▁debt	-4834
ective	-4835
isters	-4836
▁subst	-4837
▁Mourinho	-4838
▁determined	-4839
iar	-4840
ils	-4841
▁($	-4842
iced	-4843
▁Mag	-4844
▁Kong	-4845
▁Matt	-4846
▁male	-4847
ailand	-4848
etimes	-4849
▁Other	-4850
▁floor	-4851
▁guard	-4852
▁Flight	-4853
▁acting	-4854
▁Zealand	-4855
▁Thailand	-4856
▁mountain	-4857
20	-4858
▁Im	-4859
rong	-4860
▁tie	-4861
ester	-4862
▁boys	-4863
▁else	-4864
▁fraud	-4865
▁territ	-4866
▁vessel	-4867
▁environmental	-4868
7-	-4869
asc	-4870
iat	-4871
irt	-4872
▁Ol	-4873
▁ties	-4874
▁upon	-4875
lected	-4876
▁robber	-4877
▁animals	-4878
▁housing	-4879
▁allowing	-4880
egas	-4881
▁20-	-4882
lined	-4883
lahoma	-4884
sunami	-4885
▁1,000	-4886
▁initi	-4887
▁score	-4888
▁mostly	-4889
▁partner	-4890
▁Are	-4891
▁Hay	-4892
▁FIFA	-4893
▁soft	-4894
▁Anton	-4895
▁holid	-4896
▁speak	-4897
▁Catholic	-4898
▁Colombia	-4899
▁required	-4900
▁passenger	-4901
▁returning	-4902
▁photograph	-4903
ray	-4904
▁Nev	-4905
▁Ros	-4906
▁hij	-4907
athan	-4908
▁acts	-4909
▁Jones	-4910
issippi	-4911
▁altern	-4912
▁highly	-4913
iversary	-4914
▁Houston	-4915
▁writing	-4916
▁separate	-4917
▁Foundation	-4918
pan	-4919
▁Sol	-4920
▁unl	-4921
anced	-4922
ports	-4923
umbai	-4924
▁Ferr	-4925
▁Food	-4926
▁Spec	-4927
▁2009,	-4928
▁Hamas	-4929
▁Lewis	-4930
▁faced	-4931
▁Football	-4932
▁Oklahoma	-4933
He	-4934
ids	-4935
pts	-4936
rie	-4937
▁Ev	-4938
hone	-4939
▁pra	-4940
aling	-4941
▁Star	-4942
▁trop	-4943
▁Mount	-4944
▁conclud	-4945
▁Fernando	-4946
▁audience	-4947
ux	-4948
▁Wal	-4949
ilipp	-4950
▁hurt	-4951
▁stem	-4952
ointed	-4953
▁frequ	-4954
▁resol	-4955
▁Jordan	-4956
▁Mumbai	-4957
▁blamed	-4958
▁device	-4959
▁material	-4960
80	-4961
▁$5	-4962
kins	-4963
mond	-4964
▁Mess	-4965
▁true	-4966
▁whole	-4967
▁movies	-4968
▁comfort	-4969
▁landing	-4970
▁activists	-4971
▁management	-4972
▁Mississippi	-4973
▁0	-4974
▁Bur	-4975
▁die	-4976
▁ess	-4977
▁eye	-4978
maker	-4979
▁happy	-4980
estival	-4981
▁selling	-4982
▁Maryland	-4983
▁apartment	-4984
▁Way	-4985
▁hun	-4986
▁Club	-4987
▁unit	-4988
profit	-4989
▁First	-4990
▁artic	-4991
▁exact	-4992
▁Arabia	-4993
▁Michel	-4994
▁seized	-4995
▁tempor	-4996
▁explosion	-4997
▁criticized	-4998
▁anniversary	-4999
de	-5000
aug	-5001
bit	-5002
oked	-5003
rawn	-5004
▁tal	-5005
▁wond	-5006
employ	-5007
▁union	-5008
▁Mugabe	-5009
▁native	-5010
▁putting	-5011
▁features	-5012
▁provides	-5013
IC	-5014
rig	-5015
▁Art	-5016
▁Mac	-5017
▁Rel	-5018
aming	-5019
▁Davis	-5020
▁Games	-5021
▁alert	-5022
▁lands	-5023
▁shock	-5024
▁Carlos	-5025
▁monitor	-5026
▁approved	-5027
▁establish	-5028
▁Ty	-5029
unch	-5030
▁Fab	-5031
▁Ter	-5032
▁abduct	-5033
▁subject	-5034
▁compared	-5035
▁exchange	-5036
▁influence	-5037
▁immigrants	-5038
pre	-5039
ayers	-5040
▁Lake	-5041
▁Crist	-5042
▁Maria	-5043
▁Mayor	-5044
▁colle	-5045
▁equal	-5046
▁Minnes	-5047
▁rising	-5048
▁scoring	-5049
▁stimulus	-5050
▁journalist	-5051
town	-5052
▁ath	-5053
▁rub	-5054
▁Good	-5055
anging	-5056
▁Vegas	-5057
▁arrests	-5058
▁causing	-5059
▁lawsuit	-5060
▁completed	-5061
▁Organization	-5062
▁34	-5063
▁44	-5064
▁500	-5065
▁Rev	-5066
asket	-5067
ategy	-5068
owell	-5069
right	-5070
▁2001	-5071
▁Cole	-5072
▁Roger	-5073
▁camera	-5074
▁simply	-5075
▁contest	-5076
▁stadium	-5077
▁warrant	-5078
▁creating	-5079
▁Minnesota	-5080
▁scientists	-5081
▁governments	-5082
▁Investigators	-5083
aya	-5084
iki	-5085
oph	-5086
▁Las	-5087
▁bra	-5088
▁via	-5089
▁Long	-5090
▁blue	-5091
▁route	-5092
viation	-5093
▁allows	-5094
▁society	-5095
▁visited	-5096
adel	-5097
▁11,	-5098
▁bal	-5099
▁row	-5100
asion	-5101
▁Juan	-5102
▁wake	-5103
ension	-5104
▁false	-5105
▁detain	-5106
▁picture	-5107
▁repeated	-5108
▁university	-5109
ae	-5110
sl	-5111
esc	-5112
▁By	-5113
ELES	-5114
roll	-5115
▁ANG	-5116
▁LOS	-5117
▁coc	-5118
▁ign	-5119
▁1980	-5120
▁tear	-5121
▁faith	-5122
▁buried	-5123
▁Another	-5124
▁withdraw	-5125
▁beginning	-5126
aked	-5127
▁195	-5128
▁Sur	-5129
▁ded	-5130
▁mos	-5131
▁Mike	-5132
▁Ryan	-5133
▁Scot	-5134
▁hair	-5135
▁Charl	-5136
▁Clark	-5137
▁fresh	-5138
▁estate	-5139
▁ANGELES	-5140
▁figures	-5141
▁Missouri	-5142
nam	-5143
▁CIA	-5144
▁Reg	-5145
▁Post	-5146
▁mort	-5147
▁opin	-5148
▁sail	-5149
orders	-5150
▁belong	-5151
▁modern	-5152
▁summit	-5153
▁science	-5154
▁expressed	-5155
▁45	-5156
▁rap	-5157
▁2000	-5158
▁gain	-5159
▁Civil	-5160
▁Marine	-5161
▁unable	-5162
▁primary	-5163
▁Atlantic	-5164
▁featured	-5165
You	-5166
▁fix	-5167
▁meth	-5168
iation	-5169
▁Phill	-5170
▁Robin	-5171
▁Syria	-5172
▁located	-5173
▁waiting	-5174
▁Services	-5175
▁Ir	-5176
rang	-5177
uana	-5178
▁Cop	-5179
abeth	-5180
pread	-5181
upted	-5182
▁cuts	-5183
▁rival	-5184
▁couldn	-5185
▁collaps	-5186
▁effects	-5187
▁lawyers	-5188
▁package	-5189
aka	-5190
avi	-5191
imin	-5192
ously	-5193
▁pled	-5194
▁ethnic	-5195
idespread	-5196
▁targeted	-5197
▁Indonesia	-5198
owed	-5199
▁Ban	-5200
▁lic	-5201
itors	-5202
▁plays	-5203
▁rough	-5204
▁flying	-5205
▁drivers	-5206
▁founder	-5207
▁lawmakers	-5208
rec	-5209
▁Hot	-5210
▁mer	-5211
▁tow	-5212
▁uns	-5213
▁Both	-5214
▁Utah	-5215
▁diss	-5216
assador	-5217
▁Steven	-5218
▁weight	-5219
▁charity	-5220
ta	-5221
▁autom	-5222
▁bombs	-5223
▁dream	-5224
▁shown	-5225
▁value	-5226
▁stores	-5227
▁funding	-5228
▁largely	-5229
▁Children	-5230
▁historic	-5231
▁Vi	-5232
erous	-5233
isher	-5234
▁king	-5235
▁sale	-5236
▁rebel	-5237
ections	-5238
▁Juarez	-5239
▁suspic	-5240
▁express	-5241
▁trapped	-5242
▁willing	-5243
▁location	-5244
▁prompted	-5245
▁broadcast	-5246
▁remaining	-5247
▁Transportation	-5248
jad	-5249
lus	-5250
▁Slo	-5251
▁Tre	-5252
▁Why	-5253
▁max	-5254
amine	-5255
▁Djok	-5256
▁Viet	-5257
▁zone	-5258
ortion	-5259
▁Board	-5260
▁Sarah	-5261
▁seats	-5262
▁editor	-5263
▁meters	-5264
▁supply	-5265
▁setting	-5266
▁usually	-5267
▁individuals	-5268
dog	-5269
iny	-5270
▁2,	-5271
▁Az	-5272
yond	-5273
▁6-3	-5274
▁Teh	-5275
▁roll	-5276
▁Camer	-5277
▁votes	-5278
▁beyond	-5279
▁Philipp	-5280
▁alcohol	-5281
▁Director	-5282
▁Djokovic	-5283
▁Olympics	-5284
▁Research	-5285
▁militant	-5286
▁conspiracy	-5287
▁controversy	-5288
ycle	-5289
▁Ash	-5290
venth	-5291
▁scen	-5292
ijuana	-5293
placed	-5294
▁agree	-5295
▁fears	-5296
▁reven	-5297
▁Report	-5298
▁proper	-5299
▁Journal	-5300
▁signing	-5301
▁younger	-5302
▁fighters	-5303
▁refugees	-5304
LA	-5305
dd	-5306
azi	-5307
enty	-5308
▁mph	-5309
▁Camb	-5310
▁size	-5311
istered	-5312
▁incidents	-5313
ads	-5314
abad	-5315
olit	-5316
▁Fre	-5317
▁Gib	-5318
▁Hel	-5319
▁hat	-5320
▁feed	-5321
ropriate	-5322
▁Egyptian	-5323
▁intended	-5324
▁developed	-5325
ORK	-5326
▁3-	-5327
oting	-5328
▁dram	-5329
▁heav	-5330
▁icon	-5331
ipping	-5332
lished	-5333
▁2006,	-5334
▁Latin	-5335
▁brand	-5336
▁divor	-5337
▁inches	-5338
▁tsunami	-5339
▁traveled	-5340
▁prisoners	-5341
As	-5342
esl	-5343
▁Gal	-5344
▁YORK	-5345
▁Harry	-5346
▁views	-5347
▁Libyan	-5348
▁removed	-5349
▁scandal	-5350
▁struggling	-5351
▁Jer	-5352
▁hal	-5353
ables	-5354
ademy	-5355
nings	-5356
▁Well	-5357
▁easy	-5358
▁seat	-5359
▁tied	-5360
▁wood	-5361
othing	-5362
▁clubs	-5363
▁dozen	-5364
▁rates	-5365
▁animal	-5366
▁iPhone	-5367
▁Connect	-5368
▁devices	-5369
▁plastic	-5370
▁memorial	-5371
▁sometimes	-5372
ima	-5373
ito	-5374
rial	-5375
▁Live	-5376
▁uses	-5377
▁Tiger	-5378
▁banks	-5379
▁loved	-5380
▁Munich	-5381
▁circum	-5382
▁earned	-5383
▁museum	-5384
▁content	-5385
▁strategy	-5386
▁semifinal	-5387
▁developing	-5388
allas	-5389
▁iRep	-5390
▁swim	-5391
▁wars	-5392
inejad	-5393
ulated	-5394
▁adopt	-5395
▁liber	-5396
▁planes	-5397
▁covered	-5398
▁elected	-5399
▁perhaps	-5400
▁Prosecutors	-5401
▁Du	-5402
abul	-5403
ucky	-5404
▁Ann	-5405
▁Nap	-5406
usted	-5407
▁Cross	-5408
ecutive	-5409
▁artist	-5410
▁fought	-5411
▁hoping	-5412
▁houses	-5413
▁spirit	-5414
▁titles	-5415
▁becoming	-5416
▁relatives	-5417
uma	-5418
▁$6	-5419
▁lay	-5420
▁stun	-5421
▁cited	-5422
▁ships	-5423
▁Nevada	-5424
▁indict	-5425
▁coordin	-5426
▁unemploy	-5427
▁watching	-5428
▁standards	-5429
ga	-5430
▁Shi	-5431
▁Emer	-5432
▁Kurd	-5433
▁dogs	-5434
▁eyes	-5435
▁pool	-5436
weight	-5437
▁Daily	-5438
▁Tehran	-5439
▁shared	-5440
▁wealth	-5441
▁possibly	-5442
DC	-5443
icut	-5444
▁Mir	-5445
▁Doct	-5446
▁harm	-5447
▁word	-5448
▁Henry	-5449
▁leads	-5450
▁piece	-5451
quarters	-5452
▁consult	-5453
▁proceed	-5454
▁pictures	-5455
▁producer	-5456
▁demonstrators	-5457
▁Exp	-5458
▁boss	-5459
▁cool	-5460
angers	-5461
▁beach	-5462
▁below	-5463
▁songs	-5464
▁Alaska	-5465
▁missed	-5466
▁retire	-5467
▁reasons	-5468
▁regarding	-5469
▁widespread	-5470
yo	-5471
aro	-5472
▁ir	-5473
elly	-5474
star	-5475
▁194	-5476
▁Luc	-5477
▁Tun	-5478
isted	-5479
▁Form	-5480
uction	-5481
▁complaint	-5482
▁effective	-5483
▁witnesses	-5484
▁surrounding	-5485
Ch	-5486
▁DNA	-5487
▁Five	-5488
▁Ford	-5489
▁aren	-5490
▁type	-5491
acking	-5492
▁color	-5493
▁overs	-5494
▁rocket	-5495
▁winter	-5496
▁fishing	-5497
▁limited	-5498
▁rescued	-5499
▁claiming	-5500
▁regional	-5501
▁Ahmadinejad	-5502
FL	-5503
▁Bow	-5504
▁Nob	-5505
ledge	-5506
phone	-5507
▁lady	-5508
atures	-5509
▁Abdul	-5510
▁Serie	-5511
ography	-5512
▁tennis	-5513
▁convers	-5514
▁initial	-5515
▁identify	-5516
▁receiving	-5517
▁terrorists	-5518
▁Connecticut	-5519
▁established	-5520
▁politicians	-5521
aze	-5522
azz	-5523
▁Ke	-5524
▁Kl	-5525
atri	-5526
▁6-4	-5527
▁Six	-5528
▁Wat	-5529
point	-5530
▁gall	-5531
▁stab	-5532
▁Casey	-5533
▁alone	-5534
▁Square	-5535
▁handed	-5536
▁perfect	-5537
▁entertain	-5538
▁recovered	-5539
▁championship	-5540
cow	-5541
ien	-5542
wan	-5543
fall	-5544
▁blow	-5545
▁loan	-5546
▁wave	-5547
▁Program	-5548
▁focused	-5549
▁Northern	-5550
▁specific	-5551
▁administr	-5552
▁offensive	-5553
▁reporting	-5554
TS	-5555
ella	-5556
rect	-5557
reek	-5558
▁Eth	-5559
▁wre	-5560
▁Vice	-5561
▁hits	-5562
ecause	-5563
▁Space	-5564
▁fully	-5565
▁troub	-5566
▁choice	-5567
herlands	-5568
▁greatest	-5569
▁language	-5570
▁suggested	-5571
iri	-5572
war	-5573
▁$7	-5574
icks	-5575
icine	-5576
▁Belg	-5577
▁flee	-5578
▁plat	-5579
▁plea	-5580
▁rein	-5581
▁ring	-5582
▁weak	-5583
▁seems	-5584
izabeth	-5585
▁walked	-5586
▁meaning	-5587
▁breaking	-5588
▁commander	-5589
▁supporting	-5590
BS	-5591
deg	-5592
ias	-5593
▁Ts	-5594
more	-5595
▁NBA	-5596
▁Jenn	-5597
▁Work	-5598
strong	-5599
▁Larry	-5600
▁shots	-5601
▁throw	-5602
▁decide	-5603
▁satell	-5604
fur	-5605
apse	-5606
ohan	-5607
phia	-5608
rich	-5609
usal	-5610
weet	-5611
▁Old	-5612
osure	-5613
▁2012	-5614
▁guns	-5615
▁path	-5616
▁Under	-5617
▁overse	-5618
▁pretty	-5619
▁stress	-5620
▁thanks	-5621
▁widely	-5622
adelphia	-5623
▁Masters	-5624
▁complet	-5625
▁concert	-5626
▁council	-5627
▁sparked	-5628
▁alongside	-5629
▁Bu	-5630
Tube	-5631
elta	-5632
outs	-5633
▁Hus	-5634
▁McL	-5635
enses	-5636
▁From	-5637
▁acqu	-5638
▁pull	-5639
ulture	-5640
▁Corps	-5641
▁Laure	-5642
▁crown	-5643
▁helps	-5644
▁stret	-5645
▁remote	-5646
▁cartels	-5647
▁activist	-5648
▁standing	-5649
▁resolution	-5650
▁Netherlands	-5651
▁disappeared	-5652
▁UN	-5653
▁Glo	-5654
▁Men	-5655
▁hall	-5656
▁symb	-5657
abinet	-5658
degree	-5659
▁Cuban	-5660
▁Jewish	-5661
▁Social	-5662
▁adults	-5663
▁happen	-5664
▁larger	-5665
▁YouTube	-5666
▁produce	-5667
▁sitting	-5668
▁cultural	-5669
▁recording	-5670
uct	-5671
What	-5672
acht	-5673
▁Jay	-5674
▁rig	-5675
agues	-5676
nesty	-5677
▁perm	-5678
ancing	-5679
ourney	-5680
▁aband	-5681
▁dress	-5682
▁fatal	-5683
▁rally	-5684
▁renew	-5685
winning	-5686
▁Bureau	-5687
▁ending	-5688
▁picked	-5689
▁soccer	-5690
▁encoura	-5691
▁holiday	-5692
▁seventh	-5693
operation	-5694
▁attended	-5695
▁teachers	-5696
▁photograp	-5697
▁responded	-5698
▁investigate	-5699
▁Philadelphia	-5700
MA	-5701
ao	-5702
▁Uk	-5703
acre	-5704
▁18-	-5705
▁pen	-5706
▁Adam	-5707
▁Prix	-5708
▁unus	-5709
yanmar	-5710
▁Ivory	-5711
▁finds	-5712
▁heads	-5713
▁style	-5714
▁corpor	-5715
▁exclus	-5716
▁writes	-5717
▁walking	-5718
▁facilities	-5719
aire	-5720
ogue	-5721
▁30-	-5722
▁6-2	-5723
▁fel	-5724
▁nov	-5725
▁spl	-5726
▁Knox	-5727
▁rail	-5728
▁Great	-5729
▁diagn	-5730
▁burned	-5731
▁corner	-5732
▁Haitian	-5733
▁Stephen	-5734
▁centers	-5735
▁targets	-5736
▁reporter	-5737
▁implement	-5738
▁explosives	-5739
cri	-5740
hew	-5741
ayor	-5742
raig	-5743
umph	-5744
▁Nov	-5745
▁Tok	-5746
▁bow	-5747
▁Khan	-5748
▁text	-5749
▁older	-5750
▁cartel	-5751
▁except	-5752
▁videos	-5753
▁College	-5754
▁however	-5755
▁keeping	-5756
▁employee	-5757
▁recorded	-5758
▁veterans	-5759
▁prosecution	-5760
▁congressional	-5761
IDS	-5762
lee	-5763
iden	-5764
quir	-5765
▁Top	-5766
▁log	-5767
ector	-5768
▁Delta	-5769
▁frust	-5770
▁innoc	-5771
issions	-5772
▁Moscow	-5773
▁bridge	-5774
▁nature	-5775
▁paying	-5776
heastern	-5777
▁cocaine	-5778
▁watched	-5779
▁chemical	-5780
▁defending	-5781
..	-5782
200	-5783
▁75	-5784
▁150	-5785
▁ast	-5786
▁Barb	-5787
▁grab	-5788
▁skin	-5789
▁Messi	-5790
▁camps	-5791
▁catch	-5792
▁inaug	-5793
▁spect	-5794
▁voted	-5795
▁Darfur	-5796
▁Poland	-5797
▁orders	-5798
▁Formula	-5799
▁failing	-5800
▁herself	-5801
▁performed	-5802
▁revolution	-5803
▁statements	-5804
▁representative	-5805
cu	-5806
onz	-5807
hatt	-5808
olas	-5809
▁Hug	-5810
▁Rio	-5811
▁Oper	-5812
▁dump	-5813
▁sick	-5814
▁Brook	-5815
▁Wayne	-5816
▁patrol	-5817
▁Myanmar	-5818
▁funeral	-5819
▁princip	-5820
▁promised	-5821
▁proposal	-5822
▁stations	-5823
▁tourists	-5824
▁investment	-5825
▁demonstrations	-5826
hua	-5827
kin	-5828
uro	-5829
roat	-5830
▁Hom	-5831
▁fit	-5832
cious	-5833
▁occup	-5834
▁tight	-5835
▁active	-5836
▁talked	-5837
▁Elizabeth	-5838
▁insurgents	-5839
ici	-5840
▁38	-5841
▁Gil	-5842
imony	-5843
▁Vill	-5844
▁grew	-5845
▁Women	-5846
▁arriv	-5847
▁smugg	-5848
▁campus	-5849
▁wedding	-5850
▁authority	-5851
▁confident	-5852
▁consumers	-5853
▁interests	-5854
▁survivors	-5855
rep	-5856
ste	-5857
uay	-5858
▁Tokyo	-5859
▁spons	-5860
▁expand	-5861
▁affairs	-5862
▁peaceful	-5863
▁generation	-5864
▁involvement	-5865
▁researchers	-5866
▁disappearance	-5867
atal	-5868
emic	-5869
oria	-5870
▁flow	-5871
▁Nancy	-5872
▁basic	-5873
▁missile	-5874
▁estimates	-5875
▁ambassador	-5876
▁possibility	-5877
▁trafficking	-5878
mo	-5879
isa	-5880
sis	-5881
▁Pu	-5882
▁lux	-5883
elson	-5884
▁sees	-5885
▁Allen	-5886
▁Major	-5887
▁river	-5888
▁Carter	-5889
▁Shiite	-5890
▁feeling	-5891
▁maximum	-5892
▁Michelle	-5893
▁homeless	-5894
▁numerous	-5895
▁communications	-5896
2-	-5897
ela	-5898
ita	-5899
aint	-5900
▁Emb	-5901
▁gar	-5902
▁Eric	-5903
▁Tony	-5904
▁fish	-5905
▁adult	-5906
▁disab	-5907
▁disco	-5908
▁limit	-5909
▁advice	-5910
▁Antonio	-5911
▁birthday	-5912
▁initially	-5913
egr	-5914
airo	-5915
eces	-5916
▁rat	-5917
erved	-5918
itals	-5919
▁Show	-5920
▁sand	-5921
▁sort	-5922
▁Santa	-5923
▁formed	-5924
standing	-5925
▁studies	-5926
▁Scotland	-5927
▁baseball	-5928
▁directly	-5929
▁pregnant	-5930
▁knowledge	-5931
▁recommend	-5932
▁headquarters	-5933
eed	-5934
zai	-5935
evin	-5936
rary	-5937
▁Sum	-5938
acity	-5939
chell	-5940
encia	-5941
▁Ross	-5942
▁Simon	-5943
▁cargo	-5944
outheast	-5945
▁Stadium	-5946
▁dispute	-5947
▁heading	-5948
▁replace	-5949
▁inspired	-5950
▁struggle	-5951
▁northwest	-5952
▁BA	-5953
▁400	-5954
▁FAA	-5955
▁Leg	-5956
▁Roll	-5957
▁Rome	-5958
▁haven	-5959
▁write	-5960
▁denies	-5961
▁landed	-5962
▁Academy	-5963
▁Lebanon	-5964
▁recession	-5965
▁indictment	-5966
▁neighboring	-5967
▁Ay	-5968
▁Di	-5969
▁1-1	-5970
▁Dou	-5971
▁upd	-5972
ivity	-5973
▁Drug	-5974
▁Ever	-5975
▁Jane	-5976
hattan	-5977
▁Josep	-5978
▁bought	-5979
liminary	-5980
▁compound	-5981
▁displaced	-5982
Sp	-5983
can	-5984
avez	-5985
king	-5986
▁12-	-5987
▁Big	-5988
▁NFL	-5989
▁sup	-5990
lando	-5991
ulate	-5992
▁Fund	-5993
▁Gard	-5994
▁Stan	-5995
▁angry	-5996
▁cards	-5997
atively	-5998
▁casual	-5999
▁quoted	-6000
▁follows	-6001
▁healthy	-6002
▁markets	-6003
▁reduced	-6004
▁division	-6005
▁organized	-6006
sen	-6007
arsh	-6008
▁Bus	-6009
▁Has	-6010
▁scr	-6011
early	-6012
▁unve	-6013
▁batter	-6014
▁tribal	-6015
▁Switzer	-6016
▁mention	-6017
▁surface	-6018
▁torture	-6019
▁Abdullah	-6020
▁Manhattan	-6021
▁Thousands	-6022
▁marijuana	-6023
▁questioned	-6024
▁Ib	-6025
▁Ky	-6026
▁ut	-6027
comm	-6028
week	-6029
▁Aff	-6030
▁Zel	-6031
agers	-6032
othes	-6033
uties	-6034
▁drew	-6035
▁Andre	-6036
▁crews	-6037
▁diver	-6038
▁teens	-6039
amilton	-6040
itchell	-6041
▁Museum	-6042
▁afford	-6043
▁assess	-6044
▁integr	-6045
▁Orlando	-6046
▁retired	-6047
▁collapse	-6048
▁Authority	-6049
▁Colombian	-6050
▁collapsed	-6051
▁5-	-6052
▁EU	-6053
rina	-6054
ueen	-6055
▁Dal	-6056
▁Gra	-6057
▁Hud	-6058
▁agg	-6059
ighth	-6060
uster	-6061
▁1970	-6062
▁Leon	-6063
▁heat	-6064
▁vari	-6065
▁Kevin	-6066
▁Peace	-6067
▁Castro	-6068
▁racial	-6069
▁Hussein	-6070
▁artists	-6071
▁farmers	-6072
▁robbery	-6073
▁Columbia	-6074
▁Hamilton	-6075
▁teammate	-6076
▁emotional	-6077
▁testimony	-6078
gl	-6079
boy	-6080
iful	-6081
olen	-6082
▁Pel	-6083
▁anc	-6084
▁pal	-6085
iders	-6086
uting	-6087
▁Susp	-6088
▁Wild	-6089
▁torn	-6090
▁Tunis	-6091
▁chain	-6092
▁exhib	-6093
▁fires	-6094
▁Berlin	-6095
▁Chavez	-6096
▁Dallas	-6097
▁Sheikh	-6098
▁escape	-6099
ervation	-6100
▁session	-6101
▁Portugal	-6102
▁rejected	-6103
▁speaking	-6104
▁Switzerland	-6105
oa	-6106
vard	-6107
▁Boe	-6108
▁Sov	-6109
▁jur	-6110
igned	-6111
owned	-6112
▁Cost	-6113
▁surve	-6114
▁swine	-6115
▁Family	-6116
▁hotels	-6117
▁wouldn	-6118
▁Airways	-6119
▁bombings	-6120
▁reaching	-6121
▁visiting	-6122
▁locations	-6123
ont	-6124
ache	-6125
ette	-6126
ocal	-6127
omes	-6128
▁Ant	-6129
▁tim	-6130
antly	-6131
▁Youn	-6132
▁murd	-6133
▁holds	-6134
▁rural	-6135
▁teach	-6136
▁explod	-6137
▁firing	-6138
▁article	-6139
▁benefit	-6140
lig	-6141
▁Li	-6142
▁Us	-6143
illy	-6144
real	-6145
▁Bos	-6146
▁FDA	-6147
▁Ped	-6148
▁guy	-6149
▁Lind	-6150
▁Roma	-6151
▁virt	-6152
ewhere	-6153
▁Ahmed	-6154
▁Hotel	-6155
▁Reagan	-6156
▁dinner	-6157
▁leaves	-6158
▁phones	-6159
▁unique	-6160
▁unrest	-6161
▁weapon	-6162
▁worker	-6163
▁Network	-6164
▁achieve	-6165
▁infrast	-6166
▁independence	-6167
pat	-6168
▁65	-6169
hand	-6170
roud	-6171
▁purp	-6172
encing	-6173
▁Among	-6174
▁apart	-6175
▁stock	-6176
▁Second	-6177
▁filled	-6178
▁punish	-6179
▁feature	-6180
▁circumst	-6181
▁exercise	-6182
▁territory	-6183
▁difference	-6184
▁potentially	-6185
roit	-6186
▁Kir	-6187
▁Tai	-6188
▁lie	-6189
elect	-6190
iform	-6191
udden	-6192
▁Prov	-6193
▁coff	-6194
▁slam	-6195
▁tact	-6196
▁2,000	-6197
▁Congo	-6198
▁Tamil	-6199
▁doubt	-6200
▁gradu	-6201
▁roads	-6202
▁Totten	-6203
▁shuttle	-6204
▁strateg	-6205
asketball	-6206
▁solution	-6207
▁standard	-6208
▁decisions	-6209
▁democracy	-6210
▁commitment	-6211
IN	-6212
alo	-6213
▁15-	-6214
▁23-	-6215
▁Sus	-6216
▁USA	-6217
iment	-6218
ranch	-6219
▁Life	-6220
▁2005,	-6221
▁Hudson	-6222
▁Society	-6223
▁Special	-6224
▁citizen	-6225
▁clashes	-6226
▁journey	-6227
▁triumph	-6228
▁nonprofit	-6229
▁Management	-6230
▁manufactur	-6231
bur	-6232
inn	-6233
law	-6234
▁4-	-6235
▁Ren	-6236
▁Sot	-6237
ocide	-6238
▁Also	-6239
▁climb	-6240
▁newly	-6241
▁Syrian	-6242
▁option	-6243
▁resort	-6244
▁tested	-6245
▁Detroit	-6246
▁moments	-6247
▁species	-6248
▁turning	-6249
▁Jonathan	-6250
▁attempts	-6251
▁Tottenham	-6252
▁describes	-6253
▁tradition	-6254
har	-6255
ios	-6256
atar	-6257
▁tack	-6258
istics	-6259
▁Domin	-6260
ighting	-6261
respond	-6262
▁advert	-6263
▁guards	-6264
▁killer	-6265
▁object	-6266
▁skills	-6267
▁display	-6268
▁patient	-6269
▁shelter	-6270
▁Emirates	-6271
▁obtained	-6272
▁searching	-6273
▁Cz	-6274
eals	-6275
▁24-	-6276
▁Rub	-6277
▁Toy	-6278
▁eat	-6279
▁ten	-6280
annel	-6281
embly	-6282
verty	-6283
▁Brad	-6284
▁Bund	-6285
▁Biden	-6286
▁medal	-6287
▁taxes	-6288
▁Hispan	-6289
▁Weather	-6290
▁adviser	-6291
▁dealing	-6292
▁airports	-6293
▁identity	-6294
▁platform	-6295
▁upcoming	-6296
▁northeast	-6297
▁girlfriend	-6298
vis	-6299
▁48	-6300
bors	-6301
▁3-1	-6302
eline	-6303
iants	-6304
veral	-6305
▁Mahm	-6306
▁Marc	-6307
idency	-6308
person	-6309
▁waste	-6310
▁Company	-6311
▁Kingdom	-6312
▁critics	-6313
▁exactly	-6314
▁opinion	-6315
▁options	-6316
▁poverty	-6317
▁vaccine	-6318
▁accounts	-6319
▁increasingly	-6320
▁infrastructure	-6321
My	-6322
amo	-6323
bag	-6324
rif	-6325
tra	-6326
▁Hor	-6327
▁Jac	-6328
▁Nick	-6329
▁duty	-6330
▁Prize	-6331
▁defin	-6332
▁indic	-6333
▁ocean	-6334
▁Vietnam	-6335
▁aggress	-6336
▁closing	-6337
▁senator	-6338
▁surprise	-6339
▁Emergency	-6340
▁satellite	-6341
ym	-6342
awn	-6343
▁$8	-6344
izer	-6345
▁pip	-6346
▁rum	-6347
▁Town	-6348
▁Czech	-6349
▁Stone	-6350
▁Villa	-6351
▁marks	-6352
▁Wilson	-6353
▁writer	-6354
▁Embassy	-6355
▁counsel	-6356
▁approval	-6357
▁controll	-6358
▁disputed	-6359
▁downtown	-6360
▁hurricane	-6361
▁semifinals	-6362
▁negotiations	-6363
oln	-6364
When	-6365
ello	-6366
▁Bor	-6367
▁Fred	-6368
▁Hear	-6369
▁Move	-6370
terror	-6371
▁Elect	-6372
▁camer	-6373
▁quite	-6374
▁wreck	-6375
▁auction	-6376
▁digital	-6377
▁Islamist	-6378
▁extended	-6379
▁Islamabad	-6380
▁diplomatic	-6381
▁possession	-6382
▁temperatures	-6383
60	-6384
tr	-6385
aab	-6386
lers	-6387
▁Ark	-6388
▁adj	-6389
▁Rick	-6390
▁ends	-6391
▁sear	-6392
▁Delhi	-6393
▁Joseph	-6394
▁Manuel	-6395
▁bottom	-6396
▁causes	-6397
▁remind	-6398
▁stolen	-6399
▁Control	-6400
▁compete	-6401
▁cutting	-6402
▁opposed	-6403
▁Anderson	-6404
▁networks	-6405
▁thinking	-6406
▁procedures	-6407
70	-6408
Le	-6409
anks	-6410
onso	-6411
▁Mid	-6412
▁Jean	-6413
▁Luis	-6414
▁Over	-6415
▁emph	-6416
▁Nobel	-6417
▁hosts	-6418
▁owned	-6419
▁Forces	-6420
▁Hondur	-6421
▁voting	-6422
▁Indiana	-6423
▁Seattle	-6424
▁remarks	-6425
▁minority	-6426
ouss	-6427
etime	-6428
▁Even	-6429
▁Kent	-6430
▁caps	-6431
▁cold	-6432
▁imag	-6433
▁infl	-6434
action	-6435
eeping	-6436
▁Craig	-6437
▁Hawai	-6438
▁accus	-6439
▁towns	-6440
acement	-6441
▁argued	-6442
▁athlet	-6443
▁mosque	-6444
▁simple	-6445
▁prepare	-6446
▁strikes	-6447
▁Argentine	-6448
▁documentary	-6449
▁firefighters	-6450
▁hospitalized	-6451
.,	-6452
inth	-6453
ugee	-6454
▁tip	-6455
▁ven	-6456
▁1960	-6457
▁Film	-6458
▁tree	-6459
rehens	-6460
▁Kabul	-6461
▁Karzai	-6462
▁bomber	-6463
▁ticket	-6464
▁window	-6465
▁Roberts	-6466
▁machine	-6467
▁section	-6468
▁canceled	-6469
▁Venezuela	-6470
▁shootings	-6471
▁transportation	-6472
IS	-6473
oca	-6474
pet	-6475
tha	-6476
beat	-6477
▁Inc	-6478
▁tun	-6479
arant	-6480
idden	-6481
▁hate	-6482
▁ment	-6483
▁ride	-6484
▁Irish	-6485
▁probe	-6486
ocratic	-6487
▁Garrid	-6488
▁finals	-6489
▁spring	-6490
▁traged	-6491
▁managed	-6492
▁tribute	-6493
▁battling	-6494
▁publicly	-6495
▁concluded	-6496
▁nationwide	-6497
▁transition	-6498
ius	-6499
lyn	-6500
▁ET	-6501
mile	-6502
▁25-	-6503
▁3-0	-6504
▁blo	-6505
erate	-6506
ptoms	-6507
ulner	-6508
▁mine	-6509
▁shar	-6510
▁warm	-6511
▁Hills	-6512
▁bound	-6513
▁glass	-6514
▁instit	-6515
▁method	-6516
▁promin	-6517
▁brothers	-6518
▁resulted	-6519
▁shopping	-6520
▁survived	-6521
▁colleagues	-6522
▁introduced	-6523
▁contributed	-6524
▁restrictions	-6525
tt	-6526
olk	-6527
arak	-6528
▁Blo	-6529
acher	-6530
sters	-6531
▁chol	-6532
iamond	-6533
▁prize	-6534
autiful	-6535
▁Greece	-6536
▁Soviet	-6537
▁debris	-6538
▁luxury	-6539
▁marked	-6540
▁slight	-6541
▁Ferrari	-6542
▁intense	-6543
▁radical	-6544
▁trouble	-6545
▁unusual	-6546
▁Valencia	-6547
▁capacity	-6548
▁familiar	-6549
▁meetings	-6550
▁supposed	-6551
▁attorneys	-6552
▁delivered	-6553
▁overnight	-6554
▁positions	-6555
▁sustained	-6556
▁Revolution	-6557
▁associated	-6558
▁collection	-6559
▁,	-6560
▁43	-6561
Shab	-6562
itar	-6563
otic	-6564
rene	-6565
▁Seb	-6566
style	-6567
▁Arch	-6568
▁laid	-6569
ducing	-6570
▁Kelly	-6571
▁cease	-6572
▁Peters	-6573
▁behalf	-6574
▁perman	-6575
▁pushed	-6576
▁square	-6577
▁stands	-6578
▁offices	-6579
▁changing	-6580
▁clothing	-6581
▁religion	-6582
▁alternative	-6583
▁restaurants	-6584
▁Championship	-6585
epal	-6586
rees	-6587
▁rif	-6588
ledon	-6589
▁1999	-6590
▁dial	-6591
▁tons	-6592
▁wire	-6593
esliga	-6594
ounced	-6595
▁Royal	-6596
▁Swiss	-6597
▁stuff	-6598
▁trail	-6599
▁trend	-6600
illance	-6601
ossible	-6602
▁Calder	-6603
▁Felipe	-6604
▁Scient	-6605
▁carbon	-6606
▁closer	-6607
imbledon	-6608
▁clearly	-6609
▁falling	-6610
▁unknown	-6611
▁genocide	-6612
▁illegally	-6613
▁kidnapped	-6614
▁Bundesliga	-6615
▁recognized	-6616
▁electricity	-6617
▁opportunities	-6618
ila	-6619
▁Tib	-6620
▁ble	-6621
anche	-6622
▁Week	-6623
▁blame	-6624
▁boats	-6625
▁grown	-6626
▁surge	-6627
▁assass	-6628
▁Katrina	-6629
▁teacher	-6630
▁uniform	-6631
▁Mitchell	-6632
▁evacuated	-6633
▁targeting	-6634
GA	-6635
aga	-6636
▁Ly	-6637
▁Did	-6638
▁Hav	-6639
▁Lev	-6640
ength	-6641
opher	-6642
▁roof	-6643
▁Brian	-6644
▁Nepal	-6645
▁basis	-6646
▁metal	-6647
▁comedy	-6648
▁detect	-6649
▁Bahrain	-6650
▁Islands	-6651
▁divorce	-6652
▁engaged	-6653
▁explain	-6654
Americans	-6655
▁detainees	-6656
▁confidence	-6657
▁helicopters	-6658
▁Ku	-6659
part	-6660
umed	-6661
whel	-6662
▁16-	-6663
▁Arm	-6664
▁Hos	-6665
▁Ven	-6666
eller	-6667
ooney	-6668
▁Gary	-6669
▁nurs	-6670
incoln	-6671
▁Ghana	-6672
▁drove	-6673
▁rains	-6674
western	-6675
▁Cambod	-6676
▁inquir	-6677
▁embassy	-6678
▁letters	-6679
▁promote	-6680
▁winners	-6681
▁strength	-6682
▁tensions	-6683
▁seriously	-6684
▁characters	-6685
▁qualifying	-6686
▁repeatedly	-6687
▁settlement	-6688
arr	-6689
enh	-6690
lad	-6691
mosp	-6692
onym	-6693
▁Key	-6694
▁Rom	-6695
▁Sky	-6696
urban	-6697
where	-6698
▁Bull	-6699
▁plus	-6700
▁2001,	-6701
▁airpl	-6702
▁Before	-6703
▁Serbia	-6704
▁eating	-6705
▁pilots	-6706
aughters	-6707
▁discrim	-6708
▁heavily	-6709
▁rebuild	-6710
▁Nigerian	-6711
▁announce	-6712
▁software	-6713
▁Wimbledon	-6714
▁awareness	-6715
▁materials	-6716
▁sanctions	-6717
▁ultimately	-6718
▁considering	-6719
ED	-6720
hem	-6721
iab	-6722
ker	-6723
ram	-6724
▁Bo	-6725
They	-6726
olis	-6727
▁mor	-6728
▁Liga	-6729
▁Lion	-6730
▁dict	-6731
▁file	-6732
▁mand	-6733
▁tape	-6734
enders	-6735
▁prove	-6736
▁smoke	-6737
utation	-6738
▁gained	-6739
▁intent	-6740
▁sudden	-6741
ospitals	-6742
▁passion	-6743
▁tickets	-6744
▁Criminal	-6745
▁interrog	-6746
▁attending	-6747
▁detention	-6748
▁experienced	-6749
Is	-6750
ye	-6751
bro	-6752
mir	-6753
uez	-6754
uts	-6755
▁Sl	-6756
stan	-6757
▁Gov	-6758
▁Pers	-6759
▁Time	-6760
▁bags	-6761
▁bond	-6762
▁exam	-6763
iences	-6764
▁loyal	-6765
▁smart	-6766
▁trees	-6767
uration	-6768
▁Alonso	-6769
▁Though	-6770
▁courts	-6771
▁forest	-6772
▁narrow	-6773
▁yellow	-6774
▁finance	-6775
▁towards	-6776
▁overseas	-6777
▁originally	-6778
TSB	-6779
ifer	-6780
isan	-6781
okes	-6782
will	-6783
▁Bet	-6784
▁Ell	-6785
▁Mog	-6786
ollah	-6787
▁hole	-6788
▁orph	-6789
ounter	-6790
ubarak	-6791
▁2010,	-6792
▁Spani	-6793
▁Awards	-6794
▁examin	-6795
▁Lincoln	-6796
▁Officer	-6797
▁clothes	-6798
▁consist	-6799
▁roughly	-6800
▁variety	-6801
▁internal	-6802
▁boyfriend	-6803
▁referring	-6804
▁testified	-6805
equ	-6806
▁Jr	-6807
ctic	-6808
free	-6809
odge	-6810
▁Bas	-6811
▁Mur	-6812
▁sky	-6813
apore	-6814
onsin	-6815
▁Wisc	-6816
▁earn	-6817
▁fort	-6818
ifying	-6819
usalem	-6820
▁Young	-6821
▁notes	-6822
▁upset	-6823
▁Nearly	-6824
▁Rooney	-6825
▁Taiwan	-6826
▁deeply	-6827
▁eighth	-6828
▁remove	-6829
▁vulner	-6830
▁Amnesty	-6831
▁capture	-6832
▁granted	-6833
▁Memorial	-6834
▁Jerusalem	-6835
▁Wisconsin	-6836
▁practices	-6837
▁Commissioner	-6838
▁Palestinians	-6839
EFA	-6840
ais	-6841
bar	-6842
▁IC	-6843
arch	-6844
bour	-6845
idav	-6846
mann	-6847
▁Dam	-6848
▁era	-6849
▁tox	-6850
▁brut	-6851
▁puts	-6852
▁Bangl	-6853
▁Singh	-6854
▁distr	-6855
▁Samuel	-6856
▁bigger	-6857
▁county	-6858
▁degree	-6859
▁rounds	-6860
▁Mahmoud	-6861
▁Nicolas	-6862
▁factors	-6863
▁tragedy	-6864
▁longtime	-6865
▁Singapore	-6866
▁crackdown	-6867
▁retirement	-6868
▁preliminary	-6869
▁circumstances	-6870
umn	-6871
▁Up	-6872
▁Rey	-6873
eback	-6874
oving	-6875
▁Beat	-6876
▁Chen	-6877
▁Kash	-6878
▁Mand	-6879
▁Omar	-6880
▁liter	-6881
▁felony	-6882
▁guests	-6883
▁planet	-6884
▁Doctors	-6885
▁Garrido	-6886
▁obvious	-6887
▁Banglades	-6888
▁celebrity	-6889
▁direction	-6890
▁governing	-6891
PA	-6892
gar	-6893
▁3,	-6894
bing	-6895
izon	-6896
▁mut	-6897
rance	-6898
▁Cape	-6899
▁Gonz	-6900
▁Greg	-6901
▁Thai	-6902
▁flew	-6903
▁neck	-6904
▁rich	-6905
▁2004,	-6906
▁Boliv	-6907
▁Tibet	-6908
▁acres	-6909
▁knows	-6910
▁pitch	-6911
▁polls	-6912
▁rapid	-6913
▁solar	-6914
▁trust	-6915
▁elimin	-6916
▁master	-6917
▁papers	-6918
▁anticip	-6919
▁discovery	-6920
▁completely	-6921
▁destruction	-6922
bi	-6923
▁46	-6924
away	-6925
▁7-6	-6926
▁roy	-6927
force	-6928
oster	-6929
▁NTSB	-6930
▁wore	-6931
▁Novak	-6932
▁stood	-6933
▁archit	-6934
▁discip	-6935
▁floods	-6936
▁Cabinet	-6937
▁Eastern	-6938
▁Mubarak	-6939
▁founded	-6940
▁joining	-6941
▁declined	-6942
▁exploded	-6943
▁Cristiano	-6944
▁computers	-6945
▁opponents	-6946
▁probation	-6947
▁Christopher	-6948
▁cooperation	-6949
IT	-6950
chen	-6951
▁14-	-6952
▁Aut	-6953
▁Gun	-6954
▁Meh	-6955
▁Sav	-6956
stead	-6957
▁UEFA	-6958
▁gift	-6959
▁ramp	-6960
▁doors	-6961
▁novel	-6962
▁Howard	-6963
▁client	-6964
▁escaped	-6965
▁impress	-6966
▁nominee	-6967
▁refugee	-6968
▁Arkansas	-6969
▁drinking	-6970
▁suggests	-6971
▁daughters	-6972
▁threatening	-6973
iop	-6974
anna	-6975
▁Cru	-6976
▁Let	-6977
ivery	-6978
▁Bell	-6979
▁goods	-6980
▁grave	-6981
▁rehab	-6982
▁Rodrig	-6983
▁excess	-6984
▁pieces	-6985
▁values	-6986
▁chances	-6987
▁closely	-6988
▁promise	-6989
▁Calderon	-6990
▁disorder	-6991
▁friendly	-6992
▁instruct	-6993
▁recalled	-6994
▁vacation	-6995
▁explosive	-6996
▁presented	-6997
▁struggled	-6998
▁basketball	-6999
ja	-7000
exp	-7001
▁41	-7002
▁55	-7003
▁Av	-7004
▁Gi	-7005
▁cy	-7006
half	-7007
rell	-7008
▁Int	-7009
ergus	-7010
place	-7011
raine	-7012
▁Jess	-7013
▁Part	-7014
▁Play	-7015
▁Vide	-7016
▁deton	-7017
▁Fergus	-7018
▁Leader	-7019
▁Miller	-7020
▁sector	-7021
▁suffer	-7022
▁Affairs	-7023
▁Several	-7024
▁deficit	-7025
▁demands	-7026
▁accepted	-7027
▁purchase	-7028
▁sexually	-7029
▁symptoms	-7030
▁structure	-7031
▁temporary	-7032
ENT	-7033
cia	-7034
han	-7035
▁Ug	-7036
acks	-7037
esus	-7038
uese	-7039
▁...	-7040
▁pit	-7041
▁tab	-7042
icial	-7043
ikely	-7044
ishes	-7045
orrow	-7046
▁ages	-7047
▁hasn	-7048
▁Music	-7049
▁Orange	-7050
▁astron	-7051
▁begins	-7052
▁cooper	-7053
▁driven	-7054
▁plants	-7055
▁talent	-7056
▁wonder	-7057
▁cricket	-7058
▁overturn	-7059
▁preparing	-7060
▁travelers	-7061
▁represents	-7062
OM	-7063
sey	-7064
atem	-7065
bean	-7066
ears	-7067
▁Mat	-7068
▁Son	-7069
shire	-7070
▁Nazi	-7071
▁Swat	-7072
▁Vick	-7073
▁Moore	-7074
▁Bridge	-7075
▁Sweden	-7076
▁income	-7077
▁Harvard	-7078
▁erupted	-7079
▁vessels	-7080
▁directed	-7081
▁opponent	-7082
▁continuing	-7083
▁violations	-7084
▁devastating	-7085
bus	-7086
umm	-7087
▁39	-7088
▁Ecu	-7089
▁Tea	-7090
▁Use	-7091
▁mig	-7092
gment	-7093
orted	-7094
▁Base	-7095
▁canc	-7096
▁raid	-7097
▁semi	-7098
called	-7099
▁Lohan	-7100
▁deleg	-7101
▁moves	-7102
▁accomp	-7103
▁conver	-7104
▁trains	-7105
▁McLaren	-7106
▁chronic	-7107
▁couples	-7108
▁passing	-7109
▁reading	-7110
▁smaller	-7111
▁transpl	-7112
▁dedicated	-7113
▁expensive	-7114
▁background	-7115
jan	-7116
utt	-7117
▁Hu	-7118
▁km	-7119
▁ATP	-7120
▁Bir	-7121
▁Fox	-7122
▁Raj	-7123
▁fee	-7124
▁ped	-7125
aware	-7126
▁Ball	-7127
▁Fall	-7128
▁Shah	-7129
▁vast	-7130
▁Those	-7131
▁elder	-7132
▁proud	-7133
▁races	-7134
▁10,000	-7135
▁abroad	-7136
▁curren	-7137
▁Ferguson	-7138
▁comeback	-7139
▁defeated	-7140
▁warnings	-7141
▁emissions	-7142
▁Portuguese	-7143
▁unemployment	-7144
afe	-7145
▁("	-7146
▁2-	-7147
heim	-7148
page	-7149
writ	-7150
▁28,	-7151
▁Whe	-7152
▁mel	-7153
▁tor	-7154
ingly	-7155
▁Hamp	-7156
▁Land	-7157
▁Pres	-7158
idents	-7159
insula	-7160
▁maybe	-7161
▁motiv	-7162
▁Mother	-7163
▁choose	-7164
▁lifted	-7165
▁retail	-7166
atically	-7167
▁crucial	-7168
▁inmates	-7169
▁designer	-7170
▁existing	-7171
▁learning	-7172
▁presidency	-7173
▁acknowledged	-7174
▁institutions	-7175
roc	-7176
iner	-7177
▁web	-7178
class	-7179
ordon	-7180
▁Bowl	-7181
▁Love	-7182
▁Sale	-7183
▁bars	-7184
▁edge	-7185
idavit	-7186
owered	-7187
▁Death	-7188
▁cable	-7189
▁feels	-7190
profile	-7191
▁Torres	-7192
▁judges	-7193
▁emerged	-7194
▁fighter	-7195
▁imprison	-7196
▁overwhel	-7197
▁highlight	-7198
▁neighbors	-7199
▁attempting	-7200
▁representatives	-7201
Bl	-7202
dem	-7203
osi	-7204
owa	-7205
spe	-7206
▁PM	-7207
opez	-7208
▁Jam	-7209
essed	-7210
ibbean	-7211
rolled	-7212
▁Mogad	-7213
▁aside	-7214
▁delay	-7215
▁worse	-7216
▁Potter	-7217
▁emphas	-7218
▁fallen	-7219
▁gunman	-7220
▁thinks	-7221
fficient	-7222
▁Develop	-7223
▁cameras	-7224
▁coastal	-7225
▁hostage	-7226
▁parking	-7227
▁raising	-7228
▁teenager	-7229
▁recognize	-7230
▁officially	-7231
▁quarterfinals	-7232
ishu	-7233
▁17-	-7234
▁6-1	-7235
▁Who	-7236
▁ash	-7237
▁lob	-7238
worth	-7239
emeter	-7240
mother	-7241
▁Adams	-7242
▁Front	-7243
▁Perry	-7244
▁discl	-7245
▁Lionel	-7246
▁classes	-7247
▁tornado	-7248
▁Hundreds	-7249
▁replaced	-7250
▁Mogadishu	-7251
▁connected	-7252
▁discussed	-7253
▁importance	-7254
▁appropriate	-7255
ali	-7256
esh	-7257
ammy	-7258
burn	-7259
onna	-7260
▁Cle	-7261
▁Hun	-7262
▁hip	-7263
anged	-7264
aters	-7265
rahim	-7266
▁cler	-7267
▁epis	-7268
iously	-7269
omayor	-7270
▁Cairo	-7271
▁Exper	-7272
▁Today	-7273
▁Veter	-7274
▁hoped	-7275
▁legit	-7276
▁types	-7277
▁Ethiop	-7278
▁notice	-7279
▁parent	-7280
▁pirate	-7281
▁termin	-7282
▁delayed	-7283
▁musical	-7284
▁sustain	-7285
▁tourist	-7286
▁Spaniard	-7287
▁confront	-7288
▁delivery	-7289
▁improved	-7290
▁innocent	-7291
▁thoughts	-7292
▁Sotomayor	-7293
▁extremely	-7294
▁ministers	-7295
▁technical	-7296
▁Environment	-7297
90	-7298
Sh	-7299
Our	-7300
awa	-7301
raf	-7302
▁42	-7303
dney	-7304
rett	-7305
ryst	-7306
wing	-7307
▁Bre	-7308
▁CDC	-7309
▁Deb	-7310
▁mal	-7311
orage	-7312
▁Trav	-7313
▁aims	-7314
▁knee	-7315
▁rush	-7316
▁drawn	-7317
amental	-7318
▁Econom	-7319
▁Warren	-7320
▁advent	-7321
▁allies	-7322
▁coffee	-7323
▁dating	-7324
▁packed	-7325
▁stages	-7326
▁awarded	-7327
▁blocked	-7328
▁classic	-7329
▁inquiry	-7330
▁returns	-7331
▁survive	-7332
▁Caribbean	-7333
▁attacking	-7334
▁hospitals	-7335
▁requested	-7336
▁appearances	-7337
An	-7338
rd	-7339
def	-7340
eor	-7341
isf	-7342
▁Lyn	-7343
▁rom	-7344
iable	-7345
ishop	-7346
▁Euro	-7347
▁Girl	-7348
▁Stat	-7349
▁isol	-7350
▁milk	-7351
▁knock	-7352
▁label	-7353
▁theft	-7354
▁vital	-7355
endment	-7356
▁Deputy	-7357
▁desper	-7358
▁factor	-7359
▁reveal	-7360
▁burning	-7361
▁concent	-7362
▁viewers	-7363
▁analysts	-7364
▁requires	-7365
▁violated	-7366
▁contained	-7367
▁nomination	-7368
▁comfortable	-7369
▁wa	-7370
erto	-7371
▁19-	-7372
▁dad	-7373
▁Sony	-7374
▁prec	-7375
ansion	-7376
▁Water	-7377
▁beats	-7378
duction	-7379
▁memory	-7380
▁reward	-7381
▁Ibrahim	-7382
▁appeals	-7383
▁consequ	-7384
▁deliber	-7385
▁extreme	-7386
▁subsequ	-7387
▁certainly	-7388
▁infection	-7389
▁registered	-7390
▁volunteers	-7391
la	-7392
ati	-7393
uan	-7394
imal	-7395
irts	-7396
irty	-7397
osen	-7398
rapy	-7399
ship	-7400
▁Bru	-7401
▁Prop	-7402
▁lock	-7403
▁sole	-7404
▁stro	-7405
▁vent	-7406
astian	-7407
▁saved	-7408
▁toxic	-7409
▁wheel	-7410
ivision	-7411
▁Gordon	-7412
▁Guatem	-7413
▁Sydney	-7414
▁gunmen	-7415
▁symbol	-7416
▁Cameron	-7417
▁Patrick	-7418
▁Project	-7419
▁amounts	-7420
▁license	-7421
▁reflect	-7422
formation	-7423
▁humanity	-7424
▁beautiful	-7425
▁Bangladesh	-7426
▁Federation	-7427
▁conviction	-7428
▁interviews	-7429
▁relatively	-7430
▁speculation	-7431
ARC	-7432
esb	-7433
oen	-7434
▁Rw	-7435
anny	-7436
eded	-7437
▁22-	-7438
▁egg	-7439
inhua	-7440
itime	-7441
utely	-7442
▁1991	-7443
▁Home	-7444
▁Pass	-7445
▁trag	-7446
mitted	-7447
onight	-7448
▁Jesus	-7449
▁Sport	-7450
▁These	-7451
▁craft	-7452
▁deals	-7453
▁explo	-7454
▁Toyota	-7455
▁Zelaya	-7456
▁awards	-7457
▁miners	-7458
▁myster	-7459
▁strain	-7460
▁superb	-7461
▁trucks	-7462
▁visits	-7463
▁Ukraine	-7464
▁compens	-7465
▁compatri	-7466
▁festival	-7467
▁featuring	-7468
▁stability	-7469
▁conversation	-7470
400	-7471
iao	-7472
obs	-7473
▁Na	-7474
▁Of	-7475
shot	-7476
▁Pit	-7477
burgh	-7478
grade	-7479
▁Educ	-7480
▁asks	-7481
▁3,000	-7482
▁Greek	-7483
▁Lopez	-7484
▁Marsh	-7485
▁truth	-7486
ategory	-7487
▁Kansas	-7488
▁Nelson	-7489
▁backed	-7490
▁length	-7491
▁physic	-7492
▁100,000	-7493
▁Ecuador	-7494
▁ancient	-7495
▁pattern	-7496
▁Homeland	-7497
▁Kentucky	-7498
▁Military	-7499
▁negative	-7500
▁troubled	-7501
▁unlikely	-7502
▁indicated	-7503
▁supported	-7504
▁profession	-7505
▁surveillance	-7506
40	-7507
▁Ki	-7508
eman	-7509
gage	-7510
ompl	-7511
▁$10	-7512
▁Dun	-7513
▁Jor	-7514
▁sad	-7515
▁spr	-7516
apova	-7517
azing	-7518
ching	-7519
found	-7520
▁Team	-7521
▁outf	-7522
▁Woman	-7523
▁dance	-7524
▁tools	-7525
▁becomes	-7526
▁Sudanese	-7527
▁deployed	-7528
▁dramatic	-7529
▁swimming	-7530
▁Sharapova	-7531
▁condemned	-7532
▁insurgency	-7533
▁distribution	-7534
▁relationships	-7535
zy	-7536
lec	-7537
mun	-7538
▁Sk	-7539
cons	-7540
etta	-7541
yard	-7542
▁21,	-7543
▁McG	-7544
▁Out	-7545
aders	-7546
annes	-7547
illas	-7548
regon	-7549
▁1994	-7550
▁Iowa	-7551
▁Wind	-7552
▁bath	-7553
▁eval	-7554
▁fier	-7555
▁obst	-7556
▁reun	-7557
atever	-7558
▁Laura	-7559
▁Osama	-7560
▁Susan	-7561
▁Wales	-7562
▁flash	-7563
▁fract	-7564
▁roles	-7565
▁royal	-7566
▁Denver	-7567
▁Energy	-7568
▁Hawaii	-7569
▁giants	-7570
▁harass	-7571
▁listed	-7572
▁Beckham	-7573
▁Brother	-7574
▁grounds	-7575
▁guarant	-7576
▁prescri	-7577
▁welcome	-7578
rehensive	-7579
▁Phillips	-7580
▁medicine	-7581
All	-7582
aken	-7583
▁ABC	-7584
▁dub	-7585
itely	-7586
verse	-7587
▁Reid	-7588
▁cock	-7589
▁gren	-7590
▁magn	-7591
▁sons	-7592
▁tent	-7593
▁Radio	-7594
▁notor	-7595
▁risks	-7596
▁shell	-7597
▁brings	-7598
▁bullet	-7599
election	-7600
▁Barbara	-7601
▁resigned	-7602
▁marketing	-7603
▁impossible	-7604
▁reputation	-7605
▁successive	-7606
To	-7607
She	-7608
auc	-7609
ema	-7610
onc	-7611
▁49	-7612
▁Ha	-7613
rete	-7614
ritz	-7615
umer	-7616
▁Cay	-7617
▁bab	-7618
▁tom	-7619
▁Like	-7620
▁owns	-7621
▁rose	-7622
▁tall	-7623
ements	-7624
endent	-7625
ventus	-7626
▁Jason	-7627
▁Seven	-7628
▁Trade	-7629
▁absol	-7630
▁split	-7631
Shabaab	-7632
▁Oregon	-7633
▁breath	-7634
▁extend	-7635
▁repair	-7636
▁unless	-7637
▁Matthew	-7638
▁accompl	-7639
▁comprom	-7640
▁worried	-7641
▁hijacked	-7642
▁addressed	-7643
▁affidavit	-7644
▁dismissed	-7645
▁resulting	-7646
▁violation	-7647
▁photographs	-7648
Al	-7649
CA	-7650
iti	-7651
ozy	-7652
▁du	-7653
auty	-7654
▁20,	-7655
▁Dug	-7656
▁cha	-7657
ource	-7658
racts	-7659
▁mask	-7660
▁Grace	-7661
▁Video	-7662
▁drama	-7663
▁lying	-7664
▁Lauren	-7665
▁motorc	-7666
▁proved	-7667
▁balance	-7668
▁carrier	-7669
▁correct	-7670
▁Jennifer	-7671
▁distance	-7672
▁architect	-7673
▁Protection	-7674
▁correspond	-7675
▁entertainment	-7676
EG	-7677
HO	-7678
eld	-7679
gun	-7680
▁4,	-7681
▁Fe	-7682
▁IS	-7683
irai	-7684
otti	-7685
▁13-	-7686
▁ads	-7687
▁suc	-7688
enson	-7689
▁Dise	-7690
▁Kath	-7691
▁Sean	-7692
▁wing	-7693
▁2003,	-7694
▁Costa	-7695
▁anger	-7696
▁likes	-7697
▁links	-7698
▁seeks	-7699
▁Lankan	-7700
▁explor	-7701
▁powers	-7702
▁settle	-7703
▁string	-7704
▁Marines	-7705
▁restore	-7706
▁routine	-7707
▁secured	-7708
▁trained	-7709
▁covering	-7710
▁indicted	-7711
▁reaction	-7712
▁conducting	-7713
▁monitoring	-7714
▁networking	-7715
▁quarterfinal	-7716
kick	-7717
▁fed	-7718
▁gro	-7719
▁odd	-7720
antas	-7721
iscal	-7722
▁Kaka	-7723
▁tend	-7724
rystal	-7725
▁fewer	-7726
▁ideas	-7727
▁innov	-7728
emetery	-7729
▁instru	-7730
▁kidney	-7731
▁mainly	-7732
▁noting	-7733
▁parole	-7734
▁specif	-7735
▁stable	-7736
▁tragic	-7737
▁Coleman	-7738
▁conclus	-7739
▁install	-7740
▁succeed	-7741
▁Aviation	-7742
▁elements	-7743
▁approached	-7744
▁democratic	-7745
▁Philippines	-7746
8-	-7747
dy	-7748
bul	-7749
eren	-7750
vang	-7751
▁19,	-7752
▁Tro	-7753
▁dry	-7754
▁mud	-7755
berto	-7756
▁Ivan	-7757
▁Stev	-7758
▁porn	-7759
▁samp	-7760
▁ster	-7761
▁pages	-7762
▁Cooper	-7763
▁affair	-7764
▁arrive	-7765
▁height	-7766
▁oldest	-7767
▁salmon	-7768
▁struct	-7769
▁cleared	-7770
▁hundred	-7771
▁pledged	-7772
▁abducted	-7773
▁disabled	-7774
▁celebrate	-7775
▁encounter	-7776
▁Bh	-7777
arms	-7778
avig	-7779
moon	-7780
▁tur	-7781
acter	-7782
ancer	-7783
iques	-7784
▁AIDS	-7785
▁Bosn	-7786
▁Card	-7787
▁Crit	-7788
▁Vett	-7789
▁epic	-7790
▁Bened	-7791
▁Bloom	-7792
▁Eight	-7793
▁Storm	-7794
▁balls	-7795
▁bills	-7796
▁reign	-7797
▁steal	-7798
▁turns	-7799
▁Little	-7800
▁lights	-7801
▁pursue	-7802
▁scenes	-7803
▁Kashmir	-7804
▁footage	-7805
▁happens	-7806
▁privacy	-7807
▁Scottish	-7808
▁handling	-7809
▁Rodriguez	-7810
▁execution	-7811
▁gathering	-7812
▁foundation	-7813
▁discrimination	-7814
3-	-7815
LE	-7816
adi	-7817
bie	-7818
ora	-7819
una	-7820
aste	-7821
cano	-7822
care	-7823
osis	-7824
pson	-7825
▁15,	-7826
▁Mod	-7827
apped	-7828
▁1995	-7829
▁Balt	-7830
▁Disc	-7831
▁Hold	-7832
▁Kate	-7833
▁Rand	-7834
▁Stew	-7835
making	-7836
▁Enter	-7837
▁Moham	-7838
▁Their	-7839
▁multi	-7840
▁trigg	-7841
▁Grammy	-7842
▁Watson	-7843
▁brutal	-7844
▁resume	-7845
▁cholera	-7846
▁resolve	-7847
▁Province	-7848
▁prominent	-7849
▁initiative	-7850
▁representing	-7851
Af	-7852
▁ec	-7853
ixon	-7854
mand	-7855
tery	-7856
▁jew	-7857
▁Best	-7858
▁bear	-7859
▁dies	-7860
arkozy	-7861
istant	-7862
ussion	-7863
▁Joint	-7864
▁naval	-7865
▁veget	-7866
▁weren	-7867
▁Tsvang	-7868
▁Vettel	-7869
▁approx	-7870
▁breast	-7871
▁buying	-7872
▁incred	-7873
▁seemed	-7874
leveland	-7875
▁Serbian	-7876
▁arrival	-7877
▁degrees	-7878
▁islands	-7879
▁regions	-7880
▁staying	-7881
▁roadside	-7882
▁abandoned	-7883
▁appointed	-7884
▁permanent	-7885
▁Tsvangirai	-7886
▁controlled	-7887
▁parliamentary	-7888
▁constitutional	-7889
kes	-7890
oir	-7891
▁(2	-7892
door	-7893
edom	-7894
imid	-7895
inch	-7896
math	-7897
▁Dak	-7898
▁Put	-7899
▁gap	-7900
icked	-7901
▁1998	-7902
▁Sull	-7903
father	-7904
ridges	-7905
▁shoes	-7906
▁sight	-7907
▁swept	-7908
▁urban	-7909
▁yacht	-7910
weather	-7911
atherine	-7912
▁borders	-7913
▁diamond	-7914
▁pointed	-7915
▁recalls	-7916
▁Speaking	-7917
▁Cleveland	-7918
▁aftermath	-7919
▁explained	-7920
▁complaints	-7921
▁successfully	-7922
Ar	-7923
PS	-7924
oni	-7925
pol	-7926
ras	-7927
▁54	-7928
▁8-	-7929
acle	-7930
▁Bul	-7931
▁Cur	-7932
▁McD	-7933
anted	-7934
stein	-7935
▁exit	-7936
▁quit	-7937
▁reop	-7938
active	-7939
▁Dalai	-7940
▁meets	-7941
▁Garcia	-7942
▁Puerto	-7943
▁hidden	-7944
▁models	-7945
▁myself	-7946
▁prepar	-7947
▁prohib	-7948
▁promot	-7949
▁fastest	-7950
▁Juventus	-7951
▁creation	-7952
▁entering	-7953
▁findings	-7954
▁schedule	-7955
▁typically	-7956
▁volunteer	-7957
▁vulnerable	-7958
▁effectively	-7959
▁regulations	-7960
▁u	-7961
oor	-7962
▁51	-7963
dick	-7964
habi	-7965
itol	-7966
pass	-7967
roid	-7968
soft	-7969
▁800	-7970
▁tap	-7971
ftime	-7972
▁crop	-7973
▁pump	-7974
▁wish	-7975
▁Croat	-7976
▁Saleh	-7977
▁begun	-7978
▁comic	-7979
▁draft	-7980
▁greet	-7981
▁urges	-7982
▁Boeing	-7983
▁Donald	-7984
▁atmosp	-7985
▁chosen	-7986
▁iconic	-7987
▁jailed	-7988
▁openly	-7989
ordinary	-7990
▁beaches	-7991
▁praised	-7992
▁sharing	-7993
▁stepped	-7994
▁analysis	-7995
▁collabor	-7996
▁contamin	-7997
▁drilling	-7998
▁halftime	-7999
▁Venezuelan	-8000
▁casualties	-8001
300	-8002
Gen	-8003
iot	-8004
sec	-8005
amas	-8006
anes	-8007
coni	-8008
load	-8009
wise	-8010
▁25,	-8011
▁30,	-8012
▁600	-8013
▁Bry	-8014
▁Jav	-8015
▁Vis	-8016
▁sch	-8017
▁Conf	-8018
▁Hart	-8019
▁Hass	-8020
▁Lama	-8021
▁Trip	-8022
anchez	-8023
▁Award	-8024
▁chose	-8025
▁entry	-8026
▁grass	-8027
▁shape	-8028
▁Harris	-8029
▁belief	-8030
▁crowds	-8031
▁piracy	-8032
▁safely	-8033
▁Because	-8034
▁Roddick	-8035
▁Stewart	-8036
▁absence	-8037
▁advance	-8038
▁appoint	-8039
▁priority	-8040
▁generally	-8041
▁headlines	-8042
▁Development	-8043
10	-8044
awi	-8045
ira	-8046
▁47	-8047
ario	-8048
▁NBC	-8049
▁Pop	-8050
▁aer	-8051
▁ing	-8052
child	-8053
icing	-8054
▁Anti	-8055
▁Blue	-8056
▁Expl	-8057
▁Pope	-8058
▁Moroc	-8059
▁raped	-8060
▁threw	-8061
▁worry	-8062
lusconi	-8063
▁Pelosi	-8064
▁checks	-8065
▁compar	-8066
▁hosted	-8067
▁limits	-8068
▁runway	-8069
▁Instead	-8070
▁operate	-8071
▁airlines	-8072
▁forecast	-8073
▁payments	-8074
▁associate	-8075
▁essential	-8076
▁exclusive	-8077
▁telephone	-8078
▁containing	-8079
▁experiences	-8080
▁investigator	-8081
▁comprehensive	-8082
No	-8083
For	-8084
cue	-8085
don	-8086
utr	-8087
▁GM	-8088
dict	-8089
enda	-8090
pers	-8091
▁120	-8092
▁17,	-8093
▁26-	-8094
Leaks	-8095
echan	-8096
riers	-8097
▁$100	-8098
▁Celt	-8099
▁Cook	-8100
▁Rice	-8101
amburg	-8102
bourne	-8103
▁birds	-8104
▁facts	-8105
▁rooms	-8106
▁delays	-8107
▁desire	-8108
▁underw	-8109
▁Edwards	-8110
▁Sanchez	-8111
▁Sarkozy	-8112
▁Simpson	-8113
▁intimid	-8114
▁outrage	-8115
▁Official	-8116
▁concrete	-8117
▁unveiled	-8118
▁Berlusconi	-8119
▁Mayweather	-8120
▁defendants	-8121
▁performing	-8122
▁replacement	-8123
▁photographer	-8124
AC	-8125
At	-8126
ET	-8127
IR	-8128
ato	-8129
lan	-8130
ser	-8131
▁64	-8132
bell	-8133
ifts	-8134
▁Abb	-8135
▁Cou	-8136
▁asp	-8137
▁rug	-8138
inter	-8139
oenix	-8140
▁Poll	-8141
▁auto	-8142
▁lies	-8143
▁lift	-8144
▁zero	-8145
incial	-8146
inking	-8147
orough	-8148
▁Barca	-8149
▁Bruce	-8150
▁Class	-8151
▁Dhabi	-8152
▁Media	-8153
▁slain	-8154
▁units	-8155
▁bright	-8156
▁dollar	-8157
▁easier	-8158
▁formal	-8159
▁handle	-8160
▁losses	-8161
▁motion	-8162
ikiLeaks	-8163
▁Suspect	-8164
▁adopted	-8165
▁crossed	-8166
▁imposed	-8167
▁reforms	-8168
▁combined	-8169
▁demanded	-8170
▁dialogue	-8171
▁demanding	-8172
▁followers	-8173
▁sentences	-8174
▁southwest	-8175
▁spiritual	-8176
▁triggered	-8177
▁Blackwater	-8178
▁popularity	-8179
▁substitute	-8180
zo	-8181
amm	-8182
car	-8183
uls	-8184
▁Ox	-8185
case	-8186
uous	-8187
▁Reb	-8188
▁fru	-8189
oning	-8190
rible	-8191
▁Prof	-8192
▁Shan	-8193
▁Wolf	-8194
▁lung	-8195
isting	-8196
preced	-8197
▁Terry	-8198
▁postp	-8199
▁Panama	-8200
▁barrel	-8201
▁fiscal	-8202
▁locked	-8203
▁racing	-8204
▁starts	-8205
iscovery	-8206
▁Capitol	-8207
▁Kurdish	-8208
▁Phoenix	-8209
▁clients	-8210
▁iReport	-8211
▁revenue	-8212
▁advisory	-8213
▁consumer	-8214
▁suburban	-8215
▁Armstrong	-8216
precedented	-8217
▁partnership	-8218
▁resignation	-8219
.5	-8220
di	-8221
cot	-8222
ups	-8223
vez	-8224
▁37	-8225
ucks	-8226
▁24,	-8227
▁Tan	-8228
▁bat	-8229
obile	-8230
power	-8231
vised	-8232
▁1997	-8233
▁Hung	-8234
▁Nico	-8235
▁Plan	-8236
▁leak	-8237
▁pole	-8238
▁stri	-8239
ashing	-8240
▁Micro	-8241
▁cloud	-8242
▁memor	-8243
essions	-8244
▁Global	-8245
▁actors	-8246
▁clinic	-8247
▁winger	-8248
▁Station	-8249
▁mistake	-8250
▁teenage	-8251
▁Benedict	-8252
▁Lebanese	-8253
▁promises	-8254
▁encourage	-8255
▁predicted	-8256
▁sensitive	-8257
▁organizers	-8258
▁presidents	-8259
gio	-8260
met	-8261
rum	-8262
laim	-8263
ozni	-8264
zing	-8265
▁18,	-8266
▁27,	-8267
▁27-	-8268
▁Gab	-8269
▁Rol	-8270
▁kit	-8271
asury	-8272
▁Trib	-8273
▁pace	-8274
artial	-8275
ycling	-8276
▁Pitts	-8277
▁enorm	-8278
▁prosp	-8279
▁convoy	-8280
▁endang	-8281
▁storms	-8282
▁superv	-8283
▁wounds	-8284
▁Rangers	-8285
▁passage	-8286
▁slaying	-8287
▁tourism	-8288
▁Hispanic	-8289
▁Mohammad	-8290
▁missiles	-8291
▁villages	-8292
▁WikiLeaks	-8293
▁suspicion	-8294
▁Parliament	-8295
▁Prevention	-8296
▁apologized	-8297
▁compatriot	-8298
▁accusations	-8299
▁approximately	-8300
6-	-8301
How	-8302
hol	-8303
phy	-8304
azir	-8305
eler	-8306
host	-8307
iece	-8308
loyd	-8309
ocol	-8310
with	-8311
▁11-	-8312
▁50-	-8313
▁Ran	-8314
etown	-8315
▁Moto	-8316
▁Walk	-8317
▁bull	-8318
▁busy	-8319
▁meat	-8320
itable	-8321
▁Polit	-8322
▁Sloot	-8323
▁Staff	-8324
▁Study	-8325
▁Wozni	-8326
▁spots	-8327
▁Wright	-8328
▁aggrav	-8329
▁rubble	-8330
▁stayed	-8331
▁volunt	-8332
idelines	-8333
ologists	-8334
▁expects	-8335
▁highway	-8336
▁windows	-8337
▁indicate	-8338
▁interior	-8339
▁rankings	-8340
▁publicist	-8341
▁announcing	-8342
▁impressive	-8343
▁scientific	-8344
▁celebration	-8345
▁consequences	-8346
▁inauguration	-8347
▁communication	-8348
OL	-8349
ahu	-8350
aki	-8351
dam	-8352
key	-8353
omy	-8354
▁69	-8355
▁ge	-8356
ocks	-8357
tail	-8358
unal	-8359
▁Arn	-8360
▁Max	-8361
▁Ron	-8362
▁hik	-8363
▁map	-8364
▁wra	-8365
angel	-8366
icken	-8367
quiao	-8368
trick	-8369
uther	-8370
▁Alan	-8371
▁anch	-8372
▁fame	-8373
▁user	-8374
▁Analy	-8375
▁burst	-8376
▁lists	-8377
▁scale	-8378
▁shift	-8379
▁shore	-8380
▁truly	-8381
aration	-8382
reprene	-8383
▁Editor	-8384
▁Gibson	-8385
▁apprec	-8386
▁assets	-8387
▁babies	-8388
▁easily	-8389
▁opener	-8390
▁plenty	-8391
▁switch	-8392
ulations	-8393
▁Austria	-8394
▁Tunisia	-8395
▁drought	-8396
▁exposed	-8397
▁hitting	-8398
▁invited	-8399
▁invasion	-8400
▁massacre	-8401
▁Discovery	-8402
▁dominated	-8403
▁politician	-8404
▁consecutive	-8405
vo	-8406
LAN	-8407
osa	-8408
ione	-8409
urse	-8410
▁Opp	-8411
▁TSA	-8412
▁fro	-8413
▁nor	-8414
anson	-8415
▁FARC	-8416
▁adds	-8417
▁calm	-8418
apolis	-8419
atched	-8420
backed	-8421
▁Mouss	-8422
▁Sunni	-8423
▁chest	-8424
▁optim	-8425
iration	-8426
raining	-8427
▁Button	-8428
▁desert	-8429
▁sealed	-8430
▁Alberto	-8431
▁Disease	-8432
▁dressed	-8433
▁engines	-8434
▁flooded	-8435
▁purpose	-8436
▁smoking	-8437
▁Chairman	-8438
▁Pacquiao	-8439
▁internet	-8440
▁reducing	-8441
▁diagnosed	-8442
▁household	-8443
▁protected	-8444
▁punishment	-8445
-20	-8446
yer	-8447
ahar	-8448
▁22,	-8449
▁40-	-8450
▁Oak	-8451
▁Roy	-8452
isons	-8453
▁Book	-8454
▁Icel	-8455
▁Supp	-8456
▁rall	-8457
arents	-8458
iciary	-8459
ocaust	-8460
olitan	-8461
resent	-8462
▁Armed	-8463
▁bench	-8464
▁gangs	-8465
▁gross	-8466
▁guide	-8467
▁mouth	-8468
▁quiet	-8469
century	-8470
uations	-8471
▁Albert	-8472
▁Malays	-8473
▁extrad	-8474
▁gotten	-8475
▁passes	-8476
▁strang	-8477
▁Iceland	-8478
▁Swedish	-8479
▁bailout	-8480
▁Education	-8481
▁Sebastian	-8482
▁finishing	-8483
▁substance	-8484
▁evacuation	-8485
▁executives	-8486
▁interviewed	-8487
xi	-8488
but	-8489
isp	-8490
▁8,	-8491
▁Hy	-8492
▁ST	-8493
high	-8494
uter	-8495
antan	-8496
armed	-8497
rence	-8498
▁Hist	-8499
▁Raul	-8500
▁Sher	-8501
▁bare	-8502
▁embr	-8503
▁grid	-8504
▁twin	-8505
50,000	-8506
▁elite	-8507
▁lunch	-8508
▁obser	-8509
▁Iraqis	-8510
▁beauty	-8511
▁fields	-8512
▁trophy	-8513
▁connect	-8514
▁typical	-8515
▁Cambodia	-8516
▁Division	-8517
▁advanced	-8518
▁properly	-8519
▁youngest	-8520
▁Alexander	-8521
▁celebrities	-8522
▁contractors	-8523
▁participate	-8524
▁specifically	-8525
EC	-8526
GH	-8527
su	-8528
erez	-8529
heme	-8530
iago	-8531
inct	-8532
vere	-8533
▁29,	-8534
▁PGA	-8535
▁Sub	-8536
▁Tah	-8537
▁enh	-8538
▁Jama	-8539
▁code	-8540
▁cook	-8541
▁ease	-8542
▁impl	-8543
▁outs	-8544
▁Broad	-8545
▁Heath	-8546
▁Rossi	-8547
▁Seoul	-8548
▁blaze	-8549
▁cabin	-8550
▁escal	-8551
▁horse	-8552
▁paint	-8553
▁stuck	-8554
▁walls	-8555
▁Roland	-8556
▁agenda	-8557
▁breach	-8558
▁dubbed	-8559
▁satisf	-8560
▁vision	-8561
antanamo	-8562
tainment	-8563
▁accuses	-8564
▁pending	-8565
▁posting	-8566
▁pushing	-8567
▁theater	-8568
▁currency	-8569
▁hostages	-8570
▁wildlife	-8571
▁corporate	-8572
▁producers	-8573
▁residence	-8574
▁authorized	-8575
▁transplant	-8576
▁understanding	-8577
")	-8578
fe	-8579
aso	-8580
mig	-8581
olo	-8582
sid	-8583
zan	-8584
mund	-8585
▁End	-8586
▁Kay	-8587
▁ski	-8588
atist	-8589
cedes	-8590
ensus	-8591
erves	-8592
imore	-8593
tered	-8594
▁Coll	-8595
▁forg	-8596
▁Labor	-8597
▁Power	-8598
▁ninth	-8599
▁waves	-8600
▁Change	-8601
▁Common	-8602
▁Edward	-8603
▁Patrol	-8604
▁Polish	-8605
▁contem	-8606
▁humans	-8607
▁jumped	-8608
▁orphan	-8609
▁runner	-8610
▁tackle	-8611
▁Belgium	-8612
▁referee	-8613
▁tactics	-8614
▁homeland	-8615
▁somebody	-8616
▁contacted	-8617
▁donations	-8618
▁surprised	-8619
▁Guantanamo	-8620
▁electronic	-8621
akh	-8622
kel	-8623
▁52	-8624
▁7,	-8625
lock	-8626
usen	-8627
▁16,	-8628
▁3-2	-8629
ashir	-8630
▁Road	-8631
▁fill	-8632
▁lesb	-8633
▁cites	-8634
▁globe	-8635
▁hired	-8636
▁jewel	-8637
▁tries	-8638
▁weigh	-8639
casters	-8640
onymous	-8641
▁Disney	-8642
▁Dugard	-8643
▁Singer	-8644
▁cruise	-8645
▁manner	-8646
▁peacek	-8647
▁prefer	-8648
▁serves	-8649
▁strict	-8650
utrition	-8651
▁Highway	-8652
▁bombers	-8653
▁circuit	-8654
▁recruit	-8655
▁spotted	-8656
▁univers	-8657
▁Business	-8658
▁Festival	-8659
▁Movement	-8660
▁airplane	-8661
▁hometown	-8662
▁selected	-8663
▁slightly	-8664
▁tropical	-8665
▁Hampshire	-8666
▁childhood	-8667
▁collision	-8668
▁increases	-8669
▁radiation	-8670
▁protecting	-8671
▁competitive	-8672
▁Rh	-8673
Star	-8674
alez	-8675
rate	-8676
▁26,	-8677
▁911	-8678
▁Fuk	-8679
▁Get	-8680
▁Hon	-8681
▁sac	-8682
inces	-8683
liest	-8684
▁Mall	-8685
▁dise	-8686
▁solo	-8687
lights	-8688
season	-8689
stream	-8690
ushing	-8691
▁Baker	-8692
▁cells	-8693
▁chair	-8694
▁harsh	-8695
▁shout	-8696
mingham	-8697
▁Dakota	-8698
▁Latino	-8699
▁Spring	-8700
▁bloody	-8701
▁column	-8702
▁fundra	-8703
▁knocked	-8704
▁qualify	-8705
▁singing	-8706
▁abortion	-8707
▁argument	-8708
▁arriving	-8709
▁commonly	-8710
▁psychiat	-8711
▁sporting	-8712
▁whatever	-8713
▁procedure	-8714
▁Birmingham	-8715
▁provincial	-8716
▁underground	-8717
▁investigated	-8718
▁investigations	-8719
47	-8720
Un	-8721
idal	-8722
▁12,	-8723
▁31,	-8724
▁III	-8725
▁rid	-8726
▁sav	-8727
ammar	-8728
ining	-8729
venue	-8730
▁1996	-8731
▁Aden	-8732
▁Gall	-8733
▁Sadd	-8734
▁Stra	-8735
▁Wars	-8736
▁epid	-8737
▁furn	-8738
▁hung	-8739
arrass	-8740
▁Muham	-8741
▁conce	-8742
▁oblig	-8743
▁troop	-8744
▁50,000	-8745
▁Caylee	-8746
▁Hassan	-8747
▁excell	-8748
▁export	-8749
▁faster	-8750
▁mechan	-8751
▁tracks	-8752
▁Experts	-8753
▁Hamburg	-8754
▁Tripoli	-8755
▁dealers	-8756
▁premier	-8757
▁verdict	-8758
▁exposure	-8759
▁shipping	-8760
▁supports	-8761
▁Dominican	-8762
▁astronaut	-8763
▁disasters	-8764
▁investors	-8765
▁mountains	-8766
▁prompting	-8767
▁atmosphere	-8768
▁discussion	-8769
▁frequently	-8770
▁responding	-8771
▁techniques	-8772
▁application	-8773
▁participants	-8774
▁Environmental	-8775
▁unprecedented	-8776
",	-8777
ahn	-8778
▁57	-8779
▁AN	-8780
▁Vo	-8781
▁ju	-8782
elli	-8783
held	-8784
oric	-8785
udad	-8786
umes	-8787
▁Rem	-8788
▁WTA	-8789
▁lit	-8790
speed	-8791
strik	-8792
third	-8793
usion	-8794
▁Whit	-8795
▁crim	-8796
▁enth	-8797
▁Hamid	-8798
▁Petra	-8799
▁Forest	-8800
▁Madoff	-8801
▁Yemeni	-8802
▁admits	-8803
▁trials	-8804
▁Speaker	-8805
▁Student	-8806
▁Witness	-8807
▁knowing	-8808
▁profile	-8809
▁volcano	-8810
▁Frontier	-8811
▁Treasury	-8812
▁aviation	-8813
▁executed	-8814
▁painting	-8815
▁realized	-8816
▁stranded	-8817
▁Baltimore	-8818
▁launching	-8819
▁legitimate	-8820
▁maintained	-8821
uz	-8822
wa	-8823
erd	-8824
▁Lo	-8825
iser	-8826
made	-8827
oval	-8828
oves	-8829
thur	-8830
▁193	-8831
▁Len	-8832
▁Row	-8833
▁USS	-8834
▁hyd	-8835
▁mic	-8836
▁swe	-8837
▁tar	-8838
scale	-8839
stone	-8840
▁Buff	-8841
▁Circ	-8842
▁Hard	-8843
▁Lisa	-8844
▁Once	-8845
▁Trop	-8846
▁deny	-8847
▁fees	-8848
▁guys	-8849
▁mile	-8850
▁moon	-8851
manuel	-8852
▁schol	-8853
▁solid	-8854
attered	-8855
▁Corpor	-8856
▁Father	-8857
▁Webber	-8858
▁jurors	-8859
▁ousted	-8860
▁palace	-8861
▁signal	-8862
▁fatally	-8863
▁sailors	-8864
▁Campbell	-8865
▁detailed	-8866
▁senators	-8867
▁stronger	-8868
▁Microsoft	-8869
▁advocates	-8870
▁departure	-8871
▁happening	-8872
▁legendary	-8873
▁screening	-8874
▁employment	-8875
▁personally	-8876
▁destination	-8877
--	-8878
aco	-8879
tic	-8880
▁LA	-8881
alke	-8882
phis	-8883
uros	-8884
▁Vat	-8885
▁Zak	-8886
▁vig	-8887
antic	-8888
jamin	-8889
ockey	-8890
oping	-8891
orent	-8892
▁Cust	-8893
▁Down	-8894
▁Horn	-8895
▁Kenn	-8896
▁Salv	-8897
▁beer	-8898
▁seal	-8899
▁taxp	-8900
▁tips	-8901
▁turb	-8902
ateral	-8903
▁Dream	-8904
▁Fritz	-8905
▁Where	-8906
▁guest	-8907
▁posts	-8908
▁Contin	-8909
▁attrib	-8910
▁feared	-8911
▁filing	-8912
▁priest	-8913
▁rumors	-8914
▁urging	-8915
munition	-8916
▁Mohamed	-8917
▁Reports	-8918
▁briefly	-8919
▁mothers	-8920
▁prayers	-8921
▁athletes	-8922
▁attached	-8923
▁stunning	-8924
▁survivor	-8925
▁Holocaust	-8926
▁detonated	-8927
▁prevented	-8928
▁Pittsburgh	-8929
▁classified	-8930
▁newspapers	-8931
▁fundamental	-8932
▁applications	-8933
▁demonstration	-8934
acc	-8935
▁Sa	-8936
abil	-8937
frey	-8938
oles	-8939
olta	-8940
▁4-0	-8941
▁Dev	-8942
▁Pen	-8943
▁unn	-8944
Every	-8945
ueens	-8946
▁Gill	-8947
▁Nash	-8948
▁Nich	-8949
▁Phot	-8950
▁cous	-8951
▁halt	-8952
▁scor	-8953
inated	-8954
▁Thomp	-8955
▁forms	-8956
▁phase	-8957
▁unity	-8958
ointing	-8959
▁Austin	-8960
▁Sergio	-8961
▁guitar	-8962
▁scheme	-8963
▁Memphis	-8964
▁capable	-8965
▁coroner	-8966
▁courage	-8967
▁realize	-8968
▁storage	-8969
▁unclear	-8970
▁warming	-8971
▁Brooklyn	-8972
▁Gonzalez	-8973
▁managing	-8974
▁shoulder	-8975
▁strongly	-8976
▁Residents	-8977
▁criminals	-8978
▁improving	-8979
▁regularly	-8980
▁transform	-8981
▁depression	-8982
▁transferred	-8983
▁northeastern	-8984
▁overwhelming	-8985
aqu	-8986
icy	-8987
put	-8988
zen	-8989
▁je	-8990
acki	-8991
agen	-8992
▁Alv	-8993
▁Amy	-8994
▁Jar	-8995
While	-8996
eding	-8997
eling	-8998
ooter	-8999
orses	-9000
▁Fair	-9001
▁Lenn	-9002
▁soil	-9003
ruguay	-9004
▁Every	-9005
▁agric	-9006
▁blank	-9007
▁Airbus	-9008
▁thrown	-9009
▁Critics	-9010
▁Freedom	-9011
▁battery	-9012
▁cartoon	-9013
▁divided	-9014
▁matters	-9015
▁profits	-9016
▁shouldn	-9017
▁Thompson	-9018
▁midnight	-9019
▁Discussion	-9020
▁Scientists	-9021
▁permission	-9022
▁surrounded	-9023
▁recommended	-9024
BO	-9025
On	-9026
cle	-9027
has	-9028
hop	-9029
sur	-9030
▁6,	-9031
▁73	-9032
▁Ci	-9033
▁Cy	-9034
▁Lt	-9035
iate	-9036
ilit	-9037
▁Eto	-9038
▁Kal	-9039
▁Sab	-9040
▁bon	-9041
▁ham	-9042
These	-9043
rific	-9044
▁Dean	-9045
▁Hugo	-9046
▁Jews	-9047
▁Siro	-9048
▁legs	-9049
▁Loren	-9050
▁Nixon	-9051
▁apply	-9052
▁navig	-9053
▁preca	-9054
▁stick	-9055
▁Govern	-9056
▁Winter	-9057
▁suburb	-9058
stitutes	-9059
▁Bernard	-9060
▁Country	-9061
▁Moammar	-9062
▁Vatican	-9063
▁decline	-9064
▁donated	-9065
▁elderly	-9066
▁hosting	-9067
▁Benjamin	-9068
▁Honduras	-9069
▁accusing	-9070
▁contains	-9071
▁diseases	-9072
▁homicide	-9073
▁Executive	-9074
▁Wozniacki	-9075
▁scientist	-9076
▁southeast	-9077
▁ammunition	-9078
▁interested	-9079
▁performances	-9080
?'	-9081
iy	-9082
pa	-9083
Mal	-9084
bes	-9085
mes	-9086
mod	-9087
zed	-9088
▁$9	-9089
aman	-9090
club	-9091
opsy	-9092
▁21-	-9093
▁CBS	-9094
▁ric	-9095
asure	-9096
▁1989	-9097
▁Anna	-9098
▁Head	-9099
▁Palm	-9100
▁tiny	-9101
onnell	-9102
▁Mario	-9103
▁Princ	-9104
▁Still	-9105
▁occas	-9106
lington	-9107
ultural	-9108
▁intens	-9109
▁poison	-9110
▁shares	-9111
▁transp	-9112
▁weekly	-9113
▁welcom	-9114
▁Montana	-9115
▁Roberto	-9116
▁approve	-9117
▁stretch	-9118
▁defended	-9119
▁informed	-9120
▁referred	-9121
▁sponsors	-9122
▁extensive	-9123
▁extremists	-9124
▁combination	-9125
AD	-9126
jud	-9127
▁Aj	-9128
▁Wy	-9129
appy	-9130
atan	-9131
oons	-9132
wick	-9133
▁Bon	-9134
▁Mig	-9135
▁avo	-9136
▁bes	-9137
▁mun	-9138
▁unp	-9139
ailed	-9140
roper	-9141
▁1950	-9142
▁Aren	-9143
▁blew	-9144
▁iPad	-9145
▁scre	-9146
▁touc	-9147
beaten	-9148
rative	-9149
▁Grant	-9150
▁acted	-9151
▁disag	-9152
▁marry	-9153
▁portr	-9154
▁stead	-9155
▁tablo	-9156
▁warns	-9157
▁Golden	-9158
▁Thanks	-9159
▁covers	-9160
▁gender	-9161
▁Stevens	-9162
▁Uruguay	-9163
▁amazing	-9164
▁militia	-9165
▁seasons	-9166
▁Austrian	-9167
▁engineer	-9168
▁frequent	-9169
▁overcome	-9170
▁contracts	-9171
▁embarrass	-9172
▁selection	-9173
▁standings	-9174
▁aggressive	-9175
▁commissioner	-9176
▁contaminated	-9177
▁participating	-9178
CO	-9179
VI	-9180
-19	-9181
col	-9182
▁OK	-9183
lete	-9184
unes	-9185
vant	-9186
▁Est	-9187
▁vit	-9188
mails	-9189
ollar	-9190
shore	-9191
storm	-9192
unior	-9193
▁Mill	-9194
▁Rose	-9195
▁chap	-9196
▁fake	-9197
▁pock	-9198
eepers	-9199
icious	-9200
olence	-9201
▁2007.	-9202
▁Jeffs	-9203
▁await	-9204
▁march	-9205
▁recip	-9206
earcher	-9207
selling	-9208
sharing	-9209
▁Fritzl	-9210
iliation	-9211
▁Centers	-9212
▁Charlie	-9213
▁Everton	-9214
▁Schalke	-9215
▁Winfrey	-9216
▁concept	-9217
▁Travolta	-9218
▁enormous	-9219
▁involves	-9220
▁judgment	-9221
▁operated	-9222
▁striking	-9223
▁desperate	-9224
▁teenagers	-9225
stitutional	-9226
▁aggravated	-9227
▁industrial	-9228
▁preventing	-9229
▁temporarily	-9230
▁manufacturer	-9231
erb	-9232
ika	-9233
kar	-9234
▁(3	-9235
▁Fi	-9236
▁Py	-9237
then	-9238
uest	-9239
▁10,	-9240
▁Aid	-9241
▁Ath	-9242
▁Esp	-9243
▁Hop	-9244
▁Inf	-9245
▁Ref	-9246
▁Str	-9247
▁bip	-9248
,000-	-9249
acket	-9250
bagbo	-9251
olfer	-9252
oured	-9253
▁Bond	-9254
▁Main	-9255
▁Pier	-9256
▁cert	-9257
▁drum	-9258
▁holy	-9259
▁habit	-9260
▁shirt	-9261
General	-9262
▁Danish	-9263
▁Kenyan	-9264
▁Nation	-9265
▁Saddam	-9266
▁Sandra	-9267
▁Uganda	-9268
▁albums	-9269
▁lowest	-9270
▁speaks	-9271
▁Belgian	-9272
▁Janeiro	-9273
▁channel	-9274
▁episode	-9275
▁fleeing	-9276
▁forcing	-9277
▁singles	-9278
▁virtual	-9279
abilities	-9280
ropolitan	-9281
▁accompan	-9282
▁examiner	-9283
▁normally	-9284
▁appearing	-9285
▁construct	-9286
▁principal	-9287
▁releasing	-9288
▁absolutely	-9289
▁entreprene	-9290
En	-9291
100	-9292
600	-9293
800	-9294
top	-9295
▁Wi	-9296
issa	-9297
pour	-9298
▁29-	-9299
▁Ast	-9300
▁Dog	-9301
▁Gas	-9302
▁syn	-9303
acted	-9304
▁Hope	-9305
▁Only	-9306
▁diet	-9307
screen	-9308
▁Jerry	-9309
▁Lever	-9310
▁lobby	-9311
▁persu	-9312
▁queen	-9313
▁Powell	-9314
▁Serena	-9315
▁actual	-9316
▁header	-9317
▁manage	-9318
▁alleges	-9319
▁answers	-9320
▁bottles	-9321
▁lessons	-9322
▁wickets	-9323
terrorism	-9324
▁Delaware	-9325
▁Victoria	-9326
▁deciding	-9327
▁downturn	-9328
▁graduate	-9329
▁defendant	-9330
▁producing	-9331
▁smuggling	-9332
▁suspicious	-9333
▁discussions	-9334
hit	-9335
ugs	-9336
▁Fu	-9337
itis	-9338
odes	-9339
riel	-9340
wife	-9341
▁Ric	-9342
▁Sev	-9343
▁cul	-9344
▁cup	-9345
▁gym	-9346
inson	-9347
osite	-9348
owing	-9349
slist	-9350
▁Bron	-9351
▁Brun	-9352
▁bout	-9353
▁clay	-9354
▁pope	-9355
▁soul	-9356
earing	-9357
▁2009.	-9358
▁Actor	-9359
▁Brand	-9360
▁Medic	-9361
▁Putin	-9362
▁Sheen	-9363
▁buses	-9364
▁chaos	-9365
▁drown	-9366
▁dying	-9367
▁graph	-9368
▁pharm	-9369
▁releg	-9370
▁Ciudad	-9371
▁Friend	-9372
▁Sports	-9373
▁engage	-9374
▁reconc	-9375
▁silver	-9376
▁spoken	-9377
▁subsid	-9378
▁trauma	-9379
▁Beatles	-9380
▁Profess	-9381
▁jewelry	-9382
▁Muhammad	-9383
▁billions	-9384
▁function	-9385
▁moderate	-9386
▁sleeping	-9387
▁thorough	-9388
▁Operation	-9389
▁collected	-9390
▁courtroom	-9391
▁observers	-9392
▁qualified	-9393
▁Richardson	-9394
▁complained	-9395
▁remarkable	-9396
▁salmonella	-9397
▁Enforcement	-9398
▁association	-9399
▁Intelligence	-9400
▁prescription	-9401
El	-9402
lav	-9403
odd	-9404
▁BM	-9405
inez	-9406
▁Hal	-9407
amber	-9408
ancou	-9409
andan	-9410
▁Jong	-9411
▁Then	-9412
▁spin	-9413
estyle	-9414
igious	-9415
ranged	-9416
rowing	-9417
▁Jimmy	-9418
▁Techn	-9419
▁decre	-9420
▁keeps	-9421
▁Engine	-9422
▁Follow	-9423
▁Murphy	-9424
▁Norway	-9425
▁Vancou	-9426
▁bitter	-9427
▁duties	-9428
▁honest	-9429
▁perpet	-9430
▁unders	-9431
ographic	-9432
▁grabbed	-9433
▁handful	-9434
▁murders	-9435
▁outlets	-9436
▁portion	-9437
▁ranging	-9438
▁Assembly	-9439
▁occasion	-9440
▁pipeline	-9441
▁Vancouver	-9442
▁addiction	-9443
▁competing	-9444
▁Conference	-9445
▁endangered	-9446
▁challenging	-9447
▁questioning	-9448
▁extraordinary	-9449
GP	-9450
ICE	-9451
SAF	-9452
rac	-9453
▁Ak	-9454
ihad	-9455
olds	-9456
plus	-9457
serv	-9458
▁Maj	-9459
▁Tel	-9460
about	-9461
andom	-9462
bound	-9463
kusen	-9464
orous	-9465
rogba	-9466
works	-9467
▁Band	-9468
▁Chad	-9469
▁Deep	-9470
▁Nine	-9471
▁marg	-9472
▁shed	-9473
ackers	-9474
icting	-9475
rating	-9476
▁5,000	-9477
▁Crick	-9478
▁Istan	-9479
▁Stock	-9480
▁Venus	-9481
▁brown	-9482
▁trips	-9483
▁venue	-9484
unction	-9485
▁Border	-9486
▁Drogba	-9487
▁enthus	-9488
▁hiding	-9489
▁kicked	-9490
▁legacy	-9491
breaking	-9492
▁Bolivia	-9493
▁applied	-9494
▁backing	-9495
▁handled	-9496
▁shocked	-9497
▁Istanbul	-9498
▁airstrik	-9499
▁describe	-9500
▁memories	-9501
controlled	-9502
▁intention	-9503
▁musicians	-9504
▁nightclub	-9505
▁Leverkusen	-9506
▁Protesters	-9507
▁celebrated	-9508
▁withdrawal	-9509
▁politically	-9510
▁compensation	-9511
▁Revolutionary	-9512
▁interrogation	-9513
▁professionals	-9514
axy	-9515
voy	-9516
azon	-9517
ints	-9518
mind	-9519
wait	-9520
▁Ces	-9521
▁Vol	-9522
▁mir	-9523
umber	-9524
▁Turn	-9525
▁frag	-9526
▁mour	-9527
▁none	-9528
eneath	-9529
ickers	-9530
▁Alger	-9531
▁ambul	-9532
▁drone	-9533
▁kinds	-9534
▁solve	-9535
▁spell	-9536
▁strip	-9537
▁Gbagbo	-9538
▁Santos	-9539
▁Victor	-9540
▁endors	-9541
▁impose	-9542
▁outfit	-9543
▁transl	-9544
▁videot	-9545
inations	-9546
▁Command	-9547
▁checked	-9548
▁disrupt	-9549
▁factory	-9550
▁hanging	-9551
▁Caroline	-9552
▁advocacy	-9553
▁crossing	-9554
▁petition	-9555
▁yourself	-9556
▁affecting	-9557
▁provinces	-9558
▁spotlight	-9559
▁Assistance	-9560
▁encouraged	-9561
▁advertising	-9562
▁declaration	-9563
▁recognition	-9564
▁significantly	-9565
eds	-9566
▁72	-9567
▁Ry	-9568
aret	-9569
bury	-9570
ovie	-9571
▁23,	-9572
▁28-	-9573
▁Bal	-9574
▁MTV	-9575
▁Sod	-9576
▁alt	-9577
▁hur	-9578
▁spy	-9579
aguay	-9580
atile	-9581
ribed	-9582
uable	-9583
uters	-9584
▁Call	-9585
▁Cond	-9586
▁rent	-9587
▁urge	-9588
anyahu	-9589
estone	-9590
member	-9591
ushima	-9592
▁Night	-9593
▁aired	-9594
▁audio	-9595
▁mixed	-9596
▁ranks	-9597
▁stake	-9598
▁tours	-9599
▁Arthur	-9600
▁Indust	-9601
▁Travel	-9602
▁ballot	-9603
▁hunger	-9604
▁Mission	-9605
▁drawing	-9606
▁insists	-9607
▁inspect	-9608
▁transit	-9609
ibilities	-9610
▁Economic	-9611
▁anywhere	-9612
▁expanded	-9613
▁republic	-9614
▁engineers	-9615
▁excellent	-9616
▁provision	-9617
▁requiring	-9618
▁medication	-9619
▁suspension	-9620
▁differences	-9621
ek	-9622
And	-9623
▁68	-9624
Neal	-9625
aved	-9626
eder	-9627
feld	-9628
illo	-9629
onto	-9630
ript	-9631
▁Cit	-9632
▁Hil	-9633
▁Jak	-9634
▁Tou	-9635
▁Was	-9636
▁tum	-9637
ladim	-9638
vedev	-9639
▁Anne	-9640
▁Burn	-9641
▁Hood	-9642
▁Idol	-9643
▁Mick	-9644
▁aide	-9645
▁arts	-9646
▁hide	-9647
▁seas	-9648
▁unse	-9649
berger	-9650
giving	-9651
idding	-9652
▁2008.	-9653
▁Asked	-9654
▁Boyle	-9655
▁fined	-9656
▁forth	-9657
▁joins	-9658
▁shops	-9659
▁wrest	-9660
▁Hollow	-9661
▁breaks	-9662
▁forget	-9663
▁franch	-9664
▁listen	-9665
▁riding	-9666
▁200,000	-9667
▁Cricket	-9668
▁Zakaria	-9669
▁battles	-9670
▁speaker	-9671
▁tabloid	-9672
▁Haitians	-9673
▁Harrison	-9674
▁Paraguay	-9675
▁Robinson	-9676
▁customer	-9677
▁infected	-9678
▁severely	-9679
▁substant	-9680
▁survival	-9681
▁Bloomberg	-9682
▁Fukushima	-9683
▁Netanyahu	-9684
▁Relations	-9685
▁promoting	-9686
▁uncertain	-9687
▁undercover	-9688
▁engineering	-9689
▁neighborhoods	-9690
▁recommendations	-9691
TE	-9692
zb	-9693
des	-9694
imp	-9695
▁61	-9696
▁pu	-9697
arta	-9698
eneg	-9699
ghai	-9700
just	-9701
mont	-9702
offs	-9703
vian	-9704
▁7-5	-9705
▁Edu	-9706
▁Lah	-9707
▁Pin	-9708
▁Rac	-9709
▁Ted	-9710
ateur	-9711
gging	-9712
ifies	-9713
offic	-9714
▁Bhut	-9715
▁Rain	-9716
▁Your	-9717
▁acad	-9718
▁boom	-9719
▁fulf	-9720
▁liqu	-9721
▁pand	-9722
▁rans	-9723
astrop	-9724
uthors	-9725
▁1,500	-9726
▁Natal	-9727
▁cardi	-9728
▁erupt	-9729
▁fault	-9730
▁meals	-9731
▁opens	-9732
ladimir	-9733
▁MotoGP	-9734
▁Valent	-9735
▁extent	-9736
▁repeal	-9737
expected	-9738
ilateral	-9739
▁Lorenzo	-9740
▁advised	-9741
▁caution	-9742
▁objects	-9743
▁Iranians	-9744
▁Martinez	-9745
▁Mercedes	-9746
▁Santiago	-9747
▁Veterans	-9748
▁adoption	-9749
▁focusing	-9750
▁machines	-9751
▁offender	-9752
▁releases	-9753
▁Communist	-9754
▁Melbourne	-9755
▁announces	-9756
▁excessive	-9757
▁witnessed	-9758
▁Indonesian	-9759
▁conclusion	-9760
▁Corporation	-9761
▁anticipated	-9762
▁businessman	-9763
▁distributed	-9764
LN	-9765
sm	-9766
adr	-9767
irm	-9768
oty	-9769
▁IR	-9770
▁Mr	-9771
▁SU	-9772
▁ru	-9773
ampa	-9774
arks	-9775
avar	-9776
fast	-9777
▁(19	-9778
▁Oil	-9779
▁gor	-9780
▁sor	-9781
itage	-9782
rical	-9783
unity	-9784
▁Corn	-9785
▁Insp	-9786
▁Sold	-9787
▁Tele	-9788
▁drag	-9789
▁tool	-9790
ancell	-9791
▁Jorge	-9792
▁argue	-9793
▁badly	-9794
▁enemy	-9795
▁sharp	-9796
▁upper	-9797
▁Rivers	-9798
▁Search	-9799
▁bacter	-9800
▁random	-9801
▁Actress	-9802
▁Chilean	-9803
▁Liberty	-9804
▁Toronto	-9805
▁Workers	-9806
▁landmark	-9807
▁lifetime	-9808
▁murdered	-9809
▁unbeaten	-9810
▁campaigns	-9811
▁immigrant	-9812
▁nominated	-9813
outheastern	-9814
▁Convention	-9815
▁regardless	-9816
▁subsequent	-9817
▁accompanied	-9818
▁proceedings	-9819
pse	-9820
▁5,	-9821
▁ID	-9822
ivan	-9823
▁Der	-9824
▁Han	-9825
▁Mao	-9826
▁McK	-9827
▁Our	-9828
athon	-9829
igers	-9830
iture	-9831
olent	-9832
ommod	-9833
pound	-9834
verly	-9835
▁1993	-9836
▁Kand	-9837
▁Mush	-9838
▁Ward	-9839
▁navy	-9840
▁span	-9841
▁tail	-9842
apping	-9843
author	-9844
icient	-9845
▁Immig	-9846
▁Marie	-9847
▁Trust	-9848
▁colon	-9849
▁holes	-9850
▁pilgr	-9851
▁sends	-9852
▁surre	-9853
▁toler	-9854
ologies	-9855
▁Graham	-9856
▁Parker	-9857
▁abused	-9858
▁blocks	-9859
▁golfer	-9860
▁landsc	-9861
▁studio	-9862
▁unions	-9863
▁Helmand	-9864
▁Without	-9865
▁focuses	-9866
▁hopeful	-9867
▁outcome	-9868
▁renewed	-9869
▁underst	-9870
▁Medvedev	-9871
▁Peterson	-9872
▁Shanghai	-9873
▁accommod	-9874
▁counties	-9875
▁entrance	-9876
▁mortgage	-9877
▁requests	-9878
▁searched	-9879
▁Represent	-9880
▁motivated	-9881
▁pollution	-9882
▁reference	-9883
▁interesting	-9884
▁confirmation	-9885
▁requirements	-9886
▁correspondent	-9887
5-	-9888
New	-9889
pin	-9890
was	-9891
▁WW	-9892
achi	-9893
cott	-9894
olks	-9895
▁180	-9896
▁Agr	-9897
▁lib	-9898
ifted	-9899
rings	-9900
ulous	-9901
▁$500	-9902
▁Hezb	-9903
▁Lock	-9904
▁dust	-9905
▁fate	-9906
▁phen	-9907
▁soph	-9908
▁spac	-9909
Maliki	-9910
rupted	-9911
wealth	-9912
▁2006.	-9913
▁Billy	-9914
▁Guine	-9915
▁Perez	-9916
▁dates	-9917
▁flown	-9918
▁loans	-9919
▁merch	-9920
ocument	-9921
▁20,000	-9922
▁Arctic	-9923
▁Celtic	-9924
▁Forbes	-9925
▁Kuwait	-9926
▁Nicole	-9927
▁Villar	-9928
▁harder	-9929
▁ranked	-9930
▁Morning	-9931
▁Records	-9932
▁Sevilla	-9933
▁apology	-9934
▁noticed	-9935
▁ratings	-9936
▁stabbed	-9937
▁tension	-9938
▁wealthy	-9939
▁Alliance	-9940
▁Medicare	-9941
▁achieved	-9942
▁evacuate	-9943
▁improper	-9944
▁relative	-9945
▁wounding	-9946
▁Amendment	-9947
▁Community	-9948
▁overturned	-9949
▁situations	-9950
▁temperature	-9951
▁assassination	-9952
▁manufacturing	-9953
AL	-9954
700	-9955
how	-9956
jev	-9957
uba	-9958
acco	-9959
bach	-9960
iege	-9961
sper	-9962
uard	-9963
yang	-9964
▁Flo	-9965
▁Ret	-9966
▁Roh	-9967
▁cig	-9968
▁sed	-9969
aired	-9970
chest	-9971
erald	-9972
▁Brew	-9973
▁Dort	-9974
▁Each	-9975
▁Salt	-9976
▁chef	-9977
▁fest	-9978
▁foul	-9979
▁gard	-9980
accept	-9981
acular	-9982
enberg	-9983
essing	-9984
▁Diana	-9985
▁Field	-9986
▁Honda	-9987
▁Massa	-9988
▁Myers	-9989
▁Schum	-9990
▁accur	-9991
▁nurse	-9992
▁pound	-9993
▁uncon	-9994
ijsters	-9995
powered	-9996
▁Adrian	-9997
▁Greene	-9998
▁Newark	-9999
▁Rescue	-10000
▁Warner	-10001
▁copies	-10002
▁horses	-10003
▁infant	-10004
▁meteor	-10005
▁profit	-10006
▁rushed	-10007
▁saving	-10008
▁Analyst	-10009
▁Hernand	-10010
▁element	-10011
▁liberal	-10012
▁longest	-10013
▁reaches	-10014
▁Dortmund	-10015
▁Holloway	-10016
▁Johannes	-10017
▁Moussavi	-10018
▁Wildlife	-10019
▁deadline	-10020
▁prisoner	-10021
▁teaching	-10022
▁Guatemala	-10023
▁Hezbollah	-10024
▁audiences	-10025
▁solutions	-10026
▁Schumacher	-10027
▁incredible	-10028
▁recovering	-10029
Ne	-10030
Pe	-10031
cho	-10032
boat	-10033
iang	-10034
oney	-10035
osex	-10036
othe	-10037
▁Kam	-10038
▁McM	-10039
arity	-10040
lects	-10041
rives	-10042
ucker	-10043
▁Care	-10044
▁Copa	-10045
▁Dave	-10046
▁Find	-10047
▁burg	-10048
▁dign	-10049
▁lots	-10050
▁mans	-10051
elfare	-10052
icipal	-10053
onents	-10054
ousand	-10055
▁Krist	-10056
▁Oprah	-10057
▁Silva	-10058
▁Sound	-10059
▁blind	-10060
▁moral	-10061
▁rugby	-10062
▁tower	-10063
▁trash	-10064
tenance	-10065
▁15,000	-10066
▁Amazon	-10067
▁Justin	-10068
▁Silver	-10069
▁locals	-10070
▁prayer	-10071
▁Gardner	-10072
▁Phillip	-10073
▁condemn	-10074
▁honored	-10075
▁inspire	-10076
▁undergo	-10077
intendent	-10078
▁Superior	-10079
▁alliance	-10080
▁constant	-10081
▁creative	-10082
▁credited	-10083
▁grenades	-10084
▁isolated	-10085
▁judicial	-10086
▁managers	-10087
identified	-10088
▁Clijsters	-10089
▁Hernandez	-10090
▁arguments	-10091
▁communist	-10092
▁Craigslist	-10093
▁devastated	-10094
▁structures	-10095
▁Information	-10096
▁controllers	-10097
▁represented	-10098
▁disappointed	-10099
▁southeastern	-10100
15	-10101
vy	-10102
▁)	-10103
die	-10104
dis	-10105
eli	-10106
eus	-10107
nan	-10108
▁1.	-10109
▁76	-10110
iani	-10111
oken	-10112
rets	-10113
▁$20	-10114
▁250	-10115
▁SEA	-10116
actor	-10117
liner	-10118
▁Back	-10119
▁Tech	-10120
▁belt	-10121
▁phil	-10122
▁toug	-10123
▁Agric	-10124
▁Hayes	-10125
▁Janet	-10126
▁Maine	-10127
▁adequ	-10128
▁bases	-10129
▁euros	-10130
▁skull	-10131
▁tires	-10132
▁Palace	-10133
▁blames	-10134
▁dumped	-10135
▁intern	-10136
▁partly	-10137
▁retain	-10138
▁routes	-10139
▁sounds	-10140
▁Android	-10141
▁autopsy	-10142
▁beneath	-10143
▁edition	-10144
elsewhere	-10145
▁Majority	-10146
▁confirms	-10147
▁controls	-10148
▁electoral	-10149
▁strategic	-10150
▁submitted	-10151
▁violating	-10152
▁harassment	-10153
▁Continental	-10154
▁celebrating	-10155
aho	-10156
aun	-10157
vin	-10158
▁77	-10159
▁FC	-10160
▁PR	-10161
▁Ra	-10162
▁UC	-10163
face	-10164
mons	-10165
ooth	-10166
ques	-10167
rank	-10168
rard	-10169
ribe	-10170
rift	-10171
▁Fal	-10172
▁Pon	-10173
▁Tog	-10174
▁ank	-10175
▁joy	-10176
eting	-10177
party	-10178
▁Free	-10179
▁Lyon	-10180
▁empt	-10181
▁nick	-10182
▁pose	-10183
▁sits	-10184
▁slot	-10185
writer	-10186
▁Blair	-10187
▁Marco	-10188
▁Smart	-10189
▁Soder	-10190
▁Stand	-10191
▁Tyler	-10192
▁boxes	-10193
▁clock	-10194
▁farms	-10195
▁fever	-10196
▁upris	-10197
looking	-10198
▁Andrea	-10199
▁Weekly	-10200
▁Wenger	-10201
▁fisher	-10202
▁pastor	-10203
▁slowly	-10204
esterday	-10205
▁Beverly	-10206
▁Frances	-10207
▁Laurent	-10208
▁monthly	-10209
▁pulling	-10210
▁Consumer	-10211
▁discover	-10212
▁Defending	-10213
▁accidents	-10214
▁conflicts	-10215
▁elsewhere	-10216
▁expansion	-10217
▁obviously	-10218
▁spreading	-10219
▁Villarreal	-10220
▁contractor	-10221
▁Researchers	-10222
▁inspiration	-10223
▁sustainable	-10224
ige	-10225
▁Ho	-10226
▁Ou	-10227
aron	-10228
etic	-10229
gart	-10230
greg	-10231
mans	-10232
othy	-10233
that	-10234
▁$50	-10235
▁700	-10236
▁Agu	-10237
▁BBC	-10238
▁Kyi	-10239
▁Pic	-10240
▁cin	-10241
eeing	-10242
igger	-10243
▁Buck	-10244
▁Fish	-10245
▁Golf	-10246
▁ISAF	-10247
▁Lady	-10248
▁Maur	-10249
▁Zard	-10250
▁flat	-10251
thouse	-10252
urring	-10253
▁2002,	-10254
▁Antar	-10255
▁Fabio	-10256
▁Hasan	-10257
▁Keith	-10258
▁crude	-10259
▁knife	-10260
▁posed	-10261
▁riots	-10262
▁usual	-10263
▁Rwanda	-10264
▁abuses	-10265
▁conced	-10266
▁ethics	-10267
▁funded	-10268
▁makers	-10269
▁raping	-10270
▁stated	-10271
▁stroke	-10272
▁taught	-10273
▁Raymond	-10274
▁Zardari	-10275
▁disturb	-10276
▁methods	-10277
▁restored	-10278
▁throwing	-10279
illionaire	-10280
▁Blackburn	-10281
▁Southwest	-10282
▁indicates	-10283
▁otherwise	-10284
▁qualifier	-10285
▁critically	-10286
▁deployment	-10287
▁participation	-10288
▁psychological	-10289
49	-10290
PD	-10291
sa	-10292
cut	-10293
emi	-10294
rin	-10295
▁UA	-10296
awar	-10297
emed	-10298
girl	-10299
leep	-10300
rine	-10301
uits	-10302
▁Box	-10303
▁Its	-10304
▁Jen	-10305
▁Kaz	-10306
▁Nik	-10307
▁Suu	-10308
▁bic	-10309
▁bik	-10310
▁tag	-10311
arted	-10312
eanor	-10313
regas	-10314
▁1992	-10315
▁Pear	-10316
▁Rico	-10317
▁fare	-10318
▁rely	-10319
▁visa	-10320
Bashir	-10321
letico	-10322
linary	-10323
▁Hosni	-10324
▁Pedro	-10325
▁Tomas	-10326
▁firms	-10327
▁revel	-10328
▁Havana	-10329
▁conven	-10330
▁fierce	-10331
▁parade	-10332
▁reject	-10333
▁repeat	-10334
▁runoff	-10335
▁theory	-10336
friendly	-10337
▁Eduardo	-10338
▁Koreans	-10339
▁carries	-10340
▁rapidly	-10341
▁shooter	-10342
▁Cameroon	-10343
▁Christie	-10344
▁Fabregas	-10345
▁mourning	-10346
▁romantic	-10347
▁suddenly	-10348
▁ultimate	-10349
▁unfortun	-10350
▁warrants	-10351
▁inspector	-10352
▁promising	-10353
▁surviving	-10354
▁influential	-10355
▁manufacturers	-10356
gt	-10357
ben	-10358
who	-10359
▁PA	-10360
▁Ur	-10361
atab	-10362
iors	-10363
onic	-10364
raid	-10365
zard	-10366
▁13,	-10367
▁Cob	-10368
▁Eve	-10369
▁Jol	-10370
emble	-10371
inate	-10372
mouth	-10373
ounce	-10374
sized	-10375
▁Chap	-10376
▁Mull	-10377
▁Samp	-10378
▁Sule	-10379
▁beef	-10380
▁gear	-10381
▁hang	-10382
▁scar	-10383
ihanna	-10384
istent	-10385
itious	-10386
umbent	-10387
▁Corre	-10388
▁Local	-10389
▁Marri	-10390
▁Monte	-10391
▁Trump	-10392
▁Wells	-10393
▁fruit	-10394
▁kills	-10395
▁overt	-10396
▁whale	-10397
▁30,000	-10398
▁Athens	-10399
▁Brewer	-10400
▁Carson	-10401
▁Fourth	-10402
▁Tennis	-10403
▁allege	-10404
▁anchor	-10405
▁frozen	-10406
▁landsl	-10407
▁overth	-10408
▁rubber	-10409
▁Express	-10410
▁Mandela	-10411
▁Pirates	-10412
▁bridges	-10413
▁charter	-10414
▁doubled	-10415
▁enjoyed	-10416
▁gunshot	-10417
▁Franklin	-10418
▁Peruvian	-10419
▁advocate	-10420
▁bankrupt	-10421
▁expenses	-10422
▁missions	-10423
▁reflects	-10424
▁welcomed	-10425
▁Arlington	-10426
▁Ethiopian	-10427
▁Political	-10428
▁assaulted	-10429
▁converted	-10430
▁exercises	-10431
▁purchased	-10432
▁underwent	-10433
▁designated	-10434
▁researcher	-10435
▁specialist	-10436
▁statistics	-10437
▁strengthen	-10438
▁suggesting	-10439
▁maintenance	-10440
MS	-10441
hap	-10442
och	-10443
▁AK	-10444
▁fu	-10445
asty	-10446
atra	-10447
razy	-10448
▁32-	-10449
▁Ana	-10450
▁Bab	-10451
▁Jet	-10452
▁Lab	-10453
▁Lam	-10454
▁Maz	-10455
▁Rap	-10456
▁cow	-10457
LANTA	-10458
arraf	-10459
emies	-10460
▁Have	-10461
▁Hoff	-10462
▁barg	-10463
▁lapt	-10464
▁nose	-10465
ayings	-10466
icides	-10467
ocated	-10468
urches	-10469
▁Carlo	-10470
▁Gibbs	-10471
▁Traff	-10472
▁cheap	-10473
▁drill	-10474
▁error	-10475
▁stops	-10476
▁vowed	-10477
iveness	-10478
ongyang	-10479
rolling	-10480
vereign	-10481
▁40,000	-10482
▁Amanda	-10483
▁Hughes	-10484
▁Player	-10485
▁flames	-10486
▁observ	-10487
▁Denmark	-10488
▁Gerrard	-10489
▁Rihanna	-10490
▁choices	-10491
▁excited	-10492
▁fitness	-10493
▁persons	-10494
▁sisters	-10495
▁trading	-10496
▁Atletico	-10497
▁epidemic	-10498
▁starring	-10499
▁terrible	-10500
▁Musharraf	-10501
▁everybody	-10502
▁struggles	-10503
▁assessment	-10504
▁principles	-10505
▁consumption	-10506
▁Johannesburg	-10507
▁transitional	-10508
▁Championships	-10509
3.	-10510
II	-10511
ui	-10512
ebr	-10513
had	-10514
▁Ow	-10515
▁ce	-10516
asco	-10517
glas	-10518
ogan	-10519
onom	-10520
uers	-10521
▁Cab	-10522
▁Ful	-10523
▁Pil	-10524
story	-10525
xiety	-10526
▁Benn	-10527
▁Bris	-10528
▁Buen	-10529
▁Cold	-10530
▁Hind	-10531
▁Kirk	-10532
▁Lear	-10533
▁Lord	-10534
▁Read	-10535
▁core	-10536
▁peak	-10537
▁sequ	-10538
▁wine	-10539
lessly	-10540
ranked	-10541
▁Charg	-10542
▁Porto	-10543
▁chase	-10544
▁crops	-10545
▁folks	-10546
▁gains	-10547
▁lodge	-10548
▁scrut	-10549
▁steel	-10550
ception	-10551
▁Associ	-10552
▁Bhutto	-10553
▁Julian	-10554
▁Luther	-10555
▁blasts	-10556
▁mining	-10557
▁netted	-10558
▁viewed	-10559
▁ATLANTA	-10560
▁Jessica	-10561
▁delight	-10562
▁equival	-10563
▁interim	-10564
▁kitchen	-10565
▁ranking	-10566
▁rockets	-10567
▁studied	-10568
▁Independ	-10569
▁assembly	-10570
▁insisted	-10571
▁offshore	-10572
▁operates	-10573
▁threaten	-10574
▁Assistant	-10575
▁Pyongyang	-10576
▁integrity	-10577
▁sovereign	-10578
▁engagement	-10579
▁sufficient	-10580
▁Agriculture	-10581
▁Immigration	-10582
▁connections	-10583
▁expectations	-10584
▁Entertainment	-10585
12	-10586
4-	-10587
MI	-10588
cr	-10589
BAD	-10590
bel	-10591
▁71	-10592
▁NY	-10593
-200	-10594
play	-10595
utor	-10596
▁Cut	-10597
▁EPA	-10598
▁Els	-10599
▁Fat	-10600
▁Mes	-10601
▁Rou	-10602
▁SUV	-10603
▁Yon	-10604
Space	-10605
amped	-10606
anium	-10607
olved	-10608
ument	-10609
▁bone	-10610
▁loud	-10611
▁mail	-10612
▁mall	-10613
▁nice	-10614
▁odds	-10615
▁plun	-10616
▁pron	-10617
▁seiz	-10618
▁trem	-10619
People	-10620
▁4,000	-10621
▁Stutt	-10622
▁ankle	-10623
▁exped	-10624
▁files	-10625
▁guerr	-10626
▁pione	-10627
▁sworn	-10628
mission	-10629
ulating	-10630
▁Merkel	-10631
▁assert	-10632
▁bipart	-10633
▁broadc	-10634
▁cousin	-10635
▁ingred	-10636
▁racist	-10637
▁submar	-10638
official	-10639
▁Conserv	-10640
▁Customs	-10641
▁legally	-10642
▁leveled	-10643
▁reveals	-10644
ilitation	-10645
▁Mountain	-10646
▁awaiting	-10647
▁dictator	-10648
▁formally	-10649
▁predomin	-10650
▁stopping	-10651
▁surfaced	-10652
▁Katherine	-10653
▁Professor	-10654
▁Stuttgart	-10655
▁breathing	-10656
▁continent	-10657
▁intensive	-10658
▁marriages	-10659
▁peninsula	-10660
▁proposals	-10661
▁delivering	-10662
▁describing	-10663
▁indication	-10664
▁industries	-10665
▁motorcycle	-10666
▁surprising	-10667
▁Ibrahimovic	-10668
▁coordinator	-10669
▁frustration	-10670
▁grandmother	-10671
▁disappointing	-10672
.-	-10673
45	-10674
LS	-10675
US	-10676
lon	-10677
olt	-10678
uri	-10679
iola	-10680
jean	-10681
nsic	-10682
▁Bil	-10683
▁Dor	-10684
▁Gay	-10685
▁Hem	-10686
▁Led	-10687
▁duo	-10688
▁yes	-10689
annon	-10690
ourse	-10691
ubble	-10692
ussia	-10693
world	-10694
▁Bark	-10695
▁Jank	-10696
▁Snow	-10697
▁elig	-10698
▁sadd	-10699
▁synd	-10700
cotics	-10701
market	-10702
▁Tevez	-10703
▁depth	-10704
▁incor	-10705
▁tears	-10706
▁voter	-10707
▁yards	-10708
ocolate	-10709
through	-10710
▁Expert	-10711
▁Senior	-10712
▁brands	-10713
▁oppose	-10714
▁serial	-10715
▁staged	-10716
laughter	-10717
▁Alexand	-10718
▁Morales	-10719
▁Oakland	-10720
▁Reserve	-10721
▁closest	-10722
▁corrupt	-10723
▁dispers	-10724
▁gunfire	-10725
▁ignored	-10726
▁innings	-10727
▁cleaning	-10728
▁diplomat	-10729
▁justices	-10730
▁operator	-10731
▁slayings	-10732
▁wreckage	-10733
acceptable	-10734
▁separated	-10735
▁consistent	-10736
▁consultant	-10737
▁remembered	-10738
▁separatist	-10739
▁demonstrate	-10740
▁outstanding	-10741
▁traffickers	-10742
▁Conservation	-10743
▁spokesperson	-10744
▁Congressional	-10745
25	-10746
Ex	-10747
FP	-10748
HA	-10749
Il	-10750
UL	-10751
uy	-10752
But	-10753
hal	-10754
say	-10755
uce	-10756
von	-10757
▁59	-10758
▁63	-10759
▁Ba	-10760
▁Od	-10761
IDEO	-10762
afia	-10763
core	-10764
hard	-10765
iffs	-10766
ynam	-10767
▁Bin	-10768
▁Gor	-10769
▁HLN	-10770
▁Luk	-10771
▁Vin	-10772
▁Wol	-10773
World	-10774
agged	-10775
berry	-10776
doing	-10777
fires	-10778
hetic	-10779
▁Crow	-10780
▁Dick	-10781
▁Gray	-10782
▁Here	-10783
▁ally	-10784
▁bust	-10785
antasy	-10786
castle	-10787
threat	-10788
▁Arena	-10789
▁Chand	-10790
▁Fidel	-10791
▁Shane	-10792
▁Third	-10793
▁VIDEO	-10794
▁derby	-10795
▁envoy	-10796
▁laugh	-10797
▁maker	-10798
▁persp	-10799
▁plate	-10800
▁relax	-10801
▁thank	-10802
▁theme	-10803
▁Miguel	-10804
▁Walker	-10805
▁heroin	-10806
▁inmate	-10807
▁unfair	-10808
fighting	-10809
▁Assange	-10810
▁Jeffrey	-10811
▁battled	-10812
▁letting	-10813
▁minimum	-10814
▁picking	-10815
▁reconst	-10816
▁settled	-10817
▁Campaign	-10818
▁churches	-10819
▁tracking	-10820
▁watchdog	-10821
▁ambulance	-10822
▁chemicals	-10823
▁considers	-10824
▁penalties	-10825
▁reduction	-10826
▁discussing	-10827
▁equivalent	-10828
▁protesting	-10829
▁sentencing	-10830
▁convictions	-10831
▁educational	-10832
▁encouraging	-10833
▁Thanksgiving	-10834
▁manslaughter	-10835
▁northwestern	-10836
▁administrator	-10837
UD	-10838
agg	-10839
aus	-10840
kok	-10841
ohn	-10842
voc	-10843
▁9,	-10844
▁Ep	-10845
LAMA	-10846
anim	-10847
ashi	-10848
lett	-10849
olph	-10850
▁35-	-10851
▁BMW	-10852
▁Eag	-10853
▁Equ	-10854
▁Laz	-10855
▁Mom	-10856
▁UAE	-10857
▁gri	-10858
annah	-10859
match	-10860
phoon	-10861
▁1979	-10862
▁Fans	-10863
▁Gene	-10864
▁Giff	-10865
▁Marg	-10866
▁Song	-10867
▁Vald	-10868
▁eggs	-10869
▁gate	-10870
▁mood	-10871
ported	-10872
▁Aires	-10873
▁Lance	-10874
▁Later	-10875
▁Wazir	-10876
▁adapt	-10877
▁arena	-10878
▁bears	-10879
▁cruel	-10880
▁eager	-10881
▁overd	-10882
▁tents	-10883
LAMABAD	-10884
ensions	-10885
sterdam	-10886
▁Arnold	-10887
▁Athlet	-10888
▁Buenos	-10889
▁Foster	-10890
▁Galaxy	-10891
▁Holder	-10892
▁arrang	-10893
▁boxing	-10894
▁button	-10895
▁cleric	-10896
▁donate	-10897
▁medium	-10898
▁raises	-10899
▁scream	-10900
▁Afghans	-10901
▁Bangkok	-10902
▁Douglas	-10903
▁History	-10904
▁Through	-10905
▁affects	-10906
▁imagine	-10907
▁outdoor	-10908
▁payment	-10909
▁reverse	-10910
▁suffers	-10911
▁wrapped	-10912
▁Governor	-10913
▁Tropical	-10914
▁distinct	-10915
▁opposite	-10916
▁stressed	-10917
▁ISLAMABAD	-10918
▁Southeast	-10919
▁franchise	-10920
▁intercept	-10921
▁superstar	-10922
▁compromise	-10923
▁	-10924
e	-10925
a	-10926
t	-10927
i	-10928
o	-10929
n	-10930
s	-10931
r	-10932
h	-10933
l	-10934
d	-10935
c	-10936
u	-10937
m	-10938
f	-10939
g	-10940
p	-10941
y	-10942
w	-10943
b	-10944
,	-10945
v	-10946
.	-10947
k	-10948
-	-10949
"	-10950
A	-10951
C	-10952
S	-10953
T	-10954
N	-10955
'	-10956
0	-10957
M	-10958
I	-10959
B	-10960
P	-10961
W	-10962
1	-10963
x	-10964
F	-10965
H	-10966
D	-10967
R	-10968
2	-10969
L	-10970
E	-10971
z	-10972
G	-10973
O	-10974
j	-10975
J	-10976
)	-10977
U	-10978
(	-10979
K	-10980
q	-10981
9	-10982
:	-10983
3	-10984
5	-10985
4	-10986
V	-10987
6	-10988
8	-10989
7	-10990
Y	-10991
?	-10992
$	-10993
;	-10994
Z	-10995
