<pad>	0
<unk>	0
<s>	0
</s>	0
▁t	-0
in	-1
▁a	-2
he	-3
er	-4
on	-5
▁s	-6
re	-7
▁the	-8
en	-9
ed	-10
or	-11
an	-12
▁w	-13
at	-14
▁o	-15
▁c	-16
▁f	-17
es	-18
ar	-19
▁in	-20
it	-21
al	-22
ing	-23
▁p	-24
is	-25
▁b	-26
▁of	-27
▁to	-28
nd	-29
as	-30
▁h	-31
ic	-32
ou	-33
▁d	-34
il	-35
▁.	-36
▁and	-37
▁m	-38
le	-39
ion	-40
id	-41
om	-42
▁S	-43
ent	-44
ay	-45
▁C	-46
st	-47
▁A	-48
▁re	-49
ol	-50
▁th	-51
ur	-52
el	-53
ter	-54
ac	-55
▁n	-56
▁T	-57
ad	-58
▁l	-59
▁M	-60
ro	-61
▁B	-62
ve	-63
ir	-64
▁for	-65
am	-66
ig	-67
us	-68
▁"	-69
ut	-70
▁g	-71
▁on	-72
ec	-73
▁I	-74
▁he	-75
et	-76
▁e	-77
▁st	-78
▁P	-79
ra	-80
▁D	-81
im	-82
ver	-83
ation	-84
ot	-85
▁be	-86
▁F	-87
ly	-88
00	-89
ow	-90
▁L	-91
ill	-92
▁wh	-93
▁at	-94
em	-95
ith	-96
and	-97
▁as	-98
▁R	-99
un	-100
ri	-101
op	-102
▁N	-103
ce	-104
▁1	-105
▁with	-106
ts	-107
▁H	-108
▁sa	-109
▁-	-110
ear	-111
▁that	-112
▁W	-113
ers	-114
▁--	-115
▁is	-116
▁was	-117
ul	-118
res	-119
os	-120
est	-121
▁2	-122
▁said	-123
▁con	-124
th	-125
▁U	-126
▁an	-127
▁al	-128
▁fr	-129
▁G	-130
▁J	-131
ate	-132
ak	-133
uc	-134
ld	-135
ain	-136
▁The	-137
ment	-138
igh	-139
pp	-140
▁from	-141
if	-142
ian	-143
▁his	-144
ia	-145
ity	-146
ore	-147
▁r	-148
▁pro	-149
ave	-150
▁ch	-151
ge	-152
oc	-153
her	-154
▁E	-155
▁by	-156
▁le	-157
ort	-158
▁de	-159
ud	-160
all	-161
day	-162
▁ac	-163
▁say	-164
▁(	-165
ast	-166
ch	-167
um	-168
ack	-169
ord	-170
▁v	-171
se	-172
ist	-173
▁com	-174
art	-175
▁k	-176
end	-177
▁sh	-178
ew	-179
▁y	-180
ess	-181
ire	-182
ust	-183
▁are	-184
▁V	-185
▁ag	-186
fter	-187
ident	-188
▁O	-189
qu	-190
ice	-191
ies	-192
ial	-193
▁Ch	-194
ard	-195
out	-196
ee	-197
▁off	-198
▁sp	-199
▁has	-200
ff	-201
▁after	-202
▁j	-203
und	-204
ber	-205
▁have	-206
od	-207
up	-208
oun	-209
▁St	-210
▁it	-211
▁pl	-212
gh	-213
ive	-214
ap	-215
ie	-216
our	-217
ary	-218
NN	-219
ab	-220
▁ex	-221
▁se	-222
ran	-223
ong	-224
▁says	-225
ub	-226
ted	-227
▁who	-228
ag	-229
mer	-230
iv	-231
▁ar	-232
,"	-233
tor	-234
▁In	-235
ip	-236
▁ab	-237
ions	-238
ine	-239
ound	-240
ere	-241
▁were	-242
ep	-243
ey	-244
ok	-245
to	-246
eop	-247
ign	-248
ren	-249
enc	-250
eople	-251
▁K	-252
ight	-253
ich	-254
ated	-255
▁acc	-256
ry	-257
▁go	-258
▁year	-259
▁people	-260
amp	-261
ide	-262
man	-263
▁res	-264
red	-265
resident	-266
av	-267
ome	-268
ost	-269
ous	-270
▁cl	-271
▁their	-272
ick	-273
ould	-274
▁inc	-275
ild	-276
▁200	-277
▁will	-278
per	-279
▁pol	-280
▁wor	-281
ug	-282
arg	-283
raq	-284
▁whe	-285
▁Iraq	-286
ree	-287
▁un	-288
tion	-289
▁fir	-290
▁her	-291
▁over	-292
▁or	-293
▁fac	-294
wn	-295
CNN	-296
use	-297
▁not	-298
old	-299
▁Al	-300
▁att	-301
▁out	-302
▁this	-303
rou	-304
port	-305
ting	-306
▁sec	-307
▁been	-308
▁first	-309
,00	-310
,000	-311
ress	-312
▁but	-313
▁3	-314
ass	-315
ond	-316
ally	-317
ount	-318
ters	-319
ib	-320
ik	-321
ell	-322
rit	-323
ates	-324
▁about	-325
pl	-326
ue	-327
ish	-328
▁ad	-329
▁tw	-330
so	-331
ush	-332
▁Un	-333
▁they	-334
og	-335
▁Th	-336
ical	-337
ican	-338
▁rec	-339
▁she	-340
ainst	-341
esday	-342
▁which	-343
ite	-344
urn	-345
▁up	-346
ther	-347
▁cont	-348
ton	-349
land	-350
▁had	-351
▁child	-352
▁offic	-353
are	-354
ile	-355
▁ne	-356
ence	-357
oh	-358
oy	-359
own	-360
▁app	-361
▁mil	-362
▁against	-363
▁all	-364
▁dis	-365
ail	-366
eek	-367
ime	-368
ose	-369
▁su	-370
▁we	-371
tern	-372
▁hel	-373
▁inv	-374
▁kill	-375
iz	-376
ind	-377
ors	-378
▁qu	-379
▁new	-380
▁into	-381
▁lead	-382
ase	-383
hed	-384
lin	-385
rid	-386
ater	-387
▁two	-388
▁also	-389
ations	-390
ational	-391
▁5	-392
ant	-393
ged	-394
ons	-395
▁19	-396
ency	-397
▁per	-398
oll	-399
ult	-400
▁im	-401
▁sc	-402
ouse	-403
▁one	-404
ach	-405
oin	-406
▁Ar	-407
▁pr	-408
ited	-409
vern	-410
▁can	-411
ition	-412
▁comp	-413
ording	-414
▁4	-415
ake	-416
ark	-417
duc	-418
ure	-419
▁co	-420
▁cr	-421
▁fl	-422
▁ro	-423
▁part	-424
▁them	-425
▁week	-426
▁years	-427
ng	-428
ob	-429
ans	-430
ash	-431
ina	-432
one	-433
▁me	-434
ince	-435
▁help	-436
▁three	-437
▁official	-438
ix	-439
ets	-440
orn	-441
vel	-442
▁en	-443
able	-444
ents	-445
outh	-446
▁Bush	-447
▁call	-448
▁last	-449
erv	-450
iss	-451
ney	-452
pec	-453
▁Af	-454
▁Le	-455
year	-456
▁man	-457
▁mon	-458
ities	-459
order	-460
vernment	-461
▁president	-462
ty	-463
ens	-464
ubl	-465
▁am	-466
▁te	-467
▁ear	-468
▁fin	-469
▁other	-470
▁Y	-471
ath	-472
lud	-473
ood	-474
son	-475
▁Re	-476
▁und	-477
▁play	-478
▁children	-479
▁according	-480
ier	-481
irl	-482
urs	-483
▁dr	-484
▁tr	-485
▁min	-486
▁comm	-487
▁fire	-488
EW	-489
ks	-490
ame	-491
for	-492
iel	-493
ike	-494
▁lo	-495
ance	-496
iver	-497
orts	-498
▁Air	-499
▁NEW	-500
▁bec	-501
▁him	-502
▁ins	-503
▁when	-504
▁count	-505
▁milit	-506
▁under	-507
▁would	-508
▁includ	-509
ife	-510
ool	-511
rat	-512
ands	-513
eral	-514
rest	-515
▁tra	-516
ution	-517
▁camp	-518
▁more	-519
▁stud	-520
▁than	-521
▁South	-522
▁world	-523
▁President	-524
▁Q	-525
▁He	-526
▁do	-527
▁ev	-528
irec	-529
ough	-530
used	-531
▁New	-532
▁ass	-533
▁car	-534
▁dec	-535
▁inj	-536
▁ref	-537
uring	-538
urity	-539
▁charg	-540
▁found	-541
▁government	-542
ft	-543
age	-544
ays	-545
ely	-546
ied	-547
▁On	-548
emoc	-549
reat	-550
roup	-551
▁CNN	-552
▁Car	-553
▁fam	-554
▁its	-555
chool	-556
▁just	-557
▁near	-558
▁while	-559
▁invest	-560
au	-561
ov	-562
ade	-563
der	-564
emp	-565
ker	-566
▁em	-567
alif	-568
ward	-569
▁sur	-570
▁tri	-571
▁win	-572
▁Amer	-573
▁Brit	-574
▁high	-575
▁supp	-576
artment	-577
▁United	-578
▁killed	-579
),	-580
ON	-581
▁6	-582
ang	-583
ked	-584
omb	-585
ric	-586
tle	-587
▁Sc	-588
ause	-589
fore	-590
▁Eng	-591
▁For	-592
▁pre	-593
▁six	-594
▁conf	-595
▁five	-596
▁like	-597
▁show	-598
▁attack	-599
▁before	-600
▁police	-601
fe	-602
gr	-603
ss	-604
act	-605
anc	-606
app	-607
edn	-608
med	-609
oot	-610
rap	-611
uss	-612
▁20	-613
▁Tu	-614
atur	-615
lear	-616
▁des	-617
▁num	-618
▁pos	-619
▁rep	-620
▁sus	-621
▁war	-622
▁Fran	-623
▁Wedn	-624
▁cons	-625
▁serv	-626
▁spok	-627
▁direc	-628
▁military	-629
▁Wednesday	-630
aw	-631
▁7	-632
als	-633
ese	-634
uch	-635
ased	-636
ists	-637
ness	-638
▁Joh	-639
ember	-640
ement	-641
enter	-642
gency	-643
ister	-644
rough	-645
▁back	-646
▁prob	-647
▁what	-648
▁month	-649
▁since	-650
▁state	-651
emocrat	-652
▁during	-653
▁report	-654
▁Tuesday	-655
ah	-656
io	-657
ms	-658
▁$	-659
ace	-660
any	-661
gan	-662
les	-663
tal	-664
uge	-665
ury	-666
▁De	-667
▁Is	-668
▁Sh	-669
▁Wh	-670
▁no	-671
alth	-672
▁Dep	-673
▁own	-674
▁ter	-675
ating	-676
istan	-677
ublic	-678
unday	-679
▁Iran	-680
▁down	-681
▁drug	-682
ursday	-683
▁House	-684
▁could	-685
▁famil	-686
▁start	-687
▁Sunday	-688
▁Democrat	-689
▁Thursday	-690
▁including	-691
ief	-692
inc	-693
tic	-694
▁10	-695
cent	-696
ened	-697
ourt	-698
▁ban	-699
▁col	-700
▁det	-701
▁John	-702
▁sign	-703
▁turn	-704
▁group	-705
▁arrest	-706
▁number	-707
▁school	-708
▁spokes	-709
▁England	-710
▁Department	-711
ex	-712
ger	-713
ink	-714
ird	-715
led	-716
ock	-717
omm	-718
ror	-719
ual	-720
▁bl	-721
ings	-722
ower	-723
ular	-724
▁Mon	-725
▁hom	-726
▁face	-727
▁home	-728
▁rele	-729
▁stat	-730
▁time	-731
▁work	-732
▁death	-733
▁where	-734
▁American	-735
▁security	-736
go	-737
cer	-738
ect	-739
een	-740
ims	-741
lec	-742
uck	-743
ump	-744
ved	-745
way	-746
▁18	-747
▁Pr	-748
▁op	-749
▁vi	-750
atch	-751
oman	-752
ored	-753
ured	-754
▁Col	-755
▁Eur	-756
▁bet	-757
▁ind	-758
▁med	-759
▁rem	-760
riday	-761
▁forc	-762
▁plan	-763
▁poin	-764
▁third	-765
▁Friday	-766
▁charges	-767
▁investig	-768
▁officials	-769
ept	-770
ise	-771
ody	-772
uth	-773
▁12	-774
▁An	-775
ible	-776
ning	-777
rist	-778
roop	-779
▁dri	-780
▁rel	-781
▁ret	-782
▁sex	-783
▁tak	-784
▁way	-785
ility	-786
ivers	-787
owing	-788
▁Clin	-789
▁rest	-790
▁being	-791
▁States	-792
▁attemp	-793
▁percent	-794
ternational	-795
ech	-796
hes	-797
ork	-798
rew	-799
▁Bl	-800
▁gr	-801
▁gu	-802
▁kn	-803
▁ma	-804
▁my	-805
▁so	-806
ason	-807
gram	-808
olog	-809
omen	-810
omin	-811
rans	-812
▁Har	-813
▁She	-814
▁any	-815
▁bus	-816
▁reg	-817
▁vic	-818
erson	-819
▁Cong	-820
▁Russ	-821
▁emer	-822
▁head	-823
▁made	-824
▁oper	-825
▁stri	-826
ending	-827
▁Satur	-828
▁polit	-829
▁troop	-830
ampions	-831
▁Monday	-832
▁Clinton	-833
▁through	-834
▁Saturday	-835
co	-836
eg	-837
ev	-838
ama	-839
ban	-840
enn	-841
ful	-842
ida	-843
lam	-844
rib	-845
uel	-846
▁Ju	-847
▁Mc	-848
▁Sp	-849
▁ve	-850
ague	-851
ecut	-852
ield	-853
isit	-854
ized	-855
oard	-856
rown	-857
▁Mar	-858
▁Mil	-859
▁Min	-860
▁San	-861
▁Sen	-862
▁act	-863
▁add	-864
▁dem	-865
▁get	-866
▁mem	-867
▁set	-868
▁vot	-869
uthor	-870
▁area	-871
▁bomb	-872
▁care	-873
▁four	-874
▁hand	-875
▁look	-876
▁only	-877
▁sent	-878
▁some	-879
▁minut	-880
olution	-881
▁public	-882
▁refuge	-883
▁company	-884
▁reported	-885
▁spokesman	-886
cl	-887
ll	-888
acy	-889
alk	-890
ees	-891
imp	-892
ino	-893
ley	-894
ner	-895
oci	-896
ope	-897
ral	-898
raw	-899
▁Be	-900
ians	-901
orld	-902
udge	-903
vent	-904
▁bel	-905
▁fed	-906
▁now	-907
▁run	-908
0,000	-909
ision	-910
ments	-911
ornia	-912
▁Scot	-913
▁Sept	-914
▁girl	-915
▁need	-916
▁resp	-917
▁told	-918
illion	-919
oreign	-920
▁White	-921
▁World	-922
▁trans	-923
▁France	-924
▁health	-925
▁second	-926
▁because	-927
▁federal	-928
▁program	-929
alifornia	-930
▁arrested	-931
▁September	-932
▁emergency	-933
FA	-934
ta	-935
▁8	-936
ape	-937
bel	-938
ern	-939
hen	-940
jor	-941
mit	-942
ret	-943
ris	-944
row	-945
ven	-946
ves	-947
▁Ob	-948
▁bu	-949
▁fe	-950
bers	-951
hern	-952
ired	-953
ital	-954
lier	-955
rica	-956
ster	-957
▁Bar	-958
▁air	-959
▁cap	-960
▁def	-961
▁did	-962
▁leg	-963
▁str	-964
aving	-965
leged	-966
ology	-967
ondon	-968
rican	-969
▁Ital	-970
▁body	-971
▁days	-972
▁fund	-973
▁life	-974
▁mark	-975
▁most	-976
▁news	-977
▁prot	-978
▁Obama	-979
▁contr	-980
▁court	-981
▁homes	-982
▁water	-983
▁Africa	-984
▁London	-985
▁contin	-986
▁family	-987
▁former	-988
▁terror	-989
▁troops	-990
▁British	-991
▁country	-992
▁leaders	-993
▁students	-994
uthorities	-995
▁California	-996
atc	-997
get	-998
gin	-999
min	-1000
oss	-1001
sel	-1002
▁15	-1003
▁Ac	-1004
▁At	-1005
▁gl	-1006
▁ob	-1007
ages	-1008
ants	-1009
iles	-1010
ling	-1011
pped	-1012
stit	-1013
tain	-1014
tory	-1015
very	-1016
▁cla	-1017
▁fil	-1018
▁loc	-1019
▁nuc	-1020
▁our	-1021
▁pop	-1022
aking	-1023
olina	-1024
other	-1025
veral	-1026
▁Aust	-1027
▁Just	-1028
▁decl	-1029
▁left	-1030
▁long	-1031
▁take	-1032
▁team	-1033
pected	-1034
torney	-1035
▁Inter	-1036
▁Iraqi	-1037
▁Milan	-1038
▁among	-1039
▁incre	-1040
▁miles	-1041
▁order	-1042
▁rebel	-1043
▁still	-1044
▁visit	-1045
▁Europe	-1046
▁appear	-1047
▁person	-1048
▁threat	-1049
iversity	-1050
▁alleged	-1051
▁earlier	-1052
▁nuclear	-1053
▁striker	-1054
▁Carolina	-1055
▁director	-1056
-0	-1057
-1	-1058
4,	-1059
7,	-1060
me	-1061
te	-1062
ada	-1063
aff	-1064
ale	-1065
alf	-1066
hip	-1067
iff	-1068
ory	-1069
osp	-1070
ove	-1071
pir	-1072
raz	-1073
urg	-1074
▁13	-1075
▁Se	-1076
▁We	-1077
▁ph	-1078
▁sy	-1079
aign	-1080
amed	-1081
ends	-1082
ious	-1083
orth	-1084
ross	-1085
ween	-1086
▁Man	-1087
▁One	-1088
▁Pak	-1089
▁Pol	-1090
▁dep	-1091
▁eff	-1092
▁gen	-1093
▁gun	-1094
▁iss	-1095
▁opp	-1096
▁sit	-1097
▁squ	-1098
▁use	-1099
ended	-1100
ights	-1101
ilian	-1102
ought	-1103
ounty	-1104
ually	-1105
▁Braz	-1106
▁Comm	-1107
▁Fire	-1108
▁Vick	-1109
▁York	-1110
▁come	-1111
▁miss	-1112
▁past	-1113
▁susp	-1114
▁then	-1115
▁took	-1116
▁wind	-1117
ration	-1118
▁China	-1119
▁Islam	-1120
▁house	-1121
▁level	-1122
▁nomin	-1123
▁there	-1124
▁women	-1125
▁Christ	-1126
▁County	-1127
▁League	-1128
▁agency	-1129
▁proble	-1130
▁record	-1131
▁between	-1132
▁members	-1133
▁Pakistan	-1134
▁campaign	-1135
▁resident	-1136
▁Champions	-1137
▁political	-1138
▁statement	-1139
▁Democratic	-1140
AS	-1141
ai	-1142
ti	-1143
ady	-1144
air	-1145
eal	-1146
eep	-1147
ned	-1148
ues	-1149
▁25	-1150
▁Ma	-1151
▁br	-1152
ames	-1153
ared	-1154
augh	-1155
ense	-1156
ered	-1157
exas	-1158
iana	-1159
ient	-1160
imin	-1161
less	-1162
ploy	-1163
uard	-1164
▁Che	-1165
▁Dav	-1166
▁Sec	-1167
▁art	-1168
▁bro	-1169
▁mar	-1170
▁may	-1171
▁sub	-1172
▁top	-1173
aring	-1174
useum	-1175
▁Sing	-1176
▁beat	-1177
▁club	-1178
▁elec	-1179
▁foot	-1180
▁happ	-1181
▁hour	-1182
▁make	-1183
▁such	-1184
ection	-1185
ressed	-1186
▁Texas	-1187
▁belie	-1188
▁early	-1189
▁exper	-1190
▁final	-1191
▁inter	-1192
▁night	-1193
▁those	-1194
ighting	-1195
ousands	-1196
▁Stiles	-1197
▁return	-1198
▁Islamic	-1199
▁injured	-1200
▁support	-1201
▁without	-1202
▁University	-1203
1,	-1204
ph	-1205
uk	-1206
za	-1207
The	-1208
aul	-1209
avy	-1210
ced	-1211
eda	-1212
ems	-1213
era	-1214
erb	-1215
ony	-1216
oon	-1217
rop	-1218
str	-1219
ten	-1220
viv	-1221
▁50	-1222
▁Em	-1223
▁Fl	-1224
▁Pe	-1225
▁UK	-1226
▁av	-1227
▁ec	-1228
▁if	-1229
ades	-1230
cess	-1231
echn	-1232
egas	-1233
ewis	-1234
form	-1235
head	-1236
ices	-1237
iego	-1238
ille	-1239
osed	-1240
oung	-1241
pect	-1242
rain	-1243
ries	-1244
ures	-1245
vers	-1246
▁And	-1247
▁Aug	-1248
▁But	-1249
▁Las	-1250
▁Nev	-1251
▁Pro	-1252
▁Rep	-1253
▁bat	-1254
▁hit	-1255
▁imp	-1256
▁kid	-1257
▁mid	-1258
▁put	-1259
▁rap	-1260
▁spe	-1261
▁you	-1262
acked	-1263
duced	-1264
ering	-1265
ished	-1266
iting	-1267
tions	-1268
velop	-1269
▁2005	-1270
▁2008	-1271
▁Mich	-1272
▁Simp	-1273
▁char	-1274
▁crit	-1275
▁foll	-1276
▁held	-1277
▁lost	-1278
▁prof	-1279
▁sout	-1280
erence	-1281
itness	-1282
▁Black	-1283
▁Diego	-1284
▁Lewis	-1285
▁State	-1286
▁Vegas	-1287
▁calls	-1288
▁judge	-1289
▁local	-1290
▁quest	-1291
▁August	-1292
▁border	-1293
▁commun	-1294
▁detain	-1295
▁season	-1296
▁turned	-1297
▁killing	-1298
▁Minister	-1299
▁released	-1300
▁International	-1301
NG	-1302
ez	-1303
ns	-1304
ael	-1305
ict	-1306
ior	-1307
itt	-1308
men	-1309
mig	-1310
ole	-1311
ont	-1312
riv	-1313
udi	-1314
▁Ad	-1315
▁As	-1316
▁Oc	-1317
▁Ph	-1318
▁Qa	-1319
▁bo	-1320
▁sl	-1321
▁sm	-1322
▁us	-1323
aren	-1324
avez	-1325
bass	-1326
gent	-1327
onom	-1328
raft	-1329
tors	-1330
▁199	-1331
▁Ang	-1332
▁Cel	-1333
▁Jan	-1334
▁Mad	-1335
▁McC	-1336
▁Par	-1337
▁Val	-1338
▁ago	-1339
▁ann	-1340
▁che	-1341
▁doc	-1342
▁exp	-1343
▁fat	-1344
▁int	-1345
▁ran	-1346
▁ris	-1347
▁see	-1348
▁suc	-1349
▁try	-1350
▁won	-1351
erman	-1352
iness	-1353
iving	-1354
ollap	-1355
▁best	-1356
▁city	-1357
▁conv	-1358
▁dead	-1359
▁food	-1360
▁guil	-1361
▁half	-1362
▁larg	-1363
▁late	-1364
▁pros	-1365
▁prov	-1366
▁rout	-1367
▁shot	-1368
▁test	-1369
▁view	-1370
▁vote	-1371
ashing	-1372
▁After	-1373
▁Force	-1374
▁Qaeda	-1375
▁ahead	-1376
▁crash	-1377
▁ident	-1378
▁invol	-1379
▁squad	-1380
▁taken	-1381
▁techn	-1382
▁train	-1383
▁whose	-1384
▁young	-1385
▁Argent	-1386
▁Celtic	-1387
▁Madrid	-1388
▁Nevada	-1389
▁center	-1390
▁produc	-1391
▁remain	-1392
▁scored	-1393
▁Justice	-1394
▁Simpson	-1395
▁foreign	-1396
▁minutes	-1397
▁refugee	-1398
▁reports	-1399
▁several	-1400
▁victory	-1401
▁weekend	-1402
▁National	-1403
▁Scotland	-1404
▁attorney	-1405
▁Brazilian	-1406
▁countries	-1407
▁thousands	-1408
▁resolution	-1409
-3	-1410
AT	-1411
We	-1412
af	-1413
ck	-1414
ef	-1415
fl	-1416
pr	-1417
pt	-1418
ru	-1419
xt	-1420
▁'	-1421
EFA	-1422
ars	-1423
bor	-1424
eff	-1425
ety	-1426
ica	-1427
icy	-1428
ips	-1429
ona	-1430
oor	-1431
til	-1432
ugg	-1433
ull	-1434
une	-1435
urk	-1436
uty	-1437
▁11	-1438
▁Ex	-1439
▁Or	-1440
▁ca	-1441
▁es	-1442
▁sw	-1443
aced	-1444
ales	-1445
ases	-1446
eles	-1447
erve	-1448
ffic	-1449
ghan	-1450
iers	-1451
ills	-1452
imed	-1453
ison	-1454
itle	-1455
ives	-1456
oint	-1457
raph	-1458
▁198	-1459
▁Ass	-1460
▁Bak	-1461
▁Bec	-1462
▁Los	-1463
▁Lou	-1464
▁Pat	-1465
▁Som	-1466
▁Vir	-1467
▁beh	-1468
▁boy	-1469
▁day	-1470
▁del	-1471
▁law	-1472
▁mov	-1473
▁sum	-1474
▁sup	-1475
ately	-1476
bassy	-1477
ening	-1478
ganiz	-1479
ified	-1480
rench	-1481
tober	-1482
wards	-1483
▁Chad	-1484
▁Dida	-1485
▁July	-1486
▁Paul	-1487
▁UEFA	-1488
▁deal	-1489
▁dest	-1490
▁disc	-1491
▁hold	-1492
▁host	-1493
▁hous	-1494
▁keep	-1495
▁main	-1496
▁next	-1497
▁pass	-1498
▁rece	-1499
▁syst	-1500
▁town	-1501
▁vide	-1502
▁viol	-1503
▁well	-1504
ighbor	-1505
itions	-1506
retary	-1507
ventus	-1508
▁Alger	-1509
▁Brown	-1510
▁David	-1511
▁Leban	-1512
▁began	-1513
▁chief	-1514
▁clear	-1515
▁reach	-1516
▁truck	-1517
▁withd	-1518
▁Afghan	-1519
▁Center	-1520
▁Chavez	-1521
▁French	-1522
▁German	-1523
▁Peters	-1524
▁Virgin	-1525
▁collap	-1526
▁comple	-1527
▁conduc	-1528
▁econom	-1529
▁employ	-1530
▁forces	-1531
▁guilty	-1532
▁rebels	-1533
▁recent	-1534
▁should	-1535
▁signed	-1536
▁surviv	-1537
▁African	-1538
▁Angeles	-1539
▁October	-1540
▁accused	-1541
▁develop	-1542
▁largest	-1543
▁respons	-1544
▁service	-1545
▁started	-1546
formation	-1547
▁neighbor	-1548
▁authorities	-1549
▁presidential	-1550
50	-1551
HI	-1552
ax	-1553
by	-1554
ham	-1555
nal	-1556
oid	-1557
raf	-1558
▁Gl	-1559
▁Ro	-1560
▁US	-1561
▁el	-1562
▁la	-1563
asey	-1564
ball	-1565
ests	-1566
fiel	-1567
line	-1568
ming	-1569
obal	-1570
time	-1571
uary	-1572
uman	-1573
▁Ben	-1574
▁Cup	-1575
▁Dan	-1576
▁Ind	-1577
▁Med	-1578
▁Muk	-1579
▁big	-1580
▁bre	-1581
▁buy	-1582
▁cor	-1583
▁deb	-1584
▁don	-1585
▁sen	-1586
arraf	-1587
aster	-1588
ative	-1589
ators	-1590
cover	-1591
earch	-1592
ittee	-1593
onstr	-1594
uters	-1595
water	-1596
▁Bang	-1597
▁High	-1598
▁Jeff	-1599
▁King	-1600
▁Mush	-1601
▁away	-1602
▁cond	-1603
▁coun	-1604
▁defe	-1605
▁diff	-1606
▁east	-1607
▁expl	-1608
▁fell	-1609
▁find	-1610
▁free	-1611
▁hard	-1612
▁hund	-1613
▁plot	-1614
▁poss	-1615
▁prep	-1616
▁requ	-1617
▁situ	-1618
▁step	-1619
▁wife	-1620
ffield	-1621
gether	-1622
orters	-1623
ournal	-1624
piracy	-1625
selves	-1626
▁Italy	-1627
▁Somal	-1628
▁appro	-1629
▁arson	-1630
▁faces	-1631
▁immig	-1632
▁later	-1633
▁major	-1634
▁match	-1635
▁named	-1636
▁place	-1637
▁point	-1638
▁power	-1639
▁press	-1640
▁seven	-1641
▁title	-1642
▁tried	-1643
fielder	-1644
ociated	-1645
▁Harris	-1646
▁Police	-1647
▁Russia	-1648
▁around	-1649
▁critic	-1650
▁driver	-1651
▁execut	-1652
▁having	-1653
▁leader	-1654
▁player	-1655
▁policy	-1656
▁prison	-1657
▁proper	-1658
▁qualif	-1659
▁system	-1660
▁Austral	-1661
▁Britain	-1662
▁January	-1663
▁Michael	-1664
▁Mukasey	-1665
▁Russian	-1666
▁Washing	-1667
▁calling	-1668
▁charged	-1669
▁hundred	-1670
▁medical	-1671
▁organiz	-1672
▁problem	-1673
▁Congress	-1674
▁European	-1675
▁Virginia	-1676
▁business	-1677
▁national	-1678
▁Democrats	-1679
▁Musharraf	-1680
▁detainees	-1681
▁operation	-1682
▁suspended	-1683
▁Washington	-1684
▁conference	-1685
▁technology	-1686
▁themselves	-1687
▁Afghanistan	-1688
▁information	-1689
AR	-1690
az	-1691
gy	-1692
ij	-1693
my	-1694
ny	-1695
oe	-1696
ys	-1697
▁9	-1698
DON	-1699
NGT	-1700
ble	-1701
eor	-1702
eth	-1703
iam	-1704
iet	-1705
ili	-1706
ler	-1707
mar	-1708
omp	-1709
rab	-1710
rav	-1711
run	-1712
ube	-1713
ued	-1714
unc	-1715
vis	-1716
▁$1	-1717
▁14	-1718
▁22	-1719
▁Ab	-1720
▁Br	-1721
▁Co	-1722
▁Sa	-1723
▁Tw	-1724
▁ce	-1725
▁ra	-1726
▁sk	-1727
ASHI	-1728
akes	-1729
back	-1730
bber	-1731
ects	-1732
ells	-1733
ines	-1734
ived	-1735
ivil	-1736
ners	-1737
oham	-1738
ores	-1739
reet	-1740
rent	-1741
utch	-1742
▁Boy	-1743
▁Def	-1744
▁Gen	-1745
▁Inc	-1746
▁Jul	-1747
▁LON	-1748
▁Mac	-1749
▁May	-1750
▁Mid	-1751
▁Tal	-1752
▁Ven	-1753
▁agg	-1754
▁cre	-1755
▁cur	-1756
▁cut	-1757
▁dro	-1758
▁end	-1759
▁equ	-1760
▁esc	-1761
▁fan	-1762
▁fri	-1763
▁how	-1764
▁key	-1765
▁led	-1766
▁mur	-1767
▁net	-1768
▁pay	-1769
▁ple	-1770
▁pun	-1771
▁rad	-1772
▁rul	-1773
▁wal	-1774
NGTON	-1775
adesh	-1776
allen	-1777
anded	-1778
ather	-1779
bbery	-1780
craft	-1781
eeper	-1782
inese	-1783
orida	-1784
ridge	-1785
ustom	-1786
▁2006	-1787
▁Arab	-1788
▁Baku	-1789
▁Base	-1790
▁City	-1791
▁Real	-1792
▁Some	-1793
▁Vill	-1794
▁agre	-1795
▁ball	-1796
▁chan	-1797
▁docu	-1798
▁does	-1799
▁doll	-1800
▁even	-1801
▁good	-1802
▁hosp	-1803
▁jury	-1804
▁meet	-1805
▁pick	-1806
▁real	-1807
▁road	-1808
▁sold	-1809
▁spec	-1810
▁talk	-1811
▁targ	-1812
▁weap	-1813
▁your	-1814
atches	-1815
ladesh	-1816
mitted	-1817
orders	-1818
ounced	-1819
placed	-1820
utions	-1821
▁Color	-1822
▁Jeffs	-1823
▁Roman	-1824
▁WASHI	-1825
▁allow	-1826
▁along	-1827
▁asked	-1828
▁camps	-1829
▁class	-1830
▁going	-1831
▁hours	-1832
▁manag	-1833
▁stand	-1834
▁twice	-1835
▁weeks	-1836
ibility	-1837
ohammed	-1838
▁Colomb	-1839
▁LONDON	-1840
▁access	-1841
▁behind	-1842
▁called	-1843
▁concer	-1844
▁convic	-1845
▁injury	-1846
▁months	-1847
▁mother	-1848
▁overse	-1849
▁points	-1850
▁rights	-1851
▁states	-1852
▁trying	-1853
▁Florida	-1854
▁attempt	-1855
▁capital	-1856
▁general	-1857
▁reduced	-1858
▁release	-1859
▁robbery	-1860
▁student	-1861
▁success	-1862
▁witness	-1863
▁working	-1864
stitution	-1865
▁aircraft	-1866
▁expected	-1867
▁fighting	-1868
▁happened	-1869
▁hundreds	-1870
▁incident	-1871
▁position	-1872
▁received	-1873
▁services	-1874
▁southern	-1875
▁spending	-1876
▁together	-1877
▁withdraw	-1878
▁Christian	-1879
▁following	-1880
▁residents	-1881
▁Bangladesh	-1882
▁Blackwater	-1883
▁WASHINGTON	-1884
▁conspiracy	-1885
▁operations	-1886
▁international	-1887
▁investigation	-1888
30	-1889
8,	-1890
AC	-1891
ke	-1892
pe	-1893
sc	-1894
vi	-1895
yl	-1896
yn	-1897
ATO	-1898
ado	-1899
akh	-1900
ank	-1901
coh	-1902
dle	-1903
hic	-1904
ify	-1905
ily	-1906
its	-1907
ken	-1908
lev	-1909
nel	-1910
now	-1911
opp	-1912
osc	-1913
oth	-1914
sif	-1915
the	-1916
umb	-1917
ute	-1918
xim	-1919
yan	-1920
▁35	-1921
▁FC	-1922
▁Fr	-1923
▁Gi	-1924
▁Gr	-1925
▁Im	-1926
▁It	-1927
▁No	-1928
▁TV	-1929
▁ur	-1930
atar	-1931
ator	-1932
ault	-1933
ayed	-1934
burg	-1935
crib	-1936
hood	-1937
iate	-1938
iban	-1939
ided	-1940
imes	-1941
lish	-1942
over	-1943
pite	-1944
ream	-1945
reen	-1946
ribe	-1947
tims	-1948
udan	-1949
usic	-1950
uter	-1951
utin	-1952
view	-1953
ving	-1954
▁Acc	-1955
▁Alg	-1956
▁All	-1957
▁Ham	-1958
▁Hol	-1959
▁Mur	-1960
▁Per	-1961
▁Ron	-1962
▁Sun	-1963
▁aff	-1964
▁age	-1965
▁eng	-1966
▁est	-1967
▁ext	-1968
▁hot	-1969
▁ill	-1970
▁job	-1971
▁lit	-1972
▁men	-1973
▁non	-1974
▁sat	-1975
▁tie	-1976
▁too	-1977
▁tre	-1978
acher	-1979
ailed	-1980
ances	-1981
anche	-1982
andid	-1983
asing	-1984
cohol	-1985
enced	-1986
ender	-1987
guard	-1988
ially	-1989
icult	-1990
ience	-1991
igned	-1992
ional	-1993
itive	-1994
oring	-1995
ready	-1996
▁Barc	-1997
▁Beck	-1998
▁East	-1999
▁Geor	-2000
▁More	-2001
▁NATO	-2002
▁Navy	-2003
▁Rice	-2004
▁Turk	-2005
▁Yous	-2006
▁bill	-2007
▁came	-2008
▁case	-2009
▁cult	-2010
▁died	-2011
▁duty	-2012
▁evac	-2013
▁fuel	-2014
▁many	-2015
▁porn	-2016
▁post	-2017
▁rape	-2018
▁runs	-2019
▁safe	-2020
▁seed	-2021
▁shel	-2022
▁site	-2023
▁suff	-2024
▁trip	-2025
▁very	-2026
▁went	-2027
▁writ	-2028
00,000	-2029
aiting	-2030
asters	-2031
encies	-2032
irates	-2033
ission	-2034
jority	-2035
ograph	-2036
orning	-2037
ounded	-2038
▁2,000	-2039
▁2004,	-2040
▁Harry	-2041
▁Louis	-2042
▁Macau	-2043
▁North	-2044
▁Offic	-2045
▁Paris	-2046
▁Press	-2047
▁Prime	-2048
▁Qatar	-2049
▁Uribe	-2050
▁avoid	-2051
▁bring	-2052
▁cause	-2053
▁colon	-2054
▁daugh	-2055
▁insur	-2056
▁least	-2057
▁lower	-2058
▁media	-2059
▁money	-2060
▁never	-2061
▁north	-2062
▁plans	-2063
▁shoot	-2064
▁shows	-2065
▁small	-2066
▁telev	-2067
▁think	-2068
▁treat	-2069
▁until	-2070
▁views	-2071
ecutors	-2072
ination	-2073
oarding	-2074
ublican	-2075
▁Former	-2076
▁Intern	-2077
▁Museum	-2078
▁Street	-2079
▁become	-2080
▁cancer	-2081
▁candid	-2082
▁claims	-2083
▁fellow	-2084
▁forced	-2085
▁making	-2086
▁market	-2087
▁minute	-2088
▁murder	-2089
▁partic	-2090
▁really	-2091
▁result	-2092
▁search	-2093
▁sexual	-2094
▁sports	-2095
▁summer	-2096
▁Algiers	-2097
▁Taliban	-2098
▁Youssif	-2099
▁already	-2100
▁assault	-2101
▁attacks	-2102
▁billion	-2103
▁claimed	-2104
▁command	-2105
▁deliver	-2106
▁describ	-2107
▁factors	-2108
▁hearing	-2109
▁highway	-2110
▁housing	-2111
▁matches	-2112
▁million	-2113
▁missing	-2114
▁popular	-2115
▁restric	-2116
▁routine	-2117
▁victims	-2118
▁whether	-2119
▁Colorado	-2120
▁Majority	-2121
▁allowing	-2122
▁collapse	-2123
▁contract	-2124
▁facility	-2125
▁football	-2126
▁increase	-2127
▁property	-2128
▁refugees	-2129
▁training	-2130
▁Sheffield	-2131
▁announced	-2132
▁attempted	-2133
▁difficult	-2134
▁situation	-2135
▁Republican	-2136
▁midfielder	-2137
▁nomination	-2138
▁television	-2139
▁neighborhood	-2140
▁organization	-2141
10	-2142
AD	-2143
CE	-2144
FL	-2145
HC	-2146
ma	-2147
ps	-2148
sh	-2149
tt	-2150
zy	-2151
agh	-2152
alv	-2153
aps	-2154
arm	-2155
com	-2156
den	-2157
edd	-2158
erc	-2159
err	-2160
ibb	-2161
ien	-2162
ift	-2163
iga	-2164
ipl	-2165
iqu	-2166
irc	-2167
ism	-2168
ium	-2169
lan	-2170
lic	-2171
lse	-2172
oes	-2173
oma	-2174
rag	-2175
roy	-2176
ste	-2177
tar	-2178
uct	-2179
ura	-2180
vir	-2181
ycl	-2182
▁Cl	-2183
▁Ed	-2184
▁Go	-2185
▁Kh	-2186
▁Lu	-2187
▁Me	-2188
▁Mo	-2189
▁To	-2190
▁Uk	-2191
▁Ut	-2192
▁aw	-2193
▁ed	-2194
aces	-2195
aded	-2196
ader	-2197
aghd	-2198
anta	-2199
ards	-2200
atic	-2201
cons	-2202
essi	-2203
ford	-2204
iami	-2205
iani	-2206
iven	-2207
mber	-2208
onse	-2209
self	-2210
tico	-2211
ucky	-2212
udic	-2213
▁100	-2214
▁Ark	-2215
▁Bat	-2216
▁Bus	-2217
▁Con	-2218
▁Del	-2219
▁Don	-2220
▁Fed	-2221
▁His	-2222
▁How	-2223
▁Reg	-2224
▁Sup	-2225
▁Ter	-2226
▁Web	-2227
▁Wil	-2228
▁adv	-2229
▁aid	-2230
▁cas	-2231
▁cou	-2232
▁dev	-2233
▁die	-2234
▁dou	-2235
▁enc	-2236
▁ent	-2237
▁fre	-2238
▁hij	-2239
▁lar	-2240
▁let	-2241
▁mag	-2242
▁mod	-2243
▁par	-2244
▁pul	-2245
▁sol	-2246
▁tax	-2247
ained	-2248
ashed	-2249
atter	-2250
eared	-2251
elona	-2252
ental	-2253
heast	-2254
imate	-2255
incip	-2256
iplom	-2257
irlik	-2258
lines	-2259
match	-2260
ocide	-2261
olese	-2262
reets	-2263
thing	-2264
tonio	-2265
using	-2266
viron	-2267
▁2004	-2268
▁Atle	-2269
▁Comp	-2270
▁Euro	-2271
▁Gibb	-2272
▁Giul	-2273
▁Hamp	-2274
▁Mary	-2275
▁Myan	-2276
▁Nove	-2277
▁Snow	-2278
▁Star	-2279
▁anti	-2280
▁arri	-2281
▁bank	-2282
▁cave	-2283
▁cent	-2284
▁circ	-2285
▁coal	-2286
▁conn	-2287
▁crew	-2288
▁didn	-2289
▁fall	-2290
▁feet	-2291
▁film	-2292
▁fled	-2293
▁gave	-2294
▁grow	-2295
▁here	-2296
▁jail	-2297
▁jump	-2298
▁know	-2299
▁lear	-2300
▁live	-2301
▁mach	-2302
▁meas	-2303
▁much	-2304
▁mult	-2305
▁nort	-2306
▁pain	-2307
▁plea	-2308
▁reac	-2309
▁rock	-2310
▁role	-2311
▁ship	-2312
▁sour	-2313
▁spot	-2314
▁star	-2315
▁tack	-2316
▁unit	-2317
▁used	-2318
ential	-2319
estern	-2320
forman	-2321
idence	-2322
ildren	-2323
minist	-2324
ricane	-2325
terans	-2326
yclone	-2327
▁Baghd	-2328
▁Chief	-2329
▁Court	-2330
▁Diana	-2331
▁Dutch	-2332
▁Group	-2333
▁Guard	-2334
▁Hills	-2335
▁India	-2336
▁Messi	-2337
▁Miami	-2338
▁Moore	-2339
▁Putin	-2340
▁Saudi	-2341
▁Scott	-2342
▁Sudan	-2343
▁Three	-2344
▁activ	-2345
▁award	-2346
▁coast	-2347
▁colle	-2348
▁comes	-2349
▁evacu	-2350
▁event	-2351
▁flood	-2352
▁front	-2353
▁given	-2354
▁goalk	-2355
▁issue	-2356
▁known	-2357
▁music	-2358
▁natur	-2359
▁offer	-2360
▁oppos	-2361
▁owner	-2362
▁range	-2363
▁right	-2364
▁seems	-2365
▁signs	-2366
▁speed	-2367
▁spent	-2368
▁staff	-2369
▁super	-2370
▁terms	-2371
▁these	-2372
▁tight	-2373
▁vehic	-2374
▁woman	-2375
aration	-2376
ardless	-2377
ighters	-2378
ography	-2379
ravated	-2380
ulation	-2381
▁Leader	-2382
▁Prince	-2383
▁School	-2384
▁Senate	-2385
▁Turkey	-2386
▁across	-2387
▁action	-2388
▁appeal	-2389
▁better	-2390
▁bridge	-2391
▁caused	-2392
▁confir	-2393
▁debate	-2394
▁defeat	-2395
▁diplom	-2396
▁direct	-2397
▁escape	-2398
▁facing	-2399
▁flight	-2400
▁global	-2401
▁ground	-2402
▁helped	-2403
▁images	-2404
▁import	-2405
▁indust	-2406
▁issued	-2407
▁little	-2408
▁living	-2409
▁museum	-2410
▁office	-2411
▁others	-2412
▁pickup	-2413
▁punish	-2414
▁secure	-2415
▁target	-2416
▁travel	-2417
boarding	-2418
urricane	-2419
▁Algeria	-2420
▁America	-2421
▁Chester	-2422
▁Chinese	-2423
▁Defense	-2424
▁Foreign	-2425
▁General	-2426
▁Italian	-2427
▁Lebanon	-2428
▁Myanmar	-2429
▁alcohol	-2430
▁beating	-2431
▁changed	-2432
▁counter	-2433
▁crashed	-2434
▁despite	-2435
▁destroy	-2436
▁embassy	-2437
▁environ	-2438
▁experts	-2439
▁forward	-2440
▁holding	-2441
▁leaving	-2442
▁looking	-2443
▁machine	-2444
▁manager	-2445
▁markets	-2446
▁morning	-2447
▁officer	-2448
▁profess	-2449
▁provide	-2450
▁shelter	-2451
▁soldier	-2452
▁willing	-2453
▁Airlines	-2454
▁Atletico	-2455
▁Children	-2456
▁Giuliani	-2457
▁Incirlik	-2458
▁Mohammed	-2459
▁November	-2460
▁Official	-2461
▁Peterson	-2462
▁addition	-2463
▁agencies	-2464
▁believed	-2465
▁daughter	-2466
▁demonstr	-2467
▁economic	-2468
▁election	-2469
▁families	-2470
▁maintain	-2471
▁minister	-2472
▁question	-2473
▁sexually	-2474
▁suffered	-2475
ournalists	-2476
▁According	-2477
▁Argentine	-2478
▁Congolese	-2479
▁Louisiana	-2480
▁Pakistani	-2481
▁Secretary	-2482
▁allegedly	-2483
▁coalition	-2484
▁committee	-2485
▁community	-2486
▁continues	-2487
▁employees	-2488
▁probation	-2489
▁questions	-2490
▁suspected	-2491
▁treatment	-2492
▁Associated	-2493
▁Australian	-2494
▁aggravated	-2495
▁appearance	-2496
▁candidates	-2497
▁conditions	-2498
▁goalkeeper	-2499
▁particular	-2500
▁Authorities	-2501
▁environment	-2502
▁pornography	-2503
▁responsibility	-2504
-2	-2505
3-	-2506
6,	-2507
EO	-2508
ES	-2509
Ju	-2510
OS	-2511
Re	-2512
Wh	-2513
ae	-2514
na	-2515
tr	-2516
100	-2517
ads	-2518
ago	-2519
aid	-2520
ald	-2521
ask	-2522
bro	-2523
ces	-2524
che	-2525
eat	-2526
els	-2527
fri	-2528
gen	-2529
got	-2530
ics	-2531
ins	-2532
irt	-2533
jan	-2534
lee	-2535
los	-2536
oph	-2537
opy	-2538
ota	-2539
ows	-2540
ple	-2541
pro	-2542
pty	-2543
rel	-2544
ruz	-2545
set	-2546
uan	-2547
uff	-2548
ung	-2549
usb	-2550
vey	-2551
yle	-2552
yri	-2553
▁17	-2554
▁24	-2555
▁27	-2556
▁37	-2557
▁80	-2558
▁AC	-2559
▁Am	-2560
▁Su	-2561
▁Sw	-2562
▁UN	-2563
▁km	-2564
▁sn	-2565
▁wr	-2566
abil	-2567
acks	-2568
adel	-2569
aged	-2570
ails	-2571
anel	-2572
anes	-2573
apan	-2574
arry	-2575
bert	-2576
cept	-2577
ears	-2578
feit	-2579
here	-2580
ianl	-2581
iano	-2582
iber	-2583
icop	-2584
ider	-2585
iest	-2586
ific	-2587
ined	-2588
isis	-2589
itch	-2590
lsea	-2591
mail	-2592
mate	-2593
noon	-2594
ohan	-2595
onor	-2596
phia	-2597
rant	-2598
reme	-2599
ried	-2600
riff	-2601
rowd	-2602
side	-2603
thur	-2604
turn	-2605
upta	-2606
urch	-2607
uses	-2608
veal	-2609
vert	-2610
vest	-2611
▁196	-2612
▁21,	-2613
▁Bah	-2614
▁Cam	-2615
▁Deb	-2616
▁Dod	-2617
▁Dri	-2618
▁Fab	-2619
▁ICE	-2620
▁Laf	-2621
▁Luc	-2622
▁Mor	-2623
▁NFL	-2624
▁Nap	-2625
▁Oak	-2626
▁Red	-2627
▁Res	-2628
▁Six	-2629
▁Spe	-2630
▁Tre	-2631
▁Two	-2632
▁cle	-2633
▁dog	-2634
▁due	-2635
▁eas	-2636
▁fav	-2637
▁fly	-2638
▁fur	-2639
▁fut	-2640
▁got	-2641
▁lat	-2642
▁lif	-2643
▁lik	-2644
▁old	-2645
▁pat	-2646
▁pet	-2647
▁row	-2648
▁saw	-2649
▁soc	-2650
▁ste	-2651
▁tem	-2652
▁val	-2653
▁why	-2654
anger	-2655
anies	-2656
anted	-2657
apore	-2658
aters	-2659
berto	-2660
eless	-2661
ences	-2662
esity	-2663
ezuel	-2664
iling	-2665
illeg	-2666
iplin	-2667
isted	-2668
itter	-2669
ocked	-2670
orter	-2671
raine	-2672
rants	-2673
ville	-2674
▁2003	-2675
▁Army	-2676
▁Bern	-2677
▁Camp	-2678
▁Char	-2679
▁Fort	-2680
▁From	-2681
▁Kenn	-2682
▁Lion	-2683
▁Most	-2684
▁Park	-2685
▁Part	-2686
▁Phil	-2687
▁Port	-2688
▁Shan	-2689
▁Sout	-2690
▁Utah	-2691
▁West	-2692
▁When	-2693
▁Wink	-2694
▁With	-2695
▁arms	-2696
▁bees	-2697
▁cong	-2698
▁cost	-2699
▁cred	-2700
▁draw	-2701
▁each	-2702
▁ever	-2703
▁flee	-2704
▁full	-2705
▁goal	-2706
▁husb	-2707
▁inqu	-2708
▁kids	-2709
▁land	-2710
▁less	-2711
▁loss	-2712
▁mill	-2713
▁must	-2714
▁netw	-2715
▁open	-2716
▁paid	-2717
▁phot	-2718
▁pres	-2719
▁proj	-2720
▁prop	-2721
▁race	-2722
▁risk	-2723
▁seat	-2724
▁seen	-2725
▁send	-2726
▁side	-2727
▁sing	-2728
▁song	-2729
▁stay	-2730
▁stop	-2731
▁suit	-2732
▁teen	-2733
▁temp	-2734
▁toll	-2735
▁tour	-2736
akhtar	-2737
ardino	-2738
arents	-2739
ashion	-2740
atched	-2741
ements	-2742
ention	-2743
esting	-2744
iminal	-2745
ipment	-2746
oscopy	-2747
perate	-2748
rought	-2749
though	-2750
▁Feder	-2751
▁Frank	-2752
▁Gianl	-2753
▁Japan	-2754
▁Judge	-2755
▁Lohan	-2756
▁Sands	-2757
▁Union	-2758
▁Wales	-2759
▁While	-2760
▁areas	-2761
▁based	-2762
▁break	-2763
▁build	-2764
▁civil	-2765
▁coach	-2766
▁cover	-2767
▁cross	-2768
▁crowd	-2769
▁doesn	-2770
▁drugs	-2771
▁fence	-2772
▁filed	-2773
▁funds	-2774
▁hands	-2775
▁human	-2776
▁illeg	-2777
▁immed	-2778
▁indic	-2779
▁large	-2780
▁leads	-2781
▁makes	-2782
▁minor	-2783
▁movie	-2784
▁party	-2785
▁pract	-2786
▁quick	-2787
▁serve	-2788
▁share	-2789
▁short	-2790
▁south	-2791
▁sport	-2792
▁story	-2793
▁study	-2794
▁today	-2795
▁trial	-2796
▁winds	-2797
related	-2798
▁Arthur	-2799
▁Invest	-2800
▁Lafave	-2801
▁Middle	-2802
▁Scient	-2803
▁Singer	-2804
▁Valley	-2805
▁Wilson	-2806
▁acting	-2807
▁battle	-2808
▁became	-2809
▁charge	-2810
▁closed	-2811
▁collec	-2812
▁couple	-2813
▁crisis	-2814
▁deaths	-2815
▁demand	-2816
▁deport	-2817
▁double	-2818
▁export	-2819
▁famous	-2820
▁friend	-2821
▁future	-2822
▁groups	-2823
▁inspec	-2824
▁intern	-2825
▁latest	-2826
▁letter	-2827
▁levels	-2828
▁nearly	-2829
▁passen	-2830
▁pulled	-2831
▁reason	-2832
▁region	-2833
▁reveal	-2834
▁ruling	-2835
▁saying	-2836
▁scient	-2837
▁senior	-2838
▁served	-2839
▁status	-2840
▁strong	-2841
▁tackle	-2842
▁taking	-2843
Juventus	-2844
adelphia	-2845
ervative	-2846
formance	-2847
ximately	-2848
▁Airport	-2849
▁Antonio	-2850
▁Bahrain	-2851
▁Beckham	-2852
▁Chelsea	-2853
▁Germany	-2854
▁Gibbons	-2855
▁Masters	-2856
▁Medical	-2857
▁Reuters	-2858
▁Somalia	-2859
▁Ukraine	-2860
▁Winkler	-2861
▁bombing	-2862
▁challen	-2863
▁complex	-2864
▁conduct	-2865
▁continu	-2866
▁control	-2867
▁dollars	-2868
▁funding	-2869
▁getting	-2870
▁helicop	-2871
▁include	-2872
▁measure	-2873
▁natural	-2874
▁nominee	-2875
▁obesity	-2876
▁ordered	-2877
▁players	-2878
▁radical	-2879
▁special	-2880
▁streets	-2881
▁suspect	-2882
▁teacher	-2883
▁thought	-2884
▁waiting	-2885
▁weapons	-2886
▁winning	-2887
▁workers	-2888
▁Harrison	-2889
▁Internet	-2890
▁Juventus	-2891
▁Security	-2892
▁Venezuel	-2893
▁criminal	-2894
▁hospital	-2895
▁millions	-2896
▁overseas	-2897
▁petition	-2898
▁problems	-2899
▁programs	-2900
▁response	-2901
▁sentence	-2902
▁Americans	-2903
▁Barcelona	-2904
▁Singapore	-2905
▁afternoon	-2906
▁agreement	-2907
▁champions	-2908
▁convicted	-2909
▁disciplin	-2910
▁equipment	-2911
▁personnel	-2912
▁sentenced	-2913
▁solutions	-2914
▁terrorist	-2915
stitutional	-2916
▁department	-2917
▁identified	-2918
▁insurgency	-2919
▁opposition	-2920
▁population	-2921
▁production	-2922
ministration	-2923
▁colonoscopy	-2924
▁declaration	-2925
▁development	-2926
▁performance	-2927
▁prosecutors	-2928
▁Philadelphia	-2929
▁approximately	-2930
▁investigating	-2931
▁waterboarding	-2932
,'	-2933
1-	-2934
2-	-2935
EG	-2936
EL	-2937
EN	-2938
HA	-2939
IS	-2940
It	-2941
OP	-2942
PA	-2943
WE	-2944
cc	-2945
ds	-2946
ha	-2947
ho	-2948
ko	-2949
ne	-2950
sp	-2951
ya	-2952
-35	-2953
600	-2954
HCR	-2955
IFA	-2956
aka	-2957
apt	-2958
arc	-2959
ari	-2960
att	-2961
bul	-2962
edy	-2963
ena	-2964
ene	-2965
enz	-2966
ert	-2967
esl	-2968
fia	-2969
fit	-2970
flu	-2971
gia	-2972
het	-2973
iar	-2974
idr	-2975
leb	-2976
leg	-2977
let	-2978
lit	-2979
lyw	-2980
nes	-2981
nis	-2982
not	-2983
off	-2984
ogn	-2985
onz	-2986
orm	-2987
owa	-2988
ozy	-2989
par	-2990
ray	-2991
rec	-2992
rig	-2993
rix	-2994
rug	-2995
see	-2996
udd	-2997
udy	-2998
uit	-2999
ule	-3000
urt	-3001
▁($	-3002
▁(3	-3003
▁1,	-3004
▁23	-3005
▁30	-3006
▁40	-3007
▁52	-3008
▁60	-3009
▁7,	-3010
▁70	-3011
▁BU	-3012
▁Cr	-3013
▁La	-3014
▁Qu	-3015
▁vo	-3016
Roma	-3017
ably	-3018
acas	-3019
adcl	-3020
aine	-3021
aker	-3022
alls	-3023
alty	-3024
alvo	-3025
aped	-3026
ares	-3027
argo	-3028
ateg	-3029
cher	-3030
comm	-3031
eman	-3032
enit	-3033
ergy	-3034
fire	-3035
ghai	-3036
haps	-3037
heas	-3038
ides	-3039
iffe	-3040
iger	-3041
igin	-3042
inds	-3043
ires	-3044
itiz	-3045
ivia	-3046
kick	-3047
lide	-3048
mist	-3049
most	-3050
ogue	-3051
olun	-3052
omas	-3053
ones	-3054
oted	-3055
plic	-3056
pril	-3057
racy	-3058
read	-3059
real	-3060
rief	-3061
ring	-3062
roub	-3063
ship	-3064
stan	-3065
step	-3066
ties	-3067
uate	-3068
ugby	-3069
unch	-3070
ural	-3071
utes	-3072
ways	-3073
xury	-3074
ynam	-3075
yond	-3076
▁18,	-3077
▁18-	-3078
▁197	-3079
▁2-0	-3080
▁25,	-3081
▁3-0	-3082
▁6-3	-3083
▁Ari	-3084
▁Atl	-3085
▁Bol	-3086
▁Cas	-3087
▁Dec	-3088
▁GOP	-3089
▁God	-3090
▁Nic	-3091
▁Pot	-3092
▁Pur	-3093
▁Ray	-3094
▁Sch	-3095
▁Sus	-3096
▁Tor	-3097
▁WWE	-3098
▁War	-3099
▁You	-3100
▁bad	-3101
▁bas	-3102
▁bod	-3103
▁bra	-3104
▁cab	-3105
▁deg	-3106
▁dia	-3107
▁dig	-3108
▁div	-3109
▁far	-3110
▁fel	-3111
▁inm	-3112
▁lab	-3113
▁lim	-3114
▁lip	-3115
▁low	-3116
▁met	-3117
▁occ	-3118
▁pen	-3119
▁pot	-3120
▁red	-3121
▁ser	-3122
▁som	-3123
▁sym	-3124
agoza	-3125
alled	-3126
andal	-3127
ansas	-3128
arell	-3129
arges	-3130
arily	-3131
atles	-3132
ature	-3133
ayers	-3134
based	-3135
chers	-3136
eated	-3137
encia	-3138
ennes	-3139
ennon	-3140
ested	-3141
ffick	-3142
icide	-3143
idity	-3144
ieved	-3145
ifman	-3146
ilton	-3147
imply	-3148
ising	-3149
itals	-3150
olled	-3151
ordan	-3152
ordon	-3153
ortun	-3154
ounds	-3155
ounts	-3156
oured	-3157
quent	-3158
right	-3159
state	-3160
stead	-3161
story	-3162
tured	-3163
uries	-3164
usion	-3165
uster	-3166
woman	-3167
yrian	-3168
▁2001	-3169
▁2002	-3170
▁Also	-3171
▁Bill	-3172
▁Cent	-3173
▁Dodi	-3174
▁Dube	-3175
▁FIFA	-3176
▁Fund	-3177
▁Gold	-3178
▁Hill	-3179
▁Iowa	-3180
▁June	-3181
▁Luis	-3182
▁Mass	-3183
▁Qual	-3184
▁Sark	-3185
▁Sidr	-3186
▁Stri	-3187
▁Thai	-3188
▁They	-3189
▁This	-3190
▁Tony	-3191
▁Trez	-3192
▁Will	-3193
▁airl	-3194
▁amid	-3195
▁anal	-3196
▁bail	-3197
▁band	-3198
▁boys	-3199
▁burn	-3200
▁bust	-3201
▁cars	-3202
▁cash	-3203
▁cell	-3204
▁clos	-3205
▁dial	-3206
▁disp	-3207
▁dist	-3208
▁dump	-3209
▁fast	-3210
▁fats	-3211
▁feel	-3212
▁fore	-3213
▁gain	-3214
▁game	-3215
▁gets	-3216
▁gian	-3217
▁give	-3218
▁huge	-3219
▁init	-3220
▁jobs	-3221
▁join	-3222
▁kick	-3223
▁kidn	-3224
▁lack	-3225
▁mean	-3226
▁move	-3227
▁nine	-3228
▁park	-3229
▁poll	-3230
▁poly	-3231
▁poor	-3232
▁priv	-3233
▁publ	-3234
▁purs	-3235
▁rall	-3236
▁repl	-3237
▁resc	-3238
▁rise	-3239
▁same	-3240
▁scre	-3241
▁seek	-3242
▁sens	-3243
▁shop	-3244
▁shut	-3245
▁tape	-3246
▁tell	-3247
▁ties	-3248
▁trad	-3249
▁vill	-3250
▁want	-3251
▁weak	-3252
▁wedd	-3253
▁wide	-3254
▁wine	-3255
acking	-3256
anchez	-3257
ancial	-3258
artney	-3259
ective	-3260
erated	-3261
ething	-3262
ground	-3263
icians	-3264
incess	-3265
lywood	-3266
ociety	-3267
rivals	-3268
rovers	-3269
rowned	-3270
▁2005,	-3271
▁About	-3272
▁April	-3273
▁Armen	-3274
▁Beach	-3275
▁Bible	-3276
▁Coast	-3277
▁Congo	-3278
▁Crist	-3279
▁Dynam	-3280
▁Grand	-3281
▁Gupta	-3282
▁Laura	-3283
▁Malvo	-3284
▁Niger	-3285
▁Patil	-3286
▁Radcl	-3287
▁Staff	-3288
▁Stand	-3289
▁Starr	-3290
▁Terry	-3291
▁There	-3292
▁Today	-3293
▁UNHCR	-3294
▁Villa	-3295
▁acres	-3296
▁again	-3297
▁avail	-3298
▁begin	-3299
▁board	-3300
▁bombs	-3301
▁boost	-3302
▁brief	-3303
▁broad	-3304
▁canal	-3305
▁cargo	-3306
▁carry	-3307
▁cease	-3308
▁celeb	-3309
▁cited	-3310
▁citiz	-3311
▁democ	-3312
▁doors	-3313
▁drink	-3314
▁drive	-3315
▁drove	-3316
▁empty	-3317
▁enter	-3318
▁estab	-3319
▁every	-3320
▁favor	-3321
▁field	-3322
▁fined	-3323
▁games	-3324
▁goods	-3325
▁grand	-3326
▁hotel	-3327
▁influ	-3328
▁intro	-3329
▁launc	-3330
▁mafia	-3331
▁mayor	-3332
▁means	-3333
▁often	-3334
▁panel	-3335
▁phone	-3336
▁remov	-3337
▁route	-3338
▁sales	-3339
▁sched	-3340
▁shoes	-3341
▁sixth	-3342
▁table	-3343
▁takes	-3344
▁taxes	-3345
▁tells	-3346
▁tests	-3347
▁times	-3348
▁total	-3349
▁trade	-3350
▁turns	-3351
▁upset	-3352
▁urban	-3353
▁video	-3354
▁voted	-3355
▁wants	-3356
▁works	-3357
▁wrong	-3358
Reuters	-3359
aragoza	-3360
mentary	-3361
stitute	-3362
urgents	-3363
▁40,000	-3364
▁Andrew	-3365
▁Arabia	-3366
▁Austin	-3367
▁Barack	-3368
▁Carlos	-3369
▁Commun	-3370
▁Custom	-3371
▁Driver	-3372
▁George	-3373
▁Health	-3374
▁Jordan	-3375
▁Lennon	-3376
▁Lionel	-3377
▁Murray	-3378
▁Potter	-3379
▁Purvis	-3380
▁Robert	-3381
▁Ronald	-3382
▁Somali	-3383
▁Spears	-3384
▁Sunnis	-3385
▁Tennes	-3386
▁aboard	-3387
▁active	-3388
▁assass	-3389
▁assist	-3390
▁beyond	-3391
▁bodies	-3392
▁bought	-3393
▁coming	-3394
▁danger	-3395
▁design	-3396
▁disapp	-3397
▁effort	-3398
▁energy	-3399
▁enough	-3400
▁expert	-3401
▁failed	-3402
▁flames	-3403
▁follow	-3404
▁fourth	-3405
▁govern	-3406
▁income	-3407
▁jumped	-3408
▁league	-3409
▁legend	-3410
▁likely	-3411
▁mental	-3412
▁modern	-3413
▁nation	-3414
▁needed	-3415
▁opened	-3416
▁orders	-3417
▁origin	-3418
▁places	-3419
▁played	-3420
▁recogn	-3421
▁rocket	-3422
▁sector	-3423
▁showed	-3424
▁simply	-3425
▁social	-3426
▁speech	-3427
▁strugg	-3428
▁tempor	-3429
▁things	-3430
▁traged	-3431
▁unable	-3432
▁videot	-3433
▁voters	-3434
▁wanted	-3435
▁window	-3436
fighters	-3437
genocide	-3438
heastern	-3439
issioner	-3440
▁Alberto	-3441
▁Baghdad	-3442
▁Beatles	-3443
▁Blatter	-3444
▁Caracas	-3445
▁Central	-3446
▁Charges	-3447
▁Command	-3448
▁Cyclone	-3449
▁Edwards	-3450
▁Embassy	-3451
▁English	-3452
▁Iranian	-3453
▁Leifman	-3454
▁Sanchez	-3455
▁Sarkozy	-3456
▁Several	-3457
▁Supreme	-3458
▁Western	-3459
▁accuses	-3460
▁allowed	-3461
▁another	-3462
▁balloon	-3463
▁believe	-3464
▁brought	-3465
▁college	-3466
▁confirm	-3467
▁contact	-3468
▁contest	-3469
▁created	-3470
▁current	-3471
▁decided	-3472
▁dropped	-3473
▁efforts	-3474
▁fashion	-3475
▁founded	-3476
▁healthy	-3477
▁inmates	-3478
▁offered	-3479
▁opening	-3480
▁options	-3481
▁partner	-3482
▁perhaps	-3483
▁planned	-3484
▁pointed	-3485
▁prepare	-3486
▁protect	-3487
▁quickly	-3488
▁recover	-3489
▁refused	-3490
▁regular	-3491
▁remains	-3492
▁restore	-3493
▁retired	-3494
▁scandal	-3495
▁schools	-3496
▁sheriff	-3497
▁threats	-3498
▁usually	-3499
▁warning	-3500
▁wedding	-3501
▁written	-3502
▁Attorney	-3503
▁Colombia	-3504
▁Emirates	-3505
▁Lebanese	-3506
▁Qualcomm	-3507
▁Republic	-3508
▁Shakhtar	-3509
▁Shanghai	-3510
▁Southern	-3511
▁Valencia	-3512
▁accident	-3513
▁appeared	-3514
▁citizens	-3515
▁consider	-3516
▁continue	-3517
▁decision	-3518
▁defender	-3519
▁disaster	-3520
▁discover	-3521
▁hijacked	-3522
▁industry	-3523
▁injuries	-3524
▁involved	-3525
▁officers	-3526
▁opportun	-3527
▁personal	-3528
▁possible	-3529
▁reaching	-3530
▁repeated	-3531
▁required	-3532
▁returned	-3533
▁shooting	-3534
▁solution	-3535
▁stressed	-3536
▁survivor	-3537
▁vehicles	-3538
▁veterans	-3539
▁violated	-3540
▁Argentina	-3541
▁Armenians	-3542
▁Colombian	-3543
▁Cristiano	-3544
▁Hollywood	-3545
▁Hurricane	-3546
▁McCartney	-3547
▁Radcliffe	-3548
▁Tennessee	-3549
▁conducted	-3550
▁declaring	-3551
▁delivered	-3552
▁democracy	-3553
▁displaced	-3554
▁documents	-3555
▁evacuated	-3556
▁executive	-3557
▁financial	-3558
▁immediate	-3559
▁interview	-3560
▁involving	-3561
▁militants	-3562
▁potential	-3563
▁published	-3564
▁reporters	-3565
▁secretary	-3566
▁standards	-3567
▁supporter	-3568
▁survivors	-3569
▁transport	-3570
▁violation	-3571
▁witnesses	-3572
▁Bernardino	-3573
▁Interstate	-3574
▁Petersburg	-3575
▁additional	-3576
▁connection	-3577
▁controvers	-3578
▁helicopter	-3579
▁immigrants	-3580
▁inspection	-3581
▁insurgents	-3582
▁investment	-3583
▁protection	-3584
▁punishment	-3585
▁regardless	-3586
▁restricted	-3587
▁supporters	-3588
▁withdrawal	-3589
▁Scientology	-3590
▁counterfeit	-3591
▁immigration	-3592
▁journalists	-3593
▁responsible	-3594
▁spokeswoman	-3595
▁conservative	-3596
▁disciplinary	-3597
▁hospitalized	-3598
▁assassination	-3599
▁opportunities	-3600
▁investigations	-3601
..	-3602
0.	-3603
11	-3604
20	-3605
40	-3606
5,	-3607
67	-3608
87	-3609
AG	-3610
AN	-3611
BI	-3612
EM	-3613
ID	-3614
In	-3615
ME	-3616
TV	-3617
ca	-3618
ci	-3619
cr	-3620
gn	-3621
ja	-3622
sw	-3623
va	-3624
wd	-3625
we	-3626
-15	-3627
500	-3628
ahr	-3629
aik	-3630
arf	-3631
aro	-3632
asg	-3633
asr	-3634
ayl	-3635
bar	-3636
bet	-3637
bie	-3638
bur	-3639
cep	-3640
cis	-3641
cle	-3642
def	-3643
egu	-3644
eny	-3645
eyn	-3646
fer	-3647
fol	-3648
ges	-3649
hab	-3650
his	-3651
hus	-3652
iat	-3653
ibr	-3654
ico	-3655
ids	-3656
iec	-3657
igl	-3658
imo	-3659
ini	-3660
iod	-3661
iop	-3662
ipe	-3663
iry	-3664
isc	-3665
jok	-3666
lad	-3667
lex	-3668
mun	-3669
nam	-3670
oni	-3671
ops	-3672
ote	-3673
ots	-3674
oys	-3675
pet	-3676
por	-3677
rea	-3678
reg	-3679
rem	-3680
rif	-3681
rip	-3682
rog	-3683
rol	-3684
sur	-3685
tta	-3686
uca	-3687
uez	-3688
ugh	-3689
ula	-3690
ume	-3691
van	-3692
vre	-3693
yer	-3694
yst	-3695
▁$2	-3696
▁$3	-3697
▁16	-3698
▁26	-3699
▁42	-3700
▁5-	-3701
▁85	-3702
▁AT	-3703
▁Az	-3704
▁CD	-3705
▁El	-3706
▁En	-3707
▁II	-3708
▁Ir	-3709
▁Pl	-3710
▁Te	-3711
▁lu	-3712
ARIS	-3713
Amer	-3714
What	-3715
abal	-3716
acob	-3717
acts	-3718
aele	-3719
agon	-3720
aily	-3721
airs	-3722
akul	-3723
amin	-3724
anda	-3725
ando	-3726
arms	-3727
arth	-3728
asts	-3729
atal	-3730
atis	-3731
aves	-3732
beat	-3733
cean	-3734
ceed	-3735
ches	-3736
cked	-3737
down	-3738
elme	-3739
enko	-3740
enty	-3741
enza	-3742
erem	-3743
etsk	-3744
ezza	-3745
fety	-3746
foot	-3747
forc	-3748
fort	-3749
fred	-3750
gage	-3751
gans	-3752
gers	-3753
gypt	-3754
heel	-3755
husi	-3756
iago	-3757
iary	-3758
iave	-3759
iele	-3760
imal	-3761
inch	-3762
iner	-3763
ingo	-3764
inho	-3765
init	-3766
inya	-3767
iple	-3768
irts	-3769
ises	-3770
ishu	-3771
itan	-3772
ivid	-3773
lets	-3774
long	-3775
mark	-3776
obby	-3777
ogad	-3778
oger	-3779
oice	-3780
olas	-3781
oles	-3782
oner	-3783
opes	-3784
orks	-3785
oses	-3786
ouch	-3787
ovic	-3788
pire	-3789
rate	-3790
rawn	-3791
rese	-3792
rial	-3793
rose	-3794
ston	-3795
thal	-3796
toff	-3797
ttes	-3798
uals	-3799
uled	-3800
ults	-3801
unta	-3802
vive	-3803
wide	-3804
wife	-3805
zona	-3806
▁$50	-3807
▁...	-3808
▁1-0	-3809
▁1-1	-3810
▁10-	-3811
▁12-	-3812
▁131	-3813
▁14,	-3814
▁185	-3815
▁20-	-3816
▁31,	-3817
▁37,	-3818
▁67,	-3819
▁Art	-3820
▁Bre	-3821
▁CEO	-3822
▁Can	-3823
▁Cro	-3824
▁Cur	-3825
▁Den	-3826
▁Dub	-3827
▁Eth	-3828
▁Exp	-3829
▁FBI	-3830
▁Fal	-3831
▁Hun	-3832
▁Hut	-3833
▁Jos	-3834
▁Law	-3835
▁Lee	-3836
▁Loc	-3837
▁McM	-3838
▁Mel	-3839
▁Mer	-3840
▁Met	-3841
▁Mex	-3842
▁Nav	-3843
▁Off	-3844
▁Ono	-3845
▁Opp	-3846
▁Ott	-3847
▁Pal	-3848
▁Pan	-3849
▁Raf	-3850
▁Ram	-3851
▁Rel	-3852
▁Rev	-3853
▁Rod	-3854
▁Rom	-3855
▁Shi	-3856
▁Sol	-3857
▁Sur	-3858
▁Ten	-3859
▁Tou	-3860
▁USA	-3861
▁USS	-3862
▁Vic	-3863
▁Wal	-3864
▁abs	-3865
▁ads	-3866
▁amb	-3867
▁awa	-3868
▁bom	-3869
▁box	-3870
▁bur	-3871
▁cig	-3872
▁civ	-3873
▁coc	-3874
▁dam	-3875
▁dry	-3876
▁ess	-3877
▁exh	-3878
▁fem	-3879
▁gam	-3880
▁gas	-3881
▁gay	-3882
▁guy	-3883
▁ham	-3884
▁hip	-3885
▁hor	-3886
▁hum	-3887
▁ign	-3888
▁kil	-3889
▁lic	-3890
▁mer	-3891
▁obj	-3892
▁pil	-3893
▁pus	-3894
▁sil	-3895
▁son	-3896
▁unh	-3897
adino	-3898
aijan	-3899
ality	-3900
allas	-3901
anesi	-3902
antic	-3903
arged	-3904
asgow	-3905
asion	-3906
astic	-3907
aught	-3908
aylor	-3909
dsley	-3910
early	-3911
ected	-3912
eguet	-3913
ented	-3914
erted	-3915
ervez	-3916
estin	-3917
etian	-3918
ettle	-3919
flies	-3920
going	-3921
icant	-3922
igion	-3923
illed	-3924
imera	-3925
iring	-3926
isher	-3927
istry	-3928
licts	-3929
limin	-3930
mical	-3931
opped	-3932
orrow	-3933
otion	-3934
oviet	-3935
owers	-3936
owned	-3937
prise	-3938
raged	-3939
range	-3940
rewer	-3941
ropri	-3942
round	-3943
stand	-3944
stick	-3945
toric	-3946
ucial	-3947
ucose	-3948
ureau	-3949
urred	-3950
vious	-3951
▁1984	-3952
▁2007	-3953
▁Alex	-3954
▁BUPA	-3955
▁Bear	-3956
▁Best	-3957
▁Brad	-3958
▁Bund	-3959
▁Burn	-3960
▁Cass	-3961
▁Cher	-3962
▁Cond	-3963
▁Coun	-3964
▁Dana	-3965
▁Dick	-3966
▁Djok	-3967
▁Down	-3968
▁Drew	-3969
▁Drug	-3970
▁Fern	-3971
▁Gonz	-3972
▁Kent	-3973
▁Lake	-3974
▁Last	-3975
▁Liga	-3976
▁Many	-3977
▁Nasr	-3978
▁Orme	-3979
▁Pahr	-3980
▁Pall	-3981
▁Pent	-3982
▁Prot	-3983
▁Raff	-3984
▁Rang	-3985
▁Reid	-3986
▁Riqu	-3987
▁Road	-3988
▁Rudy	-3989
▁Sain	-3990
▁Sant	-3991
▁Serb	-3992
▁Serv	-3993
▁Song	-3994
▁Then	-3995
▁Tour	-3996
▁Town	-3997
▁Viet	-3998
▁Wall	-3999
▁adop	-4000
▁arch	-4001
▁army	-4002
▁asks	-4003
▁audi	-4004
▁batt	-4005
▁bear	-4006
▁book	-4007
▁boss	-4008
▁both	-4009
▁chee	-4010
▁comb	-4011
▁cool	-4012
▁cust	-4013
▁deep	-4014
▁done	-4015
▁drag	-4016
▁else	-4017
▁fair	-4018
▁feat	-4019
▁firm	-4020
▁form	-4021
▁grad	-4022
▁guns	-4023
▁hang	-4024
▁hear	-4025
▁hero	-4026
▁hole	-4027
▁hurt	-4028
▁kept	-4029
▁lawn	-4030
▁lewd	-4031
▁line	-4032
▁list	-4033
▁magn	-4034
▁mass	-4035
▁mort	-4036
▁name	-4037
▁none	-4038
▁onto	-4039
▁pers	-4040
▁phys	-4041
▁pict	-4042
▁port	-4043
▁pose	-4044
▁pray	-4045
▁pred	-4046
▁prim	-4047
▁prom	-4048
▁rain	-4049
▁seem	-4050
▁sell	-4051
▁sets	-4052
▁sick	-4053
▁soon	-4054
▁soph	-4055
▁stem	-4056
▁sugg	-4057
▁sust	-4058
▁tips	-4059
▁trib	-4060
▁unse	-4061
▁vess	-4062
▁veto	-4063
▁vice	-4064
▁ways	-4065
▁wear	-4066
▁whom	-4067
▁wild	-4068
▁wing	-4069
▁word	-4070
acting	-4071
ailing	-4072
airman	-4073
apping	-4074
arelli	-4075
ategic	-4076
beaten	-4077
coming	-4078
defend	-4079
ealand	-4080
ellite	-4081
encers	-4082
enport	-4083
ensive	-4084
esliga	-4085
friend	-4086
gotten	-4087
ibrary	-4088
icting	-4089
ightly	-4090
inched	-4091
indsay	-4092
iopian	-4093
lished	-4094
mainst	-4095
manent	-4096
olunte	-4097
onents	-4098
onoria	-4099
parate	-4100
piring	-4101
profit	-4102
rapped	-4103
riguez	-4104
termin	-4105
terror	-4106
turned	-4107
uction	-4108
vement	-4109
▁2007,	-4110
▁2008,	-4111
▁Azerb	-4112
▁Batna	-4113
▁Binya	-4114
▁Board	-4115
▁Camor	-4116
▁Civil	-4117
▁Death	-4118
▁Delta	-4119
▁Direc	-4120
▁Egypt	-4121
▁Fabio	-4122
▁Fayed	-4123
▁Found	-4124
▁Gates	-4125
▁Grant	-4126
▁Green	-4127
▁Heigl	-4128
▁Human	-4129
▁Istan	-4130
▁Jacob	-4131
▁Joint	-4132
▁Julio	-4133
▁Kanda	-4134
▁Kouch	-4135
▁Larry	-4136
▁Lions	-4137
▁March	-4138
▁Mayor	-4139
▁Milit	-4140
▁Mogad	-4141
▁Order	-4142
▁PARIS	-4143
▁Piave	-4144
▁Pless	-4145
▁Ringo	-4146
▁Roger	-4147
▁Santa	-4148
▁Singh	-4149
▁Steyn	-4150
▁Swiss	-4151
▁Vakul	-4152
▁Vince	-4153
▁abuse	-4154
▁actor	-4155
▁added	-4156
▁adult	-4157
▁alive	-4158
▁armed	-4159
▁arriv	-4160
▁aside	-4161
▁backs	-4162
▁banks	-4163
▁becom	-4164
▁blame	-4165
▁blast	-4166
▁block	-4167
▁bound	-4168
▁buyer	-4169
▁cases	-4170
▁catch	-4171
▁craft	-4172
▁creat	-4173
▁daily	-4174
▁doing	-4175
▁emiss	-4176
▁exerc	-4177
▁facts	-4178
▁fight	-4179
▁fired	-4180
▁fires	-4181
▁floor	-4182
▁foods	-4183
▁giant	-4184
▁goals	-4185
▁great	-4186
▁heavy	-4187
▁hopes	-4188
▁impro	-4189
▁insul	-4190
▁items	-4191
▁judic	-4192
▁lives	-4193
▁lobby	-4194
▁memor	-4195
▁might	-4196
▁monit	-4197
▁needs	-4198
▁pitch	-4199
▁plane	-4200
▁prime	-4201
▁probe	-4202
▁radio	-4203
▁raped	-4204
▁ready	-4205
▁reduc	-4206
▁round	-4207
▁rugby	-4208
▁shift	-4209
▁shirt	-4210
▁shown	-4211
▁steal	-4212
▁steps	-4213
▁surve	-4214
▁teams	-4215
▁teens	-4216
▁touch	-4217
▁troub	-4218
▁using	-4219
▁wrest	-4220
arettes	-4221
certain	-4222
ections	-4223
ecurity	-4224
ecution	-4225
entally	-4226
ication	-4227
ictment	-4228
ificant	-4229
incipal	-4230
isiting	-4231
markets	-4232
nership	-4233
oleezza	-4234
ometers	-4235
ountain	-4236
umption	-4237
vention	-4238
▁10,000	-4239
▁12,000	-4240
▁15,000	-4241
▁25,000	-4242
▁67,100	-4243
▁Agency	-4244
▁Alfred	-4245
▁Assist	-4246
▁Border	-4247
▁Brazil	-4248
▁Carter	-4249
▁Chabal	-4250
▁Dallas	-4251
▁Denver	-4252
▁During	-4253
▁Dynamo	-4254
▁Empire	-4255
▁Global	-4256
▁Gordon	-4257
▁Iraqis	-4258
▁Louvre	-4259
▁Manche	-4260
▁Medina	-4261
▁Mexico	-4262
▁Naples	-4263
▁Nation	-4264
▁Nearly	-4265
▁Office	-4266
▁Perino	-4267
▁Pervez	-4268
▁Romney	-4269
▁Syrian	-4270
▁Taylor	-4271
▁Thomas	-4272
▁Victor	-4273
▁Walter	-4274
▁abused	-4275
▁advert	-4276
▁agents	-4277
▁agreed	-4278
▁almost	-4279
▁altern	-4280
▁anyone	-4281
▁arrive	-4282
▁artist	-4283
▁assign	-4284
▁attend	-4285
▁awards	-4286
▁banned	-4287
▁batter	-4288
▁bomber	-4289
▁breach	-4290
▁campus	-4291
▁cannot	-4292
▁casino	-4293
▁caught	-4294
▁choice	-4295
▁closer	-4296
▁commit	-4297
▁compet	-4298
▁counts	-4299
▁create	-4300
▁credit	-4301
▁custom	-4302
▁degree	-4303
▁deploy	-4304
▁device	-4305
▁diabet	-4306
▁explod	-4307
▁father	-4308
▁female	-4309
▁finals	-4310
▁finish	-4311
▁handed	-4312
▁highly	-4313
▁impact	-4314
▁inside	-4315
▁insist	-4316
▁kidney	-4317
▁lethal	-4318
▁losses	-4319
▁luxury	-4320
▁member	-4321
▁online	-4322
▁organs	-4323
▁partly	-4324
▁passed	-4325
▁period	-4326
▁perpet	-4327
▁photos	-4328
▁planes	-4329
▁polyps	-4330
▁pounds	-4331
▁relief	-4332
▁review	-4333
▁rising	-4334
▁rivals	-4335
▁rolled	-4336
▁safety	-4337
▁seeing	-4338
▁series	-4339
▁sister	-4340
▁sought	-4341
▁supply	-4342
▁surger	-4343
▁suspic	-4344
▁teenag	-4345
▁temper	-4346
▁though	-4347
▁toward	-4348
▁walked	-4349
▁waters	-4350
▁weapon	-4351
▁winner	-4352
▁winter	-4353
▁worker	-4354
American	-4355
fighting	-4356
ications	-4357
inciples	-4358
liminary	-4359
ointment	-4360
▁Arizona	-4361
▁Atlanta	-4362
▁Chadian	-4363
▁Customs	-4364
▁Daniele	-4365
▁Donetsk	-4366
▁Downing	-4367
▁Falcons	-4368
▁Fortune	-4369
▁Francis	-4370
▁Fromong	-4371
▁Georgia	-4372
▁Glasgow	-4373
▁Hampton	-4374
▁Hillary	-4375
▁Honoria	-4376
▁Kennedy	-4377
▁Lindsay	-4378
▁Marines	-4379
▁Massimo	-4380
▁Nigeria	-4381
▁Pahrump	-4382
▁Primera	-4383
▁Proenza	-4384
▁Rangers	-4385
▁Science	-4386
▁Service	-4387
▁Society	-4388
▁Suspect	-4389
▁Therese	-4390
▁Vietnam	-4391
▁ability	-4392
▁abusing	-4393
▁address	-4394
▁airline	-4395
▁analyst	-4396
▁appears	-4397
▁arrived	-4398
▁artists	-4399
▁awarded	-4400
▁brother	-4401
▁captain	-4402
▁charity	-4403
▁cocaine	-4404
▁collaps	-4405
▁complic	-4406
▁concert	-4407
▁coroner	-4408
▁crucial	-4409
▁culture	-4410
▁custody	-4411
▁cutting	-4412
▁dealers	-4413
▁defense	-4414
▁details	-4415
▁discuss	-4416
▁driving	-4417
▁drowned	-4418
▁economy	-4419
▁effects	-4420
▁engaged	-4421
▁exports	-4422
▁finding	-4423
▁flights	-4424
▁forcing	-4425
▁friends	-4426
▁further	-4427
▁glucose	-4428
▁growing	-4429
▁helping	-4430
▁himself	-4431
▁history	-4432
▁husband	-4433
▁illegal	-4434
▁individ	-4435
▁inquiry	-4436
▁leading	-4437
▁learned	-4438
▁limited	-4439
▁longest	-4440
▁massive	-4441
▁mission	-4442
▁omitted	-4443
▁opposed	-4444
▁overall	-4445
▁parents	-4446
▁persons	-4447
▁picture	-4448
▁private	-4449
▁process	-4450
▁rallies	-4451
▁records	-4452
▁related	-4453
▁removed	-4454
▁request	-4455
▁running	-4456
▁seeking	-4457
▁sending	-4458
▁serving	-4459
▁setting	-4460
▁sources	-4461
▁station	-4462
▁suicide	-4463
▁tracked	-4464
▁traffic	-4465
▁tragedy	-4466
▁trapped	-4467
▁warming	-4468
▁watched	-4469
▁wounded	-4470
forcement	-4471
verything	-4472
▁Algerian	-4473
▁Arkansas	-4474
▁Bradford	-4475
▁Chertoff	-4476
▁Djokovic	-4477
▁Fernando	-4478
▁Gianluca	-4479
▁Hamilton	-4480
▁Istanbul	-4481
▁Kentucky	-4482
▁Kouchner	-4483
▁Palestin	-4484
▁Pentagon	-4485
▁Raffaele	-4486
▁Riquelme	-4487
▁Santiago	-4488
▁Venetian	-4489
▁activity	-4490
▁actually	-4491
▁admitted	-4492
▁although	-4493
▁appropri	-4494
▁attended	-4495
▁audience	-4496
▁believes	-4497
▁building	-4498
▁captured	-4499
▁carrying	-4500
▁chemical	-4501
▁civilian	-4502
▁clinched	-4503
▁comments	-4504
▁concerns	-4505
▁critical	-4506
▁declared	-4507
▁designed	-4508
▁determin	-4509
▁dialogue	-4510
▁disorder	-4511
▁evidence	-4512
▁flooding	-4513
▁frequent	-4514
▁friendly	-4515
▁handling	-4516
▁homeless	-4517
▁humidity	-4518
▁identify	-4519
▁identity	-4520
▁invasion	-4521
▁launcher	-4522
▁lewdness	-4523
▁lipstick	-4524
▁marchers	-4525
▁mortgage	-4526
▁multiple	-4527
▁networks	-4528
▁offering	-4529
▁planning	-4530
▁positive	-4531
▁products	-4532
▁projects	-4533
▁reconstr	-4534
▁relieved	-4535
▁religion	-4536
▁restored	-4537
▁senators	-4538
▁separate	-4539
▁struggle	-4540
▁surprise	-4541
▁targeted	-4542
▁traffick	-4543
▁transmit	-4544
▁unbeaten	-4545
▁visitors	-4546
mainstream	-4547
vernmental	-4548
▁Australia	-4549
▁Beardsley	-4550
▁Committee	-4551
▁Davenport	-4552
▁Ethiopian	-4553
▁Lucarelli	-4554
▁Mogadishu	-4555
▁Palladino	-4556
▁Rodriguez	-4557
▁Trezeguet	-4558
▁Vakulenko	-4559
▁available	-4560
▁bodyguard	-4561
▁campaigns	-4562
▁civilians	-4563
▁commander	-4564
▁companies	-4565
▁confident	-4566
▁conflicts	-4567
▁criticism	-4568
▁customers	-4569
▁depicting	-4570
▁described	-4571
▁desperate	-4572
▁destroyed	-4573
▁direction	-4574
▁expertise	-4575
▁expressed	-4576
▁hospitals	-4577
▁increased	-4578
▁influence	-4579
▁nonprofit	-4580
▁passenger	-4581
▁permanent	-4582
▁qualifier	-4583
▁satellite	-4584
▁scheduled	-4585
▁searching	-4586
▁silencers	-4587
▁something	-4588
▁sustained	-4589
▁threatens	-4590
▁tradition	-4591
▁traveling	-4592
▁Azerbaijan	-4593
▁Bundesliga	-4594
▁Camoranesi	-4595
▁Government	-4596
▁Investment	-4597
▁Manchester	-4598
▁Venezuelan	-4599
▁associated	-4600
▁attempting	-4601
▁challenges	-4602
▁cigarettes	-4603
▁continuous	-4604
▁conviction	-4605
▁deliveries	-4606
▁diplomatic	-4607
▁discovered	-4608
▁footballer	-4609
▁importance	-4610
▁increasing	-4611
▁introduced	-4612
▁kilometers	-4613
▁leadership	-4614
▁originally	-4615
▁repeatedly	-4616
▁scientists	-4617
▁statements	-4618
▁terrorists	-4619
▁terrorized	-4620
▁threatened	-4621
▁throughout	-4622
▁Condoleezza	-4623
▁consumption	-4624
▁controversy	-4625
▁demonstrate	-4626
▁deportation	-4627
▁documentary	-4628
▁investigate	-4629
▁involvement	-4630
▁neighboring	-4631
▁politicians	-4632
▁preliminary	-4633
▁significant	-4634
▁willingness	-4635
▁Commissioner	-4636
▁particularly	-4637
▁prostitution	-4638
▁administration	-4639
",	-4640
,8	-4641
-5	-4642
.,	-4643
3,	-4644
47	-4645
64	-4646
80	-4647
9,	-4648
AM	-4649
Al	-4650
BU	-4651
CO	-4652
Ch	-4653
DV	-4654
EB	-4655
FK	-4656
If	-4657
MW	-4658
RA	-4659
RG	-4660
RU	-4661
SA	-4662
SC	-4663
So	-4664
TA	-4665
Ud	-4666
bo	-4667
da	-4668
dd	-4669
di	-4670
eu	-4671
fB	-4672
fr	-4673
iw	-4674
je	-4675
ji	-4676
kb	-4677
la	-4678
lt	-4679
ni	-4680
py	-4681
rs	-4682
sk	-4683
sl	-4684
sy	-4685
uf	-4686
wh	-4687
xi	-4688
yd	-4689
ye	-4690
zi	-4691
-40	-4692
00-	-4693
700	-4694
900	-4695
ADR	-4696
DVD	-4697
EGO	-4698
For	-4699
HD	-4700
Or	-4701
▁z	-4702
Gre	-4703
Gul	-4704
Ins	-4705
abb	-4706
aby	-4707
aco	-4708
add	-4709
adr	-4710
agl	-4711
aks	-4712
alb	-4713
ane	-4714
ani	-4715
aqu	-4716
ata	-4717
ats	-4718
awk	-4719
aya	-4720
bee	-4721
bon	-4722
bot	-4723
bre	-4724
bum	-4725
cil	-4726
con	-4727
des	-4728
dom	-4729
dur	-4730
ein	-4731
elf	-4732
eph	-4733
equ	-4734
erh	-4735
esa	-4736
eta	-4737
ett	-4738
gad	-4739
gay	-4740
hit	-4741
iah	-4742
idy	-4743
igi	-4744
ima	-4745
inn	-4746
int	-4747
ipp	-4748
ira	-4749
ius	-4750
kan	-4751
kid	-4752
law	-4753
lon	-4754
mod	-4755
mos	-4756
obe	-4757
oen	-4758
oil	-4759
ois	-4760
oit	-4761
oke	-4762
oko	-4763
olf	-4764
oms	-4765
onc	-4766
onx	-4767
ori	-4768
oul	-4769
pan	-4770
pol	-4771
qua	-4772
que	-4773
rev	-4774
ria	-4775
sen	-4776
syl	-4777
tra	-4778
ude	-4779
ulf	-4780
umm	-4781
uro	-4782
voc	-4783
von	-4784
wer	-4785
win	-4786
▁$7	-4787
▁(2	-4788
▁21	-4789
▁28	-4790
▁3.	-4791
▁41	-4792
▁44	-4793
▁56	-4794
▁57	-4795
▁7-	-4796
▁89	-4797
▁AB	-4798
▁Ah	-4799
Any	-4800
Cry	-4801
aga	-4802
ags	-4803
avi	-4804
axy	-4805
iev	-4806
ikh	-4807
loy	-4808
nav	-4809
▁3,	-4810
▁34	-4811
▁38	-4812
▁Av	-4813
▁Bo	-4814
▁DI	-4815
▁Di	-4816
▁Ec	-4817
▁Ez	-4818
▁Fu	-4819
▁If	-4820
▁JD	-4821
▁JO	-4822
▁MI	-4823
▁Mu	-4824
▁Nk	-4825
▁Nu	-4826
▁Of	-4827
▁Ol	-4828
▁Ox	-4829
▁Rw	-4830
▁Sm	-4831
▁So	-4832
▁Tr	-4833
▁Up	-4834
▁Ve	-4835
▁ap	-4836
▁cy	-4837
▁du	-4838
▁ic	-4839
▁ir	-4840
▁je	-4841
▁ju	-4842
▁ly	-4843
▁pe	-4844
▁ty	-4845
,800	-4846
BURG	-4847
HANN	-4848
Hear	-4849
Main	-4850
SCAT	-4851
Sick	-4852
Tube	-4853
When	-4854
Wine	-4855
abas	-4856
abor	-4857
abul	-4858
acre	-4859
ador	-4860
adow	-4861
aikk	-4862
akan	-4863
aked	-4864
anan	-4865
ancy	-4866
andw	-4867
ange	-4868
apol	-4869
appy	-4870
atti	-4871
aven	-4872
aver	-4873
bast	-4874
berg	-4875
best	-4876
bust	-4877
cial	-4878
cion	-4879
come	-4880
ctal	-4881
dine	-4882
doll	-4883
edad	-4884
eded	-4885
edge	-4886
educ	-4887
elia	-4888
empl	-4889
enda	-4890
enzo	-4891
erby	-4892
esar	-4893
eted	-4894
etic	-4895
ever	-4896
ewed	-4897
fuge	-4898
fund	-4899
ONG	-4900
ize	-4901
koy	-4902
EGAS	-4903
Plan	-4904
geon	-4905
gest	-4906
ging	-4907
hein	-4908
hing	-4909
ibha	-4910
ibly	-4911
ibur	-4912
idel	-4913
idic	-4914
iece	-4915
igan	-4916
igil	-4917
ilar	-4918
iler	-4919
illa	-4920
illy	-4921
imir	-4922
imon	-4923
indy	-4924
inta	-4925
ipel	-4926
iper	-4927
irst	-4928
irut	-4929
ised	-4930
issa	-4931
ites	-4932
join	-4933
just	-4934
kers	-4935
koye	-4936
lack	-4937
lane	-4938
lers	-4939
lies	-4940
mend	-4941
mile	-4942
mosa	-4943
mosp	-4944
nian	-4945
ocks	-4946
oing	-4947
olds	-4948
olut	-4949
ompl	-4950
onds	-4951
ongo	-4952
onic	-4953
onny	-4954
onso	-4955
onst	-4956
onti	-4957
orse	-4958
osal	-4959
osex	-4960
osta	-4961
ouni	-4962
ouri	-4963
oven	-4964
pian	-4965
plus	-4966
pond	-4967
rata	-4968
rick	-4969
rior	-4970
ripp	-4971
rity	-4972
roll	-4973
room	-4974
rote	-4975
sari	-4976
seat	-4977
sych	-4978
teas	-4979
term	-4980
thon	-4981
tled	-4982
uana	-4983
ucci	-4984
uers	-4985
ully	-4986
ultz	-4987
umer	-4988
umps	-4989
umst	-4990
unda	-4991
verd	-4992
west	-4993
wise	-4994
writ	-4995
yers	-4996
▁2-1	-4997
▁22,	-4998
▁24-	-4999
ARC	-5000
aha	-5001
cks	-5002
▁76	-5003
ahon	-5004
alks	-5005
fica	-5006
girl	-5007
irlo	-5008
math	-5009
ovak	-5010
ucks	-5011
urks	-5012
▁(32	-5013
▁27,	-5014
▁27-	-5015
▁31-	-5016
▁5-3	-5017
▁54,	-5018
▁6-2	-5019
▁700	-5020
▁ANG	-5021
▁Aid	-5022
▁BAG	-5023
▁BMW	-5024
▁Boe	-5025
▁Bru	-5026
▁Bry	-5027
▁Com	-5028
▁Cor	-5029
▁Dad	-5030
▁Day	-5031
▁Des	-5032
▁Det	-5033
▁Dis	-5034
▁Eag	-5035
▁Fam	-5036
▁Fel	-5037
▁Fig	-5038
▁Gal	-5039
▁Gil	-5040
▁Gra	-5041
▁Her	-5042
▁Hou	-5043
▁Hug	-5044
▁IRA	-5045
▁Imp	-5046
▁Isa	-5047
▁JFK	-5048
▁Kar	-5049
▁Kel	-5050
▁Kiw	-5051
▁LAS	-5052
▁LOS	-5053
▁Lab	-5054
▁Lau	-5055
▁Lie	-5056
▁Lyn	-5057
▁MME	-5058
▁Mal	-5059
▁McL	-5060
▁Mom	-5061
▁Mot	-5062
▁Mun	-5063
▁Not	-5064
▁Old	-5065
▁Pac	-5066
▁Pel	-5067
▁Pig	-5068
▁Rah	-5069
▁Rot	-5070
▁Rub	-5071
▁SAN	-5072
▁Sal	-5073
▁Sam	-5074
▁Sau	-5075
▁Sev	-5076
▁Sin	-5077
▁Sir	-5078
▁Soc	-5079
▁Tip	-5080
▁Tom	-5081
▁Toy	-5082
▁Tra	-5083
▁Vel	-5084
▁Wer	-5085
▁Wyl	-5086
▁arg	-5087
▁aut	-5088
▁ben	-5089
▁bin	-5090
▁bol	-5091
▁bow	-5092
▁bud	-5093
▁cal	-5094
▁cul	-5095
▁den	-5096
▁der	-5097
▁eat	-5098
▁era	-5099
All	-5100
EMA	-5101
▁90	-5102
lect	-5103
occo	-5104
rell	-5105
▁10,	-5106
▁Ana	-5107
▁Ann	-5108
▁few	-5109
▁gre	-5110
▁hid	-5111
▁hig	-5112
▁hol	-5113
▁hub	-5114
▁hun	-5115
▁ide	-5116
▁inn	-5117
▁lad	-5118
▁lin	-5119
▁lot	-5120
▁loy	-5121
▁meg	-5122
▁mol	-5123
▁mor	-5124
▁mph	-5125
▁obs	-5126
▁oil	-5127
▁rac	-5128
▁ren	-5129
▁rif	-5130
▁sim	-5131
▁sor	-5132
▁sud	-5133
▁tim	-5134
▁tip	-5135
▁tun	-5136
▁urg	-5137
▁var	-5138
▁voc	-5139
▁wid	-5140
▁yes	-5141
▁yet	-5142
5,000	-5143
abama	-5144
ached	-5145
acter	-5146
actor	-5147
ading	-5148
adium	-5149
ailor	-5150
akers	-5151
alifa	-5152
aling	-5153
ambro	-5154
ample	-5155
ancer	-5156
andan	-5157
annes	-5158
antly	-5159
anyon	-5160
apped	-5161
apter	-5162
arcia	-5163
arent	-5164
areva	-5165
aries	-5166
arret	-5167
arter	-5168
asses	-5169
attle	-5170
aysia	-5171
azine	-5172
burgh	-5173
cious	-5174
class	-5175
clock	-5176
derly	-5177
ectac	-5178
ensed	-5179
enses	-5180
ersey	-5181
estic	-5182
folio	-5183
force	-5184
grity	-5185
hetic	-5186
house	-5187
iator	-5188
icket	-5189
iding	-5190
ields	-5191
ifies	-5192
ignor	-5193
ilipp	-5194
inced	-5195
ingly	-5196
inian	-5197
inson	-5198
ipped	-5199
azid	-5200
heme	-5201
lurk	-5202
quez	-5203
▁(31	-5204
▁25-	-5205
▁4-0	-5206
▁NHC	-5207
▁Sea	-5208
▁Syl	-5209
▁USC	-5210
▁VfB	-5211
agues	-5212
gadje	-5213
ishes	-5214
itect	-5215
ither	-5216
ively	-5217
izing	-5218
kbone	-5219
lands	-5220
light	-5221
lives	-5222
lying	-5223
mares	-5224
merce	-5225
mired	-5226
night	-5227
obals	-5228
obile	-5229
olded	-5230
oline	-5231
omore	-5232
onial	-5233
onies	-5234
ordin	-5235
orean	-5236
orker	-5237
orner	-5238
ospel	-5239
ourns	-5240
ourse	-5241
oving	-5242
paren	-5243
peror	-5244
perts	-5245
riage	-5246
risis	-5247
ropol	-5248
teran	-5249
thony	-5250
three	-5251
ticle	-5252
uched	-5253
ucked	-5254
udios	-5255
uffon	-5256
ulate	-5257
ulner	-5258
urban	-5259
usual	-5260
utter	-5261
vania	-5262
verse	-5263
viser	-5264
wheel	-5265
▁1300	-5266
▁1851	-5267
▁1980	-5268
▁1990	-5269
▁1993	-5270
▁1994	-5271
▁1997	-5272
▁Ball	-5273
▁Band	-5274
▁Bank	-5275
▁Bart	-5276
▁Bell	-5277
▁Benj	-5278
▁Boyd	-5279
▁Boys	-5280
▁Buch	-5281
▁Cape	-5282
▁Capt	-5283
▁Carm	-5284
▁Case	-5285
▁Cave	-5286
▁Cons	-5287
▁Cres	-5288
▁Crit	-5289
▁Cruz	-5290
▁Dale	-5291
▁Deco	-5292
▁Dems	-5293
▁Diar	-5294
▁Educ	-5295
▁Ewer	-5296
▁Five	-5297
▁Food	-5298
▁Foot	-5299
Spe	-5300
eddy	-5301
ique	-5302
tank	-5303
▁14-	-5304
▁28,	-5305
▁GEO	-5306
▁Meh	-5307
▁Meo	-5308
▁ski	-5309
ADRID	-5310
Sicko	-5311
denly	-5312
oscow	-5313
ourag	-5314
ptoms	-5315
shire	-5316
uffed	-5317
ximum	-5318
▁2010	-5319
▁Club	-5320
▁Four	-5321
▁Fuji	-5322
▁Gary	-5323
▁Girl	-5324
▁Good	-5325
▁Grav	-5326
▁Hall	-5327
▁Hawk	-5328
▁Hosp	-5329
▁Iaqu	-5330
▁Jane	-5331
▁Jena	-5332
▁Jose	-5333
▁Juan	-5334
▁Kerr	-5335
▁Khan	-5336
▁Kraw	-5337
▁Like	-5338
▁Lith	-5339
▁Lynn	-5340
▁Mart	-5341
▁Mast	-5342
▁Memp	-5343
▁Mine	-5344
▁Miss	-5345
▁Nalb	-5346
▁Nash	-5347
▁Nick	-5348
▁Nort	-5349
▁Penn	-5350
▁Prat	-5351
▁Prix	-5352
▁Pros	-5353
▁Quik	-5354
▁Regg	-5355
▁Rich	-5356
▁Rock	-5357
▁Roma	-5358
▁Rund	-5359
▁Sale	-5360
▁Says	-5361
▁Sepp	-5362
▁Shaw	-5363
▁Stan	-5364
▁Tate	-5365
▁Teen	-5366
▁Tens	-5367
▁That	-5368
▁Thur	-5369
▁Unit	-5370
▁Vent	-5371
▁Vera	-5372
▁Vett	-5373
▁Vict	-5374
▁Vinc	-5375
▁Vlad	-5376
▁Wars	-5377
▁What	-5378
▁Yoko	-5379
▁able	-5380
▁aged	-5381
▁ages	-5382
▁ally	-5383
▁aren	-5384
▁attr	-5385
▁baby	-5386
▁base	-5387
▁bold	-5388
▁bore	-5389
▁bull	-5390
▁canv	-5391
▁card	-5392
▁carm	-5393
▁cast	-5394
▁conc	-5395
▁cook	-5396
▁coop	-5397
▁crop	-5398
▁dirt	-5399
,600	-5400
ELES	-5401
aska	-5402
rect	-5403
tbro	-5404
▁26,	-5405
▁72-	-5406
abila	-5407
check	-5408
ormal	-5409
orpor	-5410
where	-5411
▁Kaka	-5412
▁Uruz	-5413
▁dogs	-5414
▁door	-5415
▁drop	-5416
▁earn	-5417
▁easy	-5418
▁edge	-5419
▁educ	-5420
▁enab	-5421
▁exam	-5422
▁fans	-5423
▁farm	-5424
▁fate	-5425
▁fear	-5426
▁fine	-5427
▁gang	-5428
▁gone	-5429
▁gren	-5430
▁hall	-5431
▁hasn	-5432
▁heav	-5433
▁icon	-5434
▁imag	-5435
▁inex	-5436
▁inst	-5437
▁inte	-5438
▁jour	-5439
▁knee	-5440
▁lady	-5441
▁laws	-5442
▁loan	-5443
▁lock	-5444
▁mask	-5445
▁mess	-5446
▁misc	-5447
▁noon	-5448
▁nose	-5449
▁once	-5450
▁ones	-5451
▁oral	-5452
▁ours	-5453
▁owns	-5454
▁pack	-5455
▁phen	-5456
▁plug	-5457
▁prix	-5458
▁pure	-5459
▁quit	-5460
▁quot	-5461
▁rare	-5462
▁rate	-5463
▁rich	-5464
▁room	-5465
▁rush	-5466
▁shif	-5467
▁slip	-5468
▁slow	-5469
▁stor	-5470
▁surp	-5471
▁swim	-5472
▁tied	-5473
▁toil	-5474
▁toys	-5475
▁tree	-5476
▁tube	-5477
▁type	-5478
▁unve	-5479
▁uses	-5480
▁wake	-5481
▁walk	-5482
▁wall	-5483
▁wars	-5484
▁wasn	-5485
▁west	-5486
▁wins	-5487
▁wire	-5488
▁wond	-5489
▁wore	-5490
▁yell	-5491
0,000,	-5492
abilia	-5493
accept	-5494
aceful	-5495
andian	-5496
apolis	-5497
asting	-5498
atcher	-5499
crip	-5500
▁III	-5501
adoni	-5502
▁1976	-5503
▁Dots	-5504
Soviet	-5505
arreal	-5506
atures	-5507
aulted	-5508
berman	-5509
dollar	-5510
emanja	-5511
endent	-5512
erally	-5513
ession	-5514
esters	-5515
esthet	-5516
estyle	-5517
etimes	-5518
ferred	-5519
funded	-5520
guards	-5521
handed	-5522
iately	-5523
icated	-5524
iction	-5525
ienced	-5526
ighter	-5527
illips	-5528
imated	-5529
ineken	-5530
ionals	-5531
ionism	-5532
itical	-5533
itting	-5534
liners	-5535
marine	-5536
member	-5537
minute	-5538
nesota	-5539
nocked	-5540
omenon	-5541
oncili	-5542
onduct	-5543
opping	-5544
ortion	-5545
osives	-5546
othing	-5547
person	-5548
ribune	-5549
runner	-5550
skirts	-5551
stores	-5552
terday	-5553
tleCry	-5554
tronic	-5555
ueling	-5556
ugging	-5557
venile	-5558
waters	-5559
▁1,000	-5560
▁1988,	-5561
▁2006,	-5562
▁5,000	-5563
▁Asian	-5564
▁BAGHD	-5565
▁Baker	-5566
▁Barca	-5567
▁Becky	-5568
▁Beeth	-5569
▁Bronx	-5570
▁Bruce	-5571
▁Catal	-5572
▁Clark	-5573
▁Crown	-5574
▁DIEGO	-5575
▁Debra	-5576
▁Drugs	-5577
▁Earth	-5578
▁Forty	-5579
▁Grass	-5580
▁Guter	-5581
▁Hiber	-5582
▁Hutus	-5583
▁Immig	-5584
▁Imran	-5585
▁Insur	-5586
▁James	-5587
▁Judic	-5588
▁Julia	-5589
▁Justa	-5590
▁Lucky	-5591
▁Mauro	-5592
▁Mehdi	-5593
▁Merit	-5594
▁Minne	-5595
▁Novak	-5596
▁Ocean	-5597
▁Onion	-5598
▁Party	-5599
bott	-5600
uigi	-5601
▁Ult	-5602
▁WTA	-5603
itude	-5604
oenix	-5605
slung	-5606
ufact	-5607
▁1864	-5608
▁300-	-5609
▁Aqua	-5610
▁Finn	-5611
▁Gulf	-5612
▁Kiev	-5613
▁Maxi	-5614
▁Mesa	-5615
▁Nori	-5616
▁lira	-5617
ESBURG	-5618
Gulder	-5619
Planet	-5620
abasco	-5621
euvers	-5622
fugees	-5623
iburon	-5624
lawful	-5625
ureaux	-5626
▁Ahmed	-5627
▁Cesar	-5628
▁Cindy	-5629
▁Costa	-5630
▁Grata	-5631
▁Hakan	-5632
▁Peril	-5633
▁Pirlo	-5634
▁Porto	-5635
▁Power	-5636
▁Raikk	-5637
▁Rhein	-5638
▁River	-5639
▁Saint	-5640
▁Shere	-5641
▁Since	-5642
▁Slide	-5643
▁Smith	-5644
▁Spain	-5645
▁Tripp	-5646
▁Turks	-5647
▁VEGAS	-5648
▁Vidic	-5649
▁Wrest	-5650
▁Wylie	-5651
▁acted	-5652
▁advoc	-5653
▁agent	-5654
▁aired	-5655
▁album	-5656
▁ammun	-5657
▁balls	-5658
▁basis	-5659
▁beach	-5660
▁beads	-5661
▁below	-5662
▁black	-5663
▁brave	-5664
▁cerem	-5665
▁chart	-5666
▁clash	-5667
▁clean	-5668
▁clubs	-5669
▁confr	-5670
▁cycle	-5671
▁debut	-5672
▁dimin	-5673
▁disch	-5674
▁domin	-5675
▁dress	-5676
▁earns	-5677
▁earth	-5678
▁eight	-5679
▁equal	-5680
▁extra	-5681
▁faced	-5682
▁fatal	-5683
▁films	-5684
▁finds	-5685
▁foray	-5686
▁force	-5687
▁forum	-5688
▁freed	-5689
▁fully	-5690
▁gases	-5691
▁girls	-5692
▁globe	-5693
▁green	-5694
▁guerr	-5695
▁haven	-5696
▁heard	-5697
▁heart	-5698
▁hills	-5699
▁FARC	-5700
▁FEMA	-5701
ijuana	-5702
lurkin	-5703
▁Kiwis	-5704
▁Yazid	-5705
▁hired	-5706
▁holds	-5707
▁honor	-5708
▁hosts	-5709
▁jeans	-5710
▁joint	-5711
▁junta	-5712
▁kills	-5713
▁knock	-5714
▁label	-5715
▁lands	-5716
▁leave	-5717
▁legit	-5718
▁lined	-5719
▁looks	-5720
▁loved	-5721
▁lying	-5722
▁marry	-5723
▁mater	-5724
▁moved	-5725
▁moves	-5726
▁negot	-5727
▁nongo	-5728
▁noted	-5729
▁onion	-5730
▁opens	-5731
▁overs	-5732
▁parts	-5733
▁pilot	-5734
▁plant	-5735
▁plate	-5736
▁plays	-5737
▁poppy	-5738
▁poses	-5739
▁pregn	-5740
▁price	-5741
▁prior	-5742
▁psych	-5743
▁purch	-5744
▁quake	-5745
▁quite	-5746
▁refer	-5747
▁regul	-5748
▁resol	-5749
▁roles	-5750
▁ruled	-5751
▁sandw	-5752
▁seats	-5753
▁sever	-5754
▁sewed	-5755
▁shall	-5756
▁shame	-5757
▁sheer	-5758
▁sheet	-5759
▁shock	-5760
▁spark	-5761
▁spend	-5762
▁split	-5763
▁spoke	-5764
▁spons	-5765
▁stiff	-5766
▁sting	-5767
▁stock	-5768
▁store	-5769
▁strik	-5770
▁swall	-5771
▁sweep	-5772
▁talks	-5773
▁teddy	-5774
▁tough	-5775
▁towns	-5776
▁trash	-5777
▁trend	-5778
▁unite	-5779
▁urged	-5780
▁vigil	-5781
▁walks	-5782
▁wheel	-5783
▁white	-5784
▁words	-5785
▁worst	-5786
▁wound	-5787
▁write	-5788
▁wrote	-5789
▁yards	-5790
Udinese	-5791
abulary	-5792
agement	-5793
allenge	-5794
amental	-5795
arrette	-5796
bastien	-5797
busters	-5798
cepting	-5799
clusion	-5800
enskoye	-5801
entions	-5802
erhouni	-5803
friends	-5804
henberg	-5805
hermosa	-5806
igators	-5807
iliated	-5808
illance	-5809
initely	-5810
istered	-5811
iversal	-5812
ivities	-5813
ization	-5814
manship	-5815
mendous	-5816
mercial	-5817
olutely	-5818
ominent	-5819
ommends	-5820
omplice	-5821
orectal	-5822
ossible	-5823
ourages	-5824
pondent	-5825
rential	-5826
resents	-5827
ressive	-5828
tbroken	-5829
trailer	-5830
uctures	-5831
unction	-5832
wheeler	-5833
▁Acting	-5834
▁Airman	-5835
▁Alaska	-5836
▁Alonso	-5837
▁Andrea	-5838
▁Ansari	-5839
▁Author	-5840
▁Beaver	-5841
▁Beirut	-5842
▁Boeing	-5843
▁Bremen	-5844
▁Bryant	-5845
▁Buffon	-5846
▁Cancer	-5847
▁Canyon	-5848
▁Casino	-5849
▁Cheney	-5850
▁Chiefs	-5851
▁Church	-5852
▁Columb	-5853
▁Crisis	-5854
▁Daniel	-5855
▁Debate	-5856
▁Famous	-5857
▁Fields	-5858
▁Forlan	-5859
▁Galaxy	-5860
▁Garcia	-5861
▁Golden	-5862
▁Graham	-5863
▁Harvey	-5864
▁Hispan	-5865
▁Howard	-5866
▁JOHANN	-5867
▁Jacobs	-5868
▁Jersey	-5869
▁Joseph	-5870
▁Julius	-5871
▁Justin	-5872
▁Kabila	-5873
▁Kather	-5874
▁Korean	-5875
▁Lauren	-5876
▁MADRID	-5877
▁Master	-5878
▁McCain	-5879
▁Moscow	-5880
▁Mother	-5881
▁Nicole	-5882
▁Nkunda	-5883
▁Noured	-5884
▁Oakley	-5885
▁Ogadje	-5886
▁Olivia	-5887
▁Oxford	-5888
▁People	-5889
▁Polish	-5890
▁Portug	-5891
▁Public	-5892
▁Qatari	-5893
▁Rafael	-5894
▁Relief	-5895
▁Resort	-5896
▁Reuter	-5897
▁Sailor	-5898
▁Samuel	-5899
▁Sauber	-5900
▁Savers	-5901
▁Search	-5902
▁Second	-5903
▁Sheikh	-5904
▁Shiite	-5905
▁Strike	-5906
▁Thenia	-5907
▁Toukan	-5908
▁Toyota	-5909
▁Twenty	-5910
▁Vettel	-5911
▁Vision	-5912
▁Werder	-5913
▁Wright	-5914
▁accept	-5915
▁affect	-5916
▁agenda	-5917
▁always	-5918
▁amount	-5919
▁animal	-5920
▁applic	-5921
▁associ	-5922
▁atmosp	-5923
▁bailed	-5924
▁bigger	-5925
▁bitter	-5926
▁borrow	-5927
▁brewer	-5928
▁broadc	-5929
▁broken	-5930
▁broker	-5931
▁budget	-5932
▁career	-5933
▁casual	-5934
▁change	-5935
▁citing	-5936
▁clinch	-5937
▁common	-5938
▁constr	-5939
▁corner	-5940
▁damage	-5941
▁decade	-5942
▁denied	-5943
▁deputy	-5944
▁desire	-5945
▁doctor	-5946
▁dollar	-5947
▁donors	-5948
▁eating	-5949
▁elimin	-5950
▁engine	-5951
▁enroll	-5952
▁entire	-5953
▁exhume	-5954
▁extrem	-5955
▁factor	-5956
▁fairly	-5957
▁felony	-5958
▁forget	-5959
▁funded	-5960
▁gamble	-5961
▁giving	-5962
▁gunman	-5963
▁headed	-5964
▁higher	-5965
▁hiring	-5966
▁horror	-5967
▁housed	-5968
▁inland	-5969
▁instit	-5970
▁issues	-5971
▁joined	-5972
▁keeper	-5973
▁ladies	-5974
▁landed	-5975
▁layers	-5976
▁lifted	-5977
▁listed	-5978
▁loaded	-5979
▁looted	-5980
▁mainly	-5981
▁makeup	-5982
▁marked	-5983
▁median	-5984
▁merely	-5985
▁middle	-5986
▁misses	-5987
▁molest	-5988
▁mourns	-5989
▁nature	-5990
▁nearby	-5991
▁netted	-5992
▁nooses	-5993
▁normal	-5994
▁oldest	-5995
▁ouster	-5996
▁patrol	-5997
▁pledge	-5998
▁poorer	-5999
▁poured	-6000
▁powers	-6001
▁prayer	-6002
▁preach	-6003
▁pursue	-6004
▁pushed	-6005
▁raised	-6006
▁rejoin	-6007
▁remove	-6008
▁rescue	-6009
▁retail	-6010
▁revive	-6011
▁reward	-6012
▁rifles	-6013
▁runner	-6014
▁scores	-6015
▁secret	-6016
▁seized	-6017
▁shadow	-6018
▁single	-6019
▁sitter	-6020
▁skills	-6021
▁sniper	-6022
▁source	-6023
▁spaces	-6024
▁speeds	-6025
▁spread	-6026
▁stages	-6027
▁stated	-6028
▁stayed	-6029
▁stores	-6030
▁strain	-6031
▁suites	-6032
▁summit	-6033
▁superb	-6034
▁survey	-6035
▁tested	-6036
▁tracks	-6037
▁trains	-6038
▁triump	-6039
▁tunnel	-6040
▁uncons	-6041
▁vessel	-6042
▁videos	-6043
▁voting	-6044
▁wallet	-6045
▁within	-6046
Mohammed	-6047
ambrotta	-6048
duration	-6049
fortable	-6050
istering	-6051
iversary	-6052
mistress	-6053
olunteer	-6054
piration	-6055
rogation	-6056
sylvania	-6057
vonareva	-6058
▁$50,800	-6059
▁300,000	-6060
▁375,000	-6061
▁400,000	-6062
▁700,000	-6063
▁ANGELES	-6064
▁Airways	-6065
▁Alabama	-6066
▁Alexand	-6067
▁Anthony	-6068
▁BAGHDAD	-6069
▁Because	-6070
▁Benfica	-6071
▁Bolivia	-6072
▁Britney	-6073
▁Caspian	-6074
▁Cassidy	-6075
▁Council	-6076
▁Critics	-6077
▁Develop	-6078
▁Experts	-6079
▁Federer	-6080
▁Finnish	-6081
▁Forrest	-6082
▁Globals	-6083
▁Goldman	-6084
▁Gravell	-6085
▁Houston	-6086
▁Impress	-6087
▁Journal	-6088
▁Khalifa	-6089
▁Library	-6090
▁Lithuan	-6091
▁Mastaga	-6092
▁McMahon	-6093
▁Melissa	-6094
▁Memphis	-6095
▁Morocco	-6096
▁Nemanja	-6097
▁Nicolas	-6098
▁Oakland	-6099
▁Ottoman	-6100
▁Pacific	-6101
▁Panucci	-6102
▁Patrick	-6103
▁Phoenix	-6104
▁Program	-6105
▁Proteas	-6106
▁Richard	-6107
▁Ronaldo	-6108
▁Rwandan	-6109
▁Schultz	-6110
▁Schumer	-6111
▁Seattle	-6112
▁Serbian	-6113
▁Soledad	-6114
▁Stadium	-6115
▁Studios	-6116
▁Tabasco	-6117
▁Tiburon	-6118
▁Uruzgan	-6119
▁Victims	-6120
▁YouTube	-6121
▁account	-6122
▁actions	-6123
▁actress	-6124
▁advance	-6125
▁banning	-6126
▁battery	-6127
▁biggest	-6128
▁blocked	-6129
▁bolster	-6130
▁bombers	-6131
▁borders	-6132
▁bureaux	-6133
▁capable	-6134
▁carried	-6135
▁causing	-6136
▁centers	-6137
▁central	-6138
▁checked	-6139
▁classes	-6140
▁cleared	-6141
▁congreg	-6142
▁cooling	-6143
▁correct	-6144
▁critics	-6145
▁cyclone	-6146
▁decades	-6147
▁deflect	-6148
▁demands	-6149
▁demonst	-6150
▁dragged	-6151
▁drilled	-6152
▁elderly	-6153
▁emerged	-6154
▁emperor	-6155
▁entered	-6156
▁enthusi	-6157
▁example	-6158
▁falling	-6159
▁fitness	-6160
▁flowing	-6161
▁footage	-6162
▁forever	-6163
▁freeing	-6164
▁fritter	-6165
▁furious	-6166
▁greater	-6167
▁handful	-6168
▁hanging	-6169
▁healing	-6170
▁hitting	-6171
▁homosex	-6172
▁hostage	-6173
▁illness	-6174
▁improve	-6175
▁initial	-6176
▁inquest	-6177
▁instead	-6178
▁journey	-6179
▁justice	-6180
▁lawyers	-6181
▁leather	-6182
▁leveled	-6183
▁license	-6184
▁lightly	-6185
▁loyalty	-6186
▁managed	-6187
▁married	-6188
▁maximum	-6189
▁meeting	-6190
▁message	-6191
▁nations	-6192
▁network	-6193
▁nothing	-6194
▁numbers	-6195
▁ongoing	-6196
▁outside	-6197
▁parking	-6198
▁parties	-6199
▁pirates	-6200
▁plastic	-6201
▁project	-6202
▁prophet	-6203
▁protest	-6204
▁putting	-6205
▁quality	-6206
▁quarter	-6207
▁reached	-6208
▁replace	-6209
▁results	-6210
▁showing	-6211
▁similar	-6212
▁spectac	-6213
▁stopped	-6214
▁succeed	-6215
▁surgery	-6216
▁talking	-6217
▁targets	-6218
▁telling	-6219
▁touched	-6220
▁tractor	-6221
▁treated	-6222
▁turning	-6223
▁uncover	-6224
▁undergo	-6225
▁unhappy	-6226
▁unusual	-6227
▁upright	-6228
▁vehicle	-6229
▁veteran	-6230
▁viewers	-6231
▁village	-6232
▁walking	-6233
▁warship	-6234
▁wearing	-6235
▁western	-6236
▁wrapped	-6237
Inspiring	-6238
President	-6239
annesburg	-6240
ationally	-6241
defendant	-6242
education	-6243
ettlement	-6244
forgotten	-6245
orporated	-6246
ressional	-6247
ropolitan	-6248
ulnerable	-6249
▁Africans	-6250
▁Although	-6251
▁Augustin	-6252
▁Benjamin	-6253
▁Buchanan	-6254
▁Chairman	-6255
▁Commerce	-6256
▁Computer	-6257
▁Crescent	-6258
▁December	-6259
▁Director	-6260
▁Donadoni	-6261
▁Ewerthon	-6262
▁Football	-6263
▁Franklin	-6264
▁Guterres	-6265
▁Heineken	-6266
▁Iaquinta	-6267
▁Interior	-6268
▁Interpol	-6269
▁Japanese	-6270
▁Malaysia	-6271
▁Maryland	-6272
▁Mentally	-6273
▁Michigan	-6274
▁Military	-6275
▁Missouri	-6276
▁Northern	-6277
▁Nuffield	-6278
▁Phillips	-6279
▁Pratibha	-6280
▁Princess	-6281
▁QuikSCAT	-6282
▁Refugees	-6283
▁Scottish	-6284
▁Speaking	-6285
▁Sudanese	-6286
▁Ultimate	-6287
▁Veterans	-6288
▁Vincenzo	-6289
▁Vladimir	-6290
▁abortion	-6291
▁accounts	-6292
▁adoption	-6293
▁anesthet	-6294
▁anything	-6295
▁approach	-6296
▁arriving	-6297
▁attacked	-6298
▁attempts	-6299
▁awaiting	-6300
▁battling	-6301
▁becoming	-6302
▁circumst	-6303
▁clearing	-6304
▁clothing	-6305
▁comeback	-6306
▁cracking	-6307
▁creative	-6308
▁cultural	-6309
▁defeated	-6310
▁demanded	-6311
▁deported	-6312
▁designer	-6313
▁detained	-6314
▁diabetes	-6315
▁directly	-6316
▁distance	-6317
▁enabling	-6318
▁executed	-6319
▁exploded	-6320
▁familiar	-6321
▁favorite	-6322
▁fighters	-6323
▁finished	-6324
▁followed	-6325
▁forwards	-6326
▁gasoline	-6327
▁genocide	-6328
▁graduate	-6329
▁grenades	-6330
▁hillside	-6331
▁historic	-6332
▁hostages	-6333
▁husbands	-6334
▁incensed	-6335
▁included	-6336
▁indicate	-6337
▁indicted	-6338
▁insisted	-6339
▁interest	-6340
▁judicial	-6341
▁justices	-6342
▁juvenile	-6343
▁learning	-6344
▁magazine	-6345
▁manufact	-6346
▁marriage	-6347
▁material	-6348
▁meetings	-6349
▁militant	-6350
▁ministry	-6351
▁monitors	-6352
▁mountain	-6353
▁movement	-6354
▁northern	-6355
▁occurred	-6356
▁offender	-6357
▁outraged	-6358
▁oversees	-6359
▁overturn	-6360
▁physical	-6361
▁planners	-6362
▁powerful	-6363
▁practice	-6364
▁preacher	-6365
▁prepared	-6366
▁presence	-6367
▁previous	-6368
▁princess	-6369
▁probably	-6370
▁producer	-6371
▁prosecut	-6372
▁prospect	-6373
▁punished	-6374
▁racially	-6375
▁recalled	-6376
▁recently	-6377
▁reducing	-6378
▁relating	-6379
▁relative	-6380
▁rescuers	-6381
▁revealed	-6382
▁salesman	-6383
▁sandwich	-6384
▁screened	-6385
▁shopping	-6386
▁shortage	-6387
▁starting	-6388
▁stemming	-6389
▁suddenly	-6390
▁suitable	-6391
▁supplies	-6392
▁supposed	-6393
▁survival	-6394
▁swimming	-6395
▁symptoms	-6396
▁tourists	-6397
▁underage	-6398
▁upcoming	-6399
▁villages	-6400
acceptable	-6401
girlfriend	-6402
olutionary	-6403
respondent	-6404
revisiting	-6405
▁Authority	-6406
▁Baghdatis	-6407
▁BattleCry	-6408
▁Beethoven	-6409
▁Boardroom	-6410
▁Challenge	-6411
▁Commander	-6412
▁Communist	-6413
▁Companies	-6414
▁Education	-6415
▁Federline	-6416
▁Francisco	-6417
▁Gianluigi	-6418
▁Hampshire	-6419
▁Hibernian	-6420
▁Institute	-6421
▁Insurance	-6422
▁Judiciary	-6423
▁Katherine	-6424
▁Krawcheck	-6425
▁Lieberman	-6426
▁McClurkin	-6427
▁Minnesota	-6428
▁Officials	-6429
▁Opponents	-6430
▁Parkinson	-6431
▁Principal	-6432
▁Sebastien	-6433
▁Thousands	-6434
▁Universal	-6435
▁Venezuela	-6436
▁aftermath	-6437
▁ambitions	-6438
▁architect	-6439
▁assaulted	-6440
▁assistant	-6441
▁attention	-6442
▁attorneys	-6443
▁celebrity	-6444
▁character	-6445
▁cheekbone	-6446
▁collapsed	-6447
▁completed	-6448
▁condition	-6449
▁contracts	-6450
▁convinced	-6451
▁currently	-6452
▁dangerous	-6453
▁defending	-6454
▁describes	-6455
▁detailing	-6456
▁detective	-6457
▁detention	-6458
▁developed	-6459
▁diplomats	-6460
▁effective	-6461
▁elections	-6462
▁emissions	-6463
▁essential	-6464
▁establish	-6465
▁estimated	-6466
▁extensive	-6467
▁fireflies	-6468
▁governing	-6469
▁grounding	-6470
▁hurricane	-6471
▁illegally	-6472
▁increases	-6473
▁insulting	-6474
▁insurance	-6475
▁integrity	-6476
▁investors	-6477
▁landslide	-6478
▁legendary	-6479
▁lifestyle	-6480
▁maneuvers	-6481
▁marijuana	-6482
▁northeast	-6483
▁otherwise	-6484
▁outskirts	-6485
▁partially	-6486
▁portfolio	-6487
▁positions	-6488
▁primarily	-6489
▁professor	-6490
▁prominent	-6491
▁reconcili	-6492
▁regularly	-6493
▁relations	-6494
▁releasing	-6495
▁remaining	-6496
▁residence	-6497
▁returning	-6498
▁sensitive	-6499
▁shipments	-6500
▁shootings	-6501
▁sophomore	-6502
▁southeast	-6503
▁sportster	-6504
▁spotlight	-6505
▁strategic	-6506
▁submarine	-6507
▁suggested	-6508
▁supported	-6509
▁teenagers	-6510
▁temperate	-6511
▁temporary	-6512
▁tightened	-6513
▁videotape	-6514
▁vigilance	-6515
▁volunteer	-6516
▁withdrawn	-6517
▁yesterday	-6518
Heartbroken	-6519
▁Assistance	-6520
▁Christians	-6521
▁Convention	-6522
▁Foundation	-6523
▁Internally	-6524
▁Midfielder	-6525
▁Nalbandian	-6526
▁Nationwide	-6527
▁Navarrette	-6528
▁Noureddine	-6529
▁Protection	-6530
▁Ramenskoye	-6531
▁Regardless	-6532
▁Ronaldinho	-6533
▁Rothenberg	-6534
▁Torrential	-6535
▁Villarreal	-6536
▁absolutely	-6537
▁accessible	-6538
▁accomplice	-6539
▁activities	-6540
▁ammunition	-6541
▁atmosphere	-6542
▁balloonist	-6543
▁blistering	-6544
▁ceremonial	-6545
▁classified	-6546
▁colleagues	-6547
▁collection	-6548
▁collectors	-6549
▁colorectal	-6550
▁commercial	-6551
▁criticized	-6552
▁deployment	-6553
▁describing	-6554
▁destroying	-6555
▁determined	-6556
▁discharged	-6557
▁drugstores	-6558
▁electronic	-6559
▁encourages	-6560
▁executions	-6561
▁experience	-6562
▁greenhouse	-6563
▁impossible	-6564
▁indictment	-6565
▁industrial	-6566
▁intentions	-6567
▁internally	-6568
▁kidnapping	-6569
▁legitimate	-6570
▁maintained	-6571
▁misconduct	-6572
▁nightmares	-6573
▁passengers	-6574
▁phenomenon	-6575
▁popularity	-6576
▁possession	-6577
▁properties	-6578
▁protesters	-6579
▁qualifiers	-6580
▁questioned	-6581
▁quotations	-6582
▁recognized	-6583
▁recommends	-6584
▁reportedly	-6585
▁represents	-6586
▁scientific	-6587
▁situations	-6588
▁structures	-6589
▁substitute	-6590
▁successful	-6591
▁successive	-6592
▁supporting	-6593
▁suspicious	-6594
▁tremendous	-6595
▁undercover	-6596
▁understand	-6597
▁university	-6598
▁videotaped	-6599
▁visitation	-6600
▁vocabulary	-6601
▁Azerbaijani	-6602
▁Development	-6603
▁Enforcement	-6604
▁Immigration	-6605
▁Journalists	-6606
▁Minneapolis	-6607
▁Prosecutors	-6608
▁Republicans	-6609
▁advertising	-6610
▁alternative	-6611
▁anniversary	-6612
▁appropriate	-6613
▁assignments	-6614
▁comfortable	-6615
▁communities	-6616
▁connections	-6617
▁contestants	-6618
▁disappeared	-6619
▁dogfighting	-6620
▁established	-6621
▁floodwaters	-6622
▁gangbusters	-6623
▁governments	-6624
▁individuals	-6625
▁memorabilia	-6626
▁molestation	-6627
▁partnership	-6628
▁possibility	-6629
▁prosecution	-6630
▁quarterback	-6631
▁specialists	-6632
▁spectacular	-6633
▁temporarily	-6634
▁transferred	-6635
▁transmitted	-6636
▁underground	-6637
▁Firefighters	-6638
▁JOHANNESBURG	-6639
▁Johannesburg	-6640
▁Metropolitan	-6641
▁Palestinians	-6642
▁Pennsylvania	-6643
▁Villahermosa	-6644
▁anesthetized	-6645
▁applications	-6646
▁confirmation	-6647
▁firefighters	-6648
▁headmistress	-6649
▁incorporated	-6650
▁institutions	-6651
▁northeastern	-6652
▁perpetration	-6653
▁professional	-6654
▁resettlement	-6655
▁restrictions	-6656
▁southeastern	-6657
▁supermarkets	-6658
▁surveillance	-6659
▁temperatures	-6660
▁Impressionism	-6661
▁Investigators	-6662
▁Revolutionary	-6663
▁congressional	-6664
▁environmental	-6665
▁interrogation	-6666
▁organizations	-6667
▁professionals	-6668
▁qualification	-6669
▁sportsmanship	-6670
▁traditionally	-6671
▁Administration	-6672
▁Constitutional	-6673
▁Globalsecurity	-6674
▁communications	-6675
▁constitutional	-6676
▁demonstrations	-6677
▁disappointment	-6678
▁reconciliation	-6679
▁transportation	-6680
▁internationally	-6681
▁nongovernmental	-6682
")	-6683
".	-6684
).	-6685
-,	-6686
-6	-6687
-7	-6688
-8	-6689
."	-6690
.'	-6691
.5	-6692
0)	-6693
03	-6694
07	-6695
14	-6696
15	-6697
2,	-6698
23	-6699
.2	-6700
.8	-6701
16	-6702
35	-6703
37	-6704
4.	-6705
5-	-6706
55	-6707
6-	-6708
65	-6709
7)	-6710
8;	-6711
AB	-6712
AH	-6713
AJ	-6714
AP	-6715
At	-6716
CC	-6717
CD	-6718
DI	-6719
DP	-6720
EC	-6721
ER	-6722
ET	-6723
EV	-6724
El	-6725
FC	-6726
FF	-6727
FO	-6728
GO	-6729
HS	-6730
HU	-6731
IC	-6732
IP	-6733
IR	-6734
IT	-6735
Il	-6736
KU	-6737
LB	-6738
Ly	-6739
My	-6740
OG	-6741
OL	-6742
OR	-6743
OT	-6744
OU	-6745
Oh	-6746
On	-6747
Pr	-6748
RC	-6749
RY	-6750
SE	-6751
SL	-6752
Sh	-6753
TR	-6754
To	-6755
US	-6756
Un	-6757
ao	-6758
cy	-6759
eb	-6760
fa	-6761
gl	-6762
hr	-6763
hu	-6764
ih	-6765
iu	-6766
ka	-6767
kh	-6768
kn	-6769
mm	-6770
mo	-6771
of	-6772
ox	-6773
qa	-6774
qt	-6775
rd	-6776
tg	-6777
uv	-6778
uy	-6779
yg	-6780
yi	-6781
yo	-6782
▁0	-6783
-19	-6784
00;	-6785
073	-6786
1,4	-6787
30,	-6788
380	-6789
:16	-6790
APV	-6791
Fad	-6792
GOW	-6793
IEV	-6794
ITY	-6795
InS	-6796
KUL	-6797
LFC	-6798
Man	-6799
Bay	-6800
NFL	-6801
OUM	-6802
Pal	-6803
Par	-6804
Sen	-6805
Som	-6806
ais	-6807
alo	-6808
arb	-6809
arp	-6810
ati	-6811
avs	-6812
awn	-6813
aza	-6814
bed	-6815
bol	-6816
bra	-6817
bus	-6818
but	-6819
can	-6820
cit	-6821
col	-6822
cue	-6823
don	-6824
eds	-6825
eel	-6826
eez	-6827
eld	-6828
enh	-6829
eno	-6830
erg	-6831
ery	-6832
esb	-6833
fun	-6834
gon	-6835
gra	-6836
had	-6837
has	-6838
him	-6839
hon	-6840
hor	-6841
hua	-6842
ila	-6843
inv	-6844
iny	-6845
iol	-6846
isf	-6847
iti	-6848
joh	-6849
jon	-6850
kin	-6851
lie	-6852
low	-6853
mes	-6854
mil	-6855
mor	-6856
nec	-6857
non	-6858
ocu	-6859
ogo	-6860
ols	-6861
onn	-6862
orc	-6863
osi	-6864
oud	-6865
pas	-6866
pen	-6867
rac	-6868
raj	-6869
rey	-6870
rij	-6871
rim	-6872
rin	-6873
ros	-6874
ses	-6875
sey	-6876
som	-6877
sta	-6878
sts	-6879
tay	-6880
tes	-6881
toe	-6882
tro	-6883
uay	-6884
uba	-6885
uer	-6886
val	-6887
vez	-6888
wen	-6889
zan	-6890
zer	-6891
▁"8	-6892
▁(9	-6893
▁31	-6894
▁4,	-6895
▁53	-6896
▁8,	-6897
▁Ag	-6898
▁Bh	-6899
aat	-6900
ana	-6901
arn	-6902
atr	-6903
dis	-6904
esy	-6905
fan	-6906
gar	-6907
oum	-6908
yes	-6909
ypr	-6910
yrs	-6911
▁5,	-6912
▁CH	-6913
▁Ca	-6914
▁DP	-6915
▁Ev	-6916
▁IP	-6917
▁Il	-6918
▁Mr	-6919
▁Ms	-6920
▁My	-6921
▁NA	-6922
▁Ni	-6923
▁Om	-6924
▁Ru	-6925
▁fa	-6926
▁ho	-6927
▁id	-6928
▁po	-6929
▁ta	-6930
▁wa	-6931
,100	-6932
1,67	-6933
67-5	-6934
Cons	-6935
Fire	-6936
Host	-6937
Real	-6938
This	-6939
West	-6940
Wild	-6941
Wire	-6942
adan	-6943
ailp	-6944
alph	-6945
amez	-6946
ampf	-6947
aper	-6948
apor	-6949
aret	-6950
arin	-6951
athe	-6952
atre	-6953
auty	-6954
berd	-6955
bles	-6956
bold	-6957
bros	-6958
bted	-6959
bury	-6960
cers	-6961
cest	-6962
dani	-6963
ders	-6964
ecks	-6965
edom	-6966
egro	-6967
eith	-6968
elve	-6969
emif	-6970
enny	-6971
eric	-6972
erra	-6973
eter	-6974
ethe	-6975
etry	-6976
fied	-6977
heit	-6978
hest	-6979
hind	-6980
hist	-6981
hous	-6982
icic	-6983
iday	-6984
idly	-6985
ierc	-6986
igad	-6987
igne	-6988
ihil	-6989
inen	-6990
ipal	-6991
iran	-6992
isan	-6993
itar	-6994
itor	-6995
izab	-6996
izer	-6997
kill	-6998
know	-6999
Mal	-7000
Rec	-7001
ait	-7002
ema	-7003
wit	-7004
▁Aw	-7005
▁RO	-7006
AMAB	-7007
adal	-7008
aled	-7009
anar	-7010
club	-7011
ding	-7012
fall	-7013
inct	-7014
leen	-7015
lein	-7016
ligh	-7017
lose	-7018
loyd	-7019
miss	-7020
mond	-7021
nsen	-7022
odia	-7023
okyo	-7024
olls	-7025
olom	-7026
omes	-7027
oned	-7028
onen	-7029
onon	-7030
onus	-7031
onze	-7032
ools	-7033
open	-7034
ophy	-7035
opic	-7036
oppa	-7037
orat	-7038
ordn	-7039
orer	-7040
oric	-7041
orie	-7042
osit	-7043
otra	-7044
ouad	-7045
oyer	-7046
pper	-7047
rack	-7048
rawl	-7049
rees	-7050
reve	-7051
rict	-7052
risk	-7053
rooy	-7054
rung	-7055
shal	-7056
sing	-7057
stac	-7058
stay	-7059
tall	-7060
tila	-7061
tony	-7062
uain	-7063
uart	-7064
ucca	-7065
uees	-7066
uild	-7067
uing	-7068
ules	-7069
ulge	-7070
umas	-7071
umed	-7072
unic	-7073
usal	-7074
uted	-7075
vice	-7076
will	-7077
work	-7078
xist	-7079
ylum	-7080
zagl	-7081
zema	-7082
▁($2	-7083
▁118	-7084
▁15-	-7085
▁19,	-7086
▁210	-7087
▁22-	-7088
▁224	-7089
▁241	-7090
▁26.	-7091
▁3.6	-7092
▁4.2	-7093
▁50'	-7094
▁ATF	-7095
▁ATP	-7096
▁Act	-7097
▁Aff	-7098
▁Alv	-7099
9-2	-7100
You	-7101
bas	-7102
ffs	-7103
hle	-7104
isl	-7105
lle	-7106
mas	-7107
sas	-7108
▁48	-7109
▁Mw	-7110
ache	-7111
aser	-7112
haka	-7113
iena	-7114
imid	-7115
irus	-7116
istr	-7117
mary	-7118
ndon	-7119
rang	-7120
rend	-7121
sent	-7122
▁35-	-7123
▁App	-7124
▁Att	-7125
▁Ban	-7126
▁Bay	-7127
▁Bee	-7128
▁Bet	-7129
▁Bor	-7130
▁Cab	-7131
▁Cal	-7132
▁Chi	-7133
▁Cir	-7134
▁Cop	-7135
▁Dal	-7136
▁Div	-7137
▁Dye	-7138
▁Eff	-7139
▁Eps	-7140
▁Ess	-7141
▁Est	-7142
▁Fac	-7143
▁Far	-7144
▁Fil	-7145
▁Fle	-7146
▁Fri	-7147
▁GDP	-7148
▁Had	-7149
▁Has	-7150
▁Hot	-7151
▁Jav	-7152
▁Jes	-7153
▁Jol	-7154
▁Jon	-7155
▁Kim	-7156
▁Lim	-7157
▁MOG	-7158
▁Nur	-7159
▁Pen	-7160
▁Puy	-7161
▁Rem	-7162
▁Rio	-7163
▁Roy	-7164
▁SHA	-7165
▁Ser	-7166
▁Sil	-7167
▁Sim	-7168
▁Sob	-7169
▁Tim	-7170
▁Tob	-7171
▁Top	-7172
▁Vol	-7173
▁WRU	-7174
▁Was	-7175
▁aer	-7176
▁ask	-7177
▁ast	-7178
▁ate	-7179
▁bit	-7180
▁cad	-7181
▁cam	-7182
▁cat	-7183
▁cer	-7184
▁cin	-7185
▁dom	-7186
▁ech	-7187
▁enj	-7188
▁fal	-7189
▁fig	-7190
▁fra	-7191
▁hat	-7192
▁haz	-7193
▁hon	-7194
▁inf	-7195
▁kit	-7196
▁liv	-7197
▁los	-7198
▁mel	-7199
Def	-7200
Sha	-7201
acs	-7202
cop	-7203
idf	-7204
ilt	-7205
omy	-7206
rom	-7207
sid	-7208
alid	-7209
forg	-7210
idal	-7211
iden	-7212
iled	-7213
ilic	-7214
ilon	-7215
lams	-7216
lean	-7217
upor	-7218
▁ARY	-7219
▁Kid	-7220
▁cro	-7221
▁ded	-7222
▁dir	-7223
▁dre	-7224
▁mal	-7225
▁mic	-7226
▁mis	-7227
▁mom	-7228
▁mos	-7229
▁mot	-7230
▁nar	-7231
▁nor	-7232
▁pan	-7233
▁ped	-7234
▁pie	-7235
▁pit	-7236
▁por	-7237
▁rev	-7238
▁rom	-7239
▁rub	-7240
▁rud	-7241
▁rum	-7242
▁sal	-7243
▁scr	-7244
▁sie	-7245
▁sky	-7246
▁sle	-7247
▁tan	-7248
▁ton	-7249
▁unf	-7250
▁unl	-7251
▁van	-7252
▁vet	-7253
▁via	-7254
▁vis	-7255
▁wel	-7256
▁yaw	-7257
-1950	-7258
ASGOW	-7259
Becks	-7260
Gupta	-7261
Harry	-7262
Illin	-7263
Jenny	-7264
Malik	-7265
Shawn	-7266
Sonny	-7267
Speed	-7268
acing	-7269
acker	-7270
adler	-7271
afety	-7272
agued	-7273
aleed	-7274
alist	-7275
allis	-7276
ament	-7277
amped	-7278
andro	-7279
ankly	-7280
antas	-7281
ardom	-7282
arers	-7283
arfur	-7284
arget	-7285
artak	-7286
ashim	-7287
asive	-7288
asoul	-7289
asser	-7290
assie	-7291
astor	-7292
astri	-7293
atale	-7294
ategy	-7295
atero	-7296
atian	-7297
atomy	-7298
aware	-7299
Nev	-7300
Vay	-7301
aye	-7302
cos	-7303
ela	-7304
iri	-7305
nut	-7306
oli	-7307
oln	-7308
olo	-7309
uci	-7310
▁AJ	-7311
▁AN	-7312
▁AP	-7313
▁CE	-7314
▁SM	-7315
▁SW	-7316
Live	-7317
acco	-7318
alez	-7319
asad	-7320
cerp	-7321
elun	-7322
ixed	-7323
oinc	-7324
olen	-7325
ongh	-7326
star	-7327
uttg	-7328
wear	-7329
went	-7330
▁Cat	-7331
▁Cox	-7332
▁Jem	-7333
▁Sed	-7334
▁Son	-7335
▁sug	-7336
Vayni	-7337
barus	-7338
clear	-7339
comer	-7340
could	-7341
crime	-7342
cruci	-7343
egree	-7344
ellur	-7345
endle	-7346
entle	-7347
eolog	-7348
ephen	-7349
erent	-7350
estro	-7351
ffman	-7352
fires	-7353
frast	-7354
fully	-7355
ganis	-7356
getry	-7357
graph	-7358
iance	-7359
iated	-7360
icing	-7361
icksh	-7362
iders	-7363
idesp	-7364
iesel	-7365
iesta	-7366
illar	-7367
iment	-7368
immed	-7369
induc	-7370
inter	-7371
isers	-7372
ishop	-7373
itual	-7374
izont	-7375
kicks	-7376
laden	-7377
lames	-7378
ledge	-7379
liest	-7380
lined	-7381
liner	-7382
mable	-7383
mines	-7384
mouse	-7385
natur	-7386
navig	-7387
oaded	-7388
ocent	-7389
ogues	-7390
okela	-7391
ommod	-7392
orded	-7393
orers	-7394
orest	-7395
orous	-7396
ortez	-7397
otrop	-7398
ourts	-7399
Key	-7400
Pac	-7401
Sex	-7402
aur	-7403
eli	-7404
fth	-7405
mad	-7406
rob	-7407
uso	-7408
zel	-7409
▁ME	-7410
▁TM	-7411
Alma	-7412
atht	-7413
cost	-7414
elie	-7415
elsh	-7416
hero	-7417
rock	-7418
urer	-7419
▁AIR	-7420
▁Eve	-7421
▁Men	-7422
▁Mit	-7423
▁Sig	-7424
▁Til	-7425
▁Tit	-7426
▁nam	-7427
▁pac	-7428
Dover	-7429
ching	-7430
eopol	-7431
iftly	-7432
kment	-7433
leans	-7434
minal	-7435
ovani	-7436
parts	-7437
power	-7438
raeli	-7439
raven	-7440
resse	-7441
rings	-7442
ritor	-7443
ruary	-7444
ruits	-7445
scale	-7446
scene	-7447
stein	-7448
thard	-7449
tihad	-7450
uchar	-7451
uchen	-7452
ullah	-7453
ullet	-7454
undou	-7455
unken	-7456
until	-7457
veled	-7458
vised	-7459
years	-7460
yeful	-7461
yprus	-7462
zymes	-7463
▁1,87	-7464
▁127,	-7465
▁1500	-7466
▁153-	-7467
▁1947	-7468
▁1955	-7469
▁1985	-7470
▁1988	-7471
▁1995	-7472
▁3:16	-7473
▁Acqu	-7474
▁Adam	-7475
▁Asta	-7476
▁Bail	-7477
▁Bond	-7478
▁Budd	-7479
▁CITY	-7480
▁Chia	-7481
▁Citi	-7482
▁Craw	-7483
▁Diff	-7484
▁Dodd	-7485
▁Done	-7486
▁Edin	-7487
▁Eric	-7488
▁Este	-7489
▁Fall	-7490
▁Feat	-7491
▁Feds	-7492
▁Floy	-7493
▁Flum	-7494
▁Garf	-7495
▁Gatt	-7496
▁Gill	-7497
▁Gior	-7498
▁Goal	-7499
036	-7500
ams	-7501
eve	-7502
ige	-7503
phy	-7504
ram	-7505
usl	-7506
▁98	-7507
▁BR	-7508
▁By	-7509
Love	-7510
acir	-7511
aman	-7512
date	-7513
erro	-7514
ewel	-7515
roit	-7516
uson	-7517
usts	-7518
▁Bas	-7519
▁Bon	-7520
▁Bou	-7521
▁Feb	-7522
▁MTV	-7523
▁Sul	-7524
▁Wid	-7525
▁odd	-7526
▁pir	-7527
field	-7528
gment	-7529
hlete	-7530
illas	-7531
onard	-7532
stamp	-7533
▁BREM	-7534
▁Grij	-7535
▁Guss	-7536
▁Hans	-7537
▁Have	-7538
▁Hear	-7539
▁Hers	-7540
▁Horn	-7541
▁Hour	-7542
▁IAPV	-7543
▁Inza	-7544
▁Iron	-7545
▁Isle	-7546
▁Ivan	-7547
▁Jack	-7548
▁KONG	-7549
▁Katr	-7550
▁Kern	-7551
▁Lamp	-7552
▁Lane	-7553
▁Lang	-7554
▁Lapt	-7555
▁Long	-7556
▁Love	-7557
▁Marg	-7558
▁Mont	-7559
▁Musl	-7560
▁News	-7561
▁Nich	-7562
▁Nist	-7563
▁Nuri	-7564
▁Otay	-7565
▁Over	-7566
▁Pati	-7567
▁Peel	-7568
▁Pier	-7569
▁Pist	-7570
▁Rahm	-7571
▁Rank	-7572
▁Rapp	-7573
▁Reno	-7574
▁Resp	-7575
▁Ross	-7576
▁SWAT	-7577
▁Salv	-7578
▁Spec	-7579
▁Stev	-7580
▁Tape	-7581
▁Team	-7582
▁Toni	-7583
▁Toro	-7584
▁Waco	-7585
▁Year	-7586
▁adri	-7587
▁aest	-7588
▁aide	-7589
▁alle	-7590
▁amaz	-7591
▁anch	-7592
▁answ	-7593
▁baza	-7594
▁beds	-7595
▁bene	-7596
▁benz	-7597
▁bick	-7598
▁bicy	-7599
eet	-7600
ete	-7601
kok	-7602
mey	-7603
▁2-	-7604
▁PA	-7605
atra	-7606
barr	-7607
inet	-7608
itts	-7609
kiss	-7610
oble	-7611
ques	-7612
raig	-7613
uros	-7614
utan	-7615
▁Eri	-7616
▁Fre	-7617
▁Gas	-7618
▁Ian	-7619
▁Ire	-7620
▁Jor	-7621
▁Pad	-7622
▁Paw	-7623
▁Pin	-7624
▁ang	-7625
▁dys	-7626
▁ele	-7627
▁gad	-7628
▁gra	-7629
▁pra	-7630
airon	-7631
apons	-7632
daugh	-7633
enyan	-7634
eting	-7635
ftops	-7636
meyer	-7637
msbee	-7638
ority	-7639
sidew	-7640
▁Acad	-7641
▁Bind	-7642
▁Erik	-7643
▁Lips	-7644
▁Mide	-7645
▁Tuck	-7646
▁blin	-7647
▁blog	-7648
▁bona	-7649
▁boun	-7650
▁buck	-7651
▁bump	-7652
▁burg	-7653
▁chur	-7654
▁core	-7655
▁corp	-7656
▁crut	-7657
▁date	-7658
▁dawn	-7659
▁deft	-7660
▁deny	-7661
▁dire	-7662
▁dors	-7663
▁dysf	-7664
▁ecot	-7665
▁fest	-7666
▁flag	-7667
▁flow	-7668
▁forb	-7669
▁fort	-7670
▁fram	-7671
▁gall	-7672
▁gaps	-7673
▁gear	-7674
▁glam	-7675
▁golf	-7676
▁hair	-7677
▁hars	-7678
▁heck	-7679
▁hits	-7680
▁indo	-7681
▁jets	-7682
▁jung	-7683
▁king	-7684
▁labs	-7685
▁lose	-7686
▁mate	-7687
▁mind	-7688
▁ough	-7689
▁padd	-7690
▁path	-7691
▁plum	-7692
▁pron	-7693
▁puls	-7694
▁push	-7695
▁reas	-7696
▁reit	-7697
▁ring	-7698
▁sack	-7699
ghi	-7700
vot	-7701
▁47	-7702
▁DA	-7703
▁Do	-7704
▁Dr	-7705
▁FM	-7706
▁GL	-7707
Narc	-7708
apid	-7709
apon	-7710
dden	-7711
isot	-7712
part	-7713
uage	-7714
uble	-7715
▁$5,	-7716
▁21.	-7717
▁5-1	-7718
▁Abb	-7719
▁Dam	-7720
▁Dar	-7721
▁Dig	-7722
▁Dit	-7723
▁Dou	-7724
▁Fat	-7725
▁Fit	-7726
▁Fol	-7727
▁Fur	-7728
▁Hes	-7729
▁Ins	-7730
▁Tot	-7731
▁aim	-7732
▁beg	-7733
▁dim	-7734
▁dup	-7735
Larry	-7736
aguay	-7737
earth	-7738
iscal	-7739
rever	-7740
uador	-7741
udjoh	-7742
▁$5,3	-7743
▁220.	-7744
▁Barn	-7745
▁Else	-7746
▁ROME	-7747
▁Roon	-7748
▁aver	-7749
▁beam	-7750
▁dipp	-7751
▁mart	-7752
▁refr	-7753
▁sale	-7754
▁shed	-7755
▁sink	-7756
▁sits	-7757
▁slot	-7758
▁smok	-7759
▁sore	-7760
▁stir	-7761
▁stun	-7762
▁surf	-7763
▁symm	-7764
▁tall	-7765
▁tast	-7766
▁tend	-7767
▁thin	-7768
▁toss	-7769
▁toug	-7770
▁trap	-7771
▁truc	-7772
▁undr	-7773
▁unhe	-7774
▁wave	-7775
▁whos	-7776
▁wish	-7777
1,675-	-7778
Recent	-7779
Taking	-7780
abbles	-7781
ackled	-7782
adrill	-7783
agraph	-7784
allica	-7785
amatic	-7786
ancing	-7787
arlier	-7788
arpton	-7789
arting	-7790
asquez	-7791
atever	-7792
athons	-7793
athtub	-7794
avezzi	-7795
bottom	-7796
bridge	-7797
btedly	-7798
cedure	-7799
bly	-7800
bow	-7801
emy	-7802
gth	-7803
hop	-7804
how	-7805
hun	-7806
▁Lj	-7807
▁Lt	-7808
ENOS	-7809
Will	-7810
erno	-7811
hand	-7812
hunt	-7813
illo	-7814
ueen	-7815
ugly	-7816
▁90-	-7817
▁Aun	-7818
▁Dak	-7819
▁Inf	-7820
▁Led	-7821
▁Lis	-7822
▁Lut	-7823
▁Oct	-7824
▁Ran	-7825
▁Rec	-7826
▁Rut	-7827
▁ash	-7828
▁bub	-7829
allie	-7830
andom	-7831
embly	-7832
illan	-7833
pless	-7834
raign	-7835
still	-7836
uable	-7837
▁30-,	-7838
▁Ferr	-7839
▁Huck	-7840
▁Ljub	-7841
▁Rand	-7842
▁Vide	-7843
▁fill	-7844
▁ugly	-7845
▁unst	-7846
ainbow	-7847
akable	-7848
asions	-7849
collap	-7850
colony	-7851
degree	-7852
ellini	-7853
enough	-7854
ensual	-7855
eorgia	-7856
erbate	-7857
ercise	-7858
estion	-7859
etrate	-7860
fisher	-7861
formed	-7862
fthans	-7863
gnoses	-7864
hammad	-7865
hanger	-7866
heelah	-7867
housen	-7868
iation	-7869
ickets	-7870
idents	-7871
ideous	-7872
idered	-7873
iences	-7874
ifteen	-7875
ifting	-7876
ifying	-7877
ighton	-7878
ilippo	-7879
import	-7880
insula	-7881
itable	-7882
izures	-7883
jacked	-7884
lected	-7885
luster	-7886
manuel	-7887
medies	-7888
nectic	-7889
nitude	-7890
ointed	-7891
oonist	-7892
ooting	-7893
orious	-7894
ormack	-7895
osevel	-7896
others	-7897
pector	-7898
ppling	-7899
ddo	-7900
uce	-7901
▁95	-7902
▁NY	-7903
▁Nt	-7904
▁ri	-7905
ADIS	-7906
atri	-7907
bout	-7908
hour	-7909
icts	-7910
life	-7911
odak	-7912
once	-7913
ophe	-7914
outs	-7915
prit	-7916
rian	-7917
rius	-7918
stri	-7919
unal	-7920
▁$47	-7921
▁Ful	-7922
▁Hen	-7923
▁Hig	-7924
▁	-7925
e	-7926
a	-7927
t	-7928
i	-7929
n	-7930
o	-7931
r	-7932
s	-7933
l	-7934
h	-7935
d	-7936
c	-7937
u	-7938
f	-7939
m	-7940
g	-7941
p	-7942
y	-7943
w	-7944
b	-7945
,	-7946
v	-7947
.	-7948
k	-7949
-	-7950
S	-7951
C	-7952
A	-7953
"	-7954
0	-7955
N	-7956
'	-7957
T	-7958
M	-7959
I	-7960
B	-7961
P	-7962
D	-7963
1	-7964
F	-7965
W	-7966
L	-7967
2	-7968
x	-7969
R	-7970
E	-7971
H	-7972
j	-7973
G	-7974
U	-7975
O	-7976
q	-7977
J	-7978
z	-7979
5	-7980
:	-7981
V	-7982
(	-7983
3	-7984
)	-7985
4	-7986
K	-7987
8	-7988
7	-7989
9	-7990
6	-7991
;	-7992
Y	-7993
Q	-7994
$	-7995
